{
  "version": "1.0",
  "truncation": null,
  "padding": null,
  "added_tokens": [
    {
      "id": 0,
      "content": "<|unk|>",
      "single_word": false,
      "lstrip": false,
      "rstrip": false,
      "normalized": false,
      "special": true
    },
    {
      "id": 1,
      "content": "<|eof|>",
      "single_word": false,
      "lstrip": false,
      "rstrip": false,
      "normalized": false,
      "special": true
    }
  ],
  "normalizer": null,
  "pre_tokenizer": {
    "type": "ByteLevel",
    "add_prefix_space": true,
    "trim_offsets": true,
    "use_regex": true
  },
  "post_processor": {
    "type": "ByteLevel",
    "add_prefix_space": true,
    "trim_offsets": true,
    "use_regex": true
  },
  "decoder": null,
  "model": {
    "type": "BPE",
    "dropout": null,
    "unk_token": "<|unk|>",
    "continuing_subword_prefix": null,
    "end_of_word_suffix": null,
    "fuse_unk": false,
    "byte_fallback": false,
    "ignore_merges": false,
    "vocab": {
      "<|unk|>": 0,
      "<|eof|>": 1,
      "!": 2,
      "\"": 3,
      "%": 4,
      "'": 5,
      "(": 6,
      ")": 7,
      "*": 8,
      "+": 9,
      ",": 10,
      "-": 11,
      ".": 12,
      "/": 13,
      "0": 14,
      "1": 15,
      "2": 16,
      "3": 17,
      "4": 18,
      "5": 19,
      "6": 20,
      "7": 21,
      "8": 22,
      "9": 23,
      ":": 24,
      ";": 25,
      "=": 26,
      "?": 27,
      "A": 28,
      "B": 29,
      "C": 30,
      "D": 31,
      "E": 32,
      "F": 33,
      "G": 34,
      "H": 35,
      "I": 36,
      "J": 37,
      "K": 38,
      "L": 39,
      "M": 40,
      "N": 41,
      "O": 42,
      "P": 43,
      "Q": 44,
      "R": 45,
      "S": 46,
      "T": 47,
      "U": 48,
      "V": 49,
      "W": 50,
      "X": 51,
      "Y": 52,
      "Z": 53,
      "a": 54,
      "b": 55,
      "c": 56,
      "d": 57,
      "e": 58,
      "f": 59,
      "g": 60,
      "h": 61,
      "i": 62,
      "j": 63,
      "k": 64,
      "l": 65,
      "m": 66,
      "n": 67,
      "o": 68,
      "p": 69,
      "q": 70,
      "r": 71,
      "s": 72,
      "t": 73,
      "u": 74,
      "v": 75,
      "w": 76,
      "x": 77,
      "y": 78,
      "z": 79,
      "¢": 80,
      "¦": 81,
      "¨": 82,
      "©": 83,
      "«": 84,
      "³": 85,
      "¹": 86,
      "º": 87,
      "»": 88,
      "¼": 89,
      "Â": 90,
      "Ã": 91,
      "Ä": 92,
      "Å": 93,
      "Ì": 94,
      "â": 95,
      "Ċ": 96,
      "č": 97,
      "Ġ": 98,
      "Ģ": 99,
      "ģ": 100,
      "Ĥ": 101,
      "Ħ": 102,
      "ħ": 103,
      "Ĩ": 104,
      "ĩ": 105,
      "ĵ": 106,
      "Ķ": 107,
      "ĺ": 108,
      "Ļ": 109,
      "ļ": 110,
      "Ľ": 111,
      "Ŀ": 112,
      "ŀ": 113,
      "ł": 114,
      "ie": 115,
      "ÅĤ": 116,
      "čĊ": 117,
      "Ġp": 118,
      "Ġs": 119,
      "ÄĻ": 120,
      "Ġw": 121,
      "Ġn": 122,
      "Äħ": 123,
      "Ġz": 124,
      "rz": 125,
      "cz": 126,
      "Å¼": 127,
      "aÅĤ": 128,
      "ch": 129,
      "Ġt": 130,
      "Ġd": 131,
      "ÅĽ": 132,
      "Ã³": 133,
      "st": 134,
      "iÄĻ": 135,
      "ow": 136,
      "sz": 137,
      "Ġm": 138,
      "ra": 139,
      "Ġk": 140,
      "Ġo": 141,
      "dz": 142,
      "ni": 143,
      "Ġj": 144,
      "nie": 145,
      "Ġpo": 146,
      "Ġna": 147,
      "Äĩ": 148,
      "ro": 149,
      "Ġb": 150,
      "Ġi": 151,
      "li": 152,
      "ak": 153,
      "rze": 154,
      "ĠsiÄĻ": 155,
      "go": 156,
      "ci": 157,
      "Ġnie": 158,
      "le": 159,
      "ny": 160,
      "na": 161,
      "ne": 162,
      "âĢ": 163,
      "ar": 164,
      "ÅĤo": 165,
      "rzy": 166,
      "Ġza": 167,
      "ĠW": 168,
      "ÅĤa": 169,
      "ĠĠ": 170,
      "ĠâĢ": 171,
      "Å¼e": 172,
      "Ġdo": 173,
      "em": 174,
      "wi": 175,
      "Ġje": 176,
      "ĠâĢĶ": 177,
      "ĠčĊ": 178,
      "wa": 179,
      "Ġg": 180,
      "ka": 181,
      "ĠP": 182,
      "mi": 183,
      "czy": 184,
      "Ġu": 185,
      "ko": 186,
      "ki": 187,
      "Ã³w": 188,
      "dzi": 189,
      "Äħc": 190,
      "dy": 191,
      "Ġwy": 192,
      "cie": 193,
      "la": 194,
      "ta": 195,
      "ry": 196,
      "no": 197,
      "Ġprze": 198,
      "Ġc": 199,
      "ĠÅ¼e": 200,
      "da": 201,
      "ĠN": 202,
      "dzie": 203,
      "Ġa": 204,
      "cze": 205,
      "by": 206,
      "Ġjak": 207,
      "Ġto": 208,
      "owa": 209,
      "Ġko": 210,
      "szy": 211,
      "ÅĽci": 212,
      "Ġst": 213,
      "Ġby": 214,
      "ĠT": 215,
      "wo": 216,
      "ty": 217,
      "Ġsz": 218,
      "nia": 219,
      "ĠS": 220,
      "nÄħ": 221,
      "ru": 222,
      "am": 223,
      "re": 224,
      "Ġod": 225,
      "wie": 226,
      "ku": 227,
      "ad": 228,
      "ĠZ": 229,
      "po": 230,
      "kie": 231,
      "ÅĦ": 232,
      "en": 233,
      "Ġro": 234,
      "ÅĤy": 235,
      "ĠJ": 236,
      "Ġty": 237,
      "ej": 238,
      "aÅĤa": 239,
      "jÄħc": 240,
      "ĠO": 241,
      "si": 242,
      "Ġcz": 243,
      "Ġprzy": 244,
      "Ġch": 245,
      "Ġni": 246,
      "ĠM": 247,
      "sto": 248,
      "as": 249,
      "bie": 250,
      "raz": 251,
      "Ġmo": 252,
      "ĠA": 253,
      "owie": 254,
      "in": 255,
      "te": 256,
      "tÃ³": 257,
      "ce": 258,
      "lu": 259,
      "ÅĤu": 260,
      "sta": 261,
      "ĠÅĽ": 262,
      "je": 263,
      "ĠK": 264,
      "mie": 265,
      "bi": 266,
      "ĠI": 267,
      "Ġpa": 268,
      "Å¼y": 269,
      "Ġwie": 270,
      "Ġdz": 271,
      "ĠC": 272,
      "ĠB": 273,
      "aÅĤo": 274,
      "Ġmi": 275,
      "sze": 276,
      "Ġpod": 277,
      "Ġtak": 278,
      "rÃ³": 279,
      "wy": 280,
      "my": 281,
      "Ġgo": 282,
      "ÅĽÄĩ": 283,
      "ĠD": 284,
      "cy": 285,
      "Ġte": 286,
      "ĠPo": 287,
      "ĠktÃ³": 288,
      "ma": 289,
      "Ġco": 290,
      "aÅĤy": 291,
      "ĠĠĠ": 292,
      "ĠNie": 293,
      "jÄħ": 294,
      "Ġroz": 295,
      "ja": 296,
      "tu": 297,
      "er": 298,
      "nych": 299,
      "rÄĻ": 300,
      "pi": 301,
      "ĠWin": 302,
      "to": 303,
      "ĠWinsto": 304,
      "Åº": 305,
      "Ġwi": 306,
      "Ġmu": 307,
      "ĠR": 308,
      "ba": 309,
      "zy": 310,
      "pie": 311,
      "ca": 312,
      "uÅ¼": 313,
      "Ġczy": 314,
      "Ġjed": 315,
      "Ġwo": 316,
      "we": 317,
      "ĠNa": 318,
      "ga": 319,
      "owy": 320,
      "nym": 321,
      "Ġob": 322,
      "nej": 323,
      "lo": 324,
      "ek": 325,
      "Ġka": 326,
      "owi": 327,
      "ĠĠĠĠ": 328,
      "niej": 329,
      "Ġjest": 330,
      "gi": 331,
      "ob": 332,
      "pa": 333,
      "Â«": 334,
      "Â»": 335,
      "Ġma": 336,
      "Ġdzie": 337,
      "waÅĤ": 338,
      "ĠWinston": 339,
      "nego": 340,
      "nÄĻ": 341,
      "Ġpra": 342,
      "mu": 343,
      "mo": 344,
      "ĠÂ«": 345,
      "Ġsp": 346,
      "Ġda": 347,
      "ez": 348,
      "Ġf": 349,
      "Ġlu": 350,
      "ĠG": 351,
      "ski": 352,
      "nÄħÅĤ": 353,
      "lko": 354,
      "Ġsta": 355,
      "dziaÅĤ": 356,
      "Ġpro": 357,
      "Ġle": 358,
      "Ġmie": 359,
      "Ġra": 360,
      "Ġwszy": 361,
      "Ġspo": 362,
      "ÅĽli": 363,
      "owo": 364,
      "ĠjuÅ¼": 365,
      "tem": 366,
      "Ġci": 367,
      "bo": 368,
      "wia": 369,
      "cha": 370,
      "Ġin": 371,
      "Äħd": 372,
      "za": 373,
      "sa": 374,
      "ĠL": 375,
      "ĠgÅĤ": 376,
      "ĠÅ¼": 377,
      "kiem": 378,
      "kÄĻ": 379,
      "ĠbyÅĤo": 380,
      "Ġsk": 381,
      "ĠJe": 382,
      "cza": 383,
      "cho": 384,
      "sza": 385,
      "Ġrze": 386,
      "Ġsam": 387,
      "iedy": 388,
      "Ġmy": 389,
      "du": 390,
      "Ġtylko": 391,
      "ĠÅ": 392,
      "Ġbo": 393,
      "ĠmÃ³": 394,
      "art": 395,
      "jÄĻ": 396,
      "Ġze": 397,
      "do": 398,
      "ego": 399,
      "szcze": 400,
      "Ġzna": 401,
      "ĠbyÅĤ": 402,
      "Ġpowie": 403,
      "Ġprzez": 404,
      "nik": 405,
      "nak": 406,
      "os": 407,
      "Ġwszyst": 408,
      "Ġjego": 409,
      "or": 410,
      "Ġ*": 411,
      "Ġraz": 412,
      "Ġla": 413,
      "an": 414,
      "owaÅĤ": 415,
      "ĠktÃ³ry": 416,
      "Ġh": 417,
      "kÄħ": 418,
      "Ġsie": 419,
      "Ġku": 420,
      "ÅĽcie": 421,
      "Ġdzi": 422,
      "ew": 423,
      "ĠZa": 424,
      "ji": 425,
      "su": 426,
      "niu": 427,
      "usz": 428,
      "Ġog": 429,
      "Ġczas": 430,
      "ĠH": 431,
      "ĠrÄĻ": 432,
      "gÅĤ": 433,
      "Ġbez": 434,
      "raw": 435,
      "ĠÅ¼y": 436,
      "Ġso": 437,
      "ĠktÃ³re": 438,
      "ÄĻdzie": 439,
      "Ġpie": 440,
      "Ġtym": 441,
      "Ġwa": 442,
      "sty": 443,
      "Ġprzed": 444,
      "Ġcho": 445,
      "nu": 446,
      "ĠwiÄĻ": 447,
      "wet": 448,
      "Ġwz": 449,
      "Ã³ÅĤ": 450,
      "cu": 451,
      "wszy": 452,
      "rÄħ": 453,
      "Ġale": 454,
      "Ġich": 455,
      "sy": 456,
      "Ġcie": 457,
      "Ġpi": 458,
      "Ġli": 459,
      "ĠwÅĤa": 460,
      "czu": 461,
      "Ġbi": 462,
      "im": 463,
      "Ġkiedy": 464,
      "Ġjej": 465,
      "men": 466,
      "so": 467,
      "ĠU": 468,
      "Ġsto": 469,
      "czo": 470,
      "ĠCh": 471,
      "js": 472,
      "kÃ³w": 473,
      "Ġsobie": 474,
      "ĠsÅĤ": 475,
      "cia": 476,
      "Ġgdy": 477,
      "eÅĤ": 478,
      "noÅĽci": 479,
      "Ġdla": 480,
      "Ġzo": 481,
      "ĠJak": 482,
      "rÃ³w": 483,
      "Ġnad": 484,
      "Ġjednak": 485,
      "ĠÅ»": 486,
      "Ġta": 487,
      "dzy": 488,
      "Ġpoz": 489,
      "Ġbar": 490,
      "dzo": 491,
      "ĠWy": 492,
      "ska": 493,
      "cji": 494,
      "taÅĤ": 495,
      "ym": 496,
      "ĠĠĠĠĠĠĠĠ": 497,
      "ĠPart": 498,
      "lach": 499,
      "czÄĻ": 500,
      "ĠTo": 501,
      "Ġru": 502,
      "Ġnaj": 503,
      "Ġtwa": 504,
      "trz": 505,
      "ÅĽl": 506,
      "Ã³j": 507,
      "owaÄĩ": 508,
      "ĠmiaÅĤ": 509,
      "dze": 510,
      "âĢ¦": 511,
      "Ġtego": 512,
      "de": 513,
      "stwa": 514,
      "dziÅĤ": 515,
      "ĠÅ¼eby": 516,
      "kÅĤ": 517,
      "ÄĻp": 518,
      "Ġnawet": 519,
      "gie": 520,
      "Ġpow": 521,
      "Ġnim": 522,
      "ĠParti": 523,
      "ĠcaÅĤ": 524,
      "sie": 525,
      "ĠWo": 526,
      "lÄĻ": 527,
      "ĠgÅĤo": 528,
      "ĠPrze": 529,
      "ĠkaÅ¼": 530,
      "âĢĿ": 531,
      "now": 532,
      "Ġtu": 533,
      "skie": 534,
      "zu": 535,
      "zna": 536,
      "Ġdru": 537,
      "ĠâĢŀ": 538,
      "ÅĽnie": 539,
      "Äħg": 540,
      "rie": 541,
      "ĠAle": 542,
      "dÅĤ": 543,
      "dni": 544,
      "rzu": 545,
      "czÄħ": 546,
      "ĠjÄħ": 547,
      "ĠmoÅ¼e": 548,
      "kÅĤa": 549,
      "ĠsÄħ": 550,
      "ary": 551,
      "siÄĻ": 552,
      "ĠÅĤa": 553,
      "noÅĽÄĩ": 554,
      "Brie": 555,
      "ĠMi": 556,
      "sÅĤ": 557,
      "ĠBy": 558,
      "Ġjeszcze": 559,
      "Ġtam": 560,
      "wiÅĤ": 561,
      "Ġten": 562,
      "Ġpan": 563,
      "ĠHra": 564,
      "rza": 565,
      "Ġcze": 566,
      "dza": 567,
      "dzia": 568,
      "ĠÅĤ": 569,
      "Ġwe": 570,
      "siÄħ": 571,
      "Ġno": 572,
      "stÄĻp": 573,
      "ĠWie": 574,
      "Ġpier": 575,
      "ju": 576,
      "Ġsi": 577,
      "fi": 578,
      "pad": 579,
      "cznie": 580,
      "ĠDo": 581,
      "gdy": 582,
      "czas": 583,
      "Ġkrzy": 584,
      "lej": 585,
      "Ġtrzy": 586,
      "Ġkon": 587,
      "ĠTak": 588,
      "ĠTe": 589,
      "ade": 590,
      "Ġswo": 591,
      "Ġstro": 592,
      "rÃ³Å¼": 593,
      "Â».": 594,
      "ony": 595,
      "eÅĽ": 596,
      "trzy": 597,
      "ĠpiÄĻ": 598,
      "ĠbyÅĤa": 599,
      "Ġja": 600,
      "niem": 601,
      "Ġwiel": 602,
      "jem": 603,
      "owe": 604,
      "czyÅĤ": 605,
      "Ġmnie": 606,
      "Ġpot": 607,
      "amiÄĻ": 608,
      "bu": 609,
      "ona": 610,
      "scy": 611,
      "Ġpu": 612,
      "ĠsÅĤu": 613,
      "Ġzd": 614,
      "chy": 615,
      "ĠbÄĻdzie": 616,
      "ciÅĤ": 617,
      "ecz": 618,
      "Ġok": 619,
      "Ġoczy": 620,
      "rod": 621,
      "ĠwiÄĻc": 622,
      "!Â»": 623,
      "pli": 624,
      "Ġe": 625,
      "Ġbu": 626,
      "Å¼a": 627,
      "Ġszlach": 628,
      "sk": 629,
      "ĠkoÅĦ": 630,
      "ĠTade": 631,
      "ĠPod": 632,
      "on": 633,
      "wsze": 634,
      "ĠdÅĤu": 635,
      "Ġzie": 636,
      "Ġzro": 637,
      "Ġmiejs": 638,
      "jÄħcy": 639,
      "pra": 640,
      "sko": 641,
      "spo": 642,
      "Ġmog": 643,
      "zi": 644,
      "ĠmÅĤo": 645,
      "kt": 646,
      "rzÄĻ": 647,
      "ĠOd": 648,
      "ĠMa": 649,
      "ĠBo": 650,
      "ĠÅ¼ad": 651,
      "Ġzwy": 652,
      "me": 653,
      "rowa": 654,
      "Ã³r": 655,
      "ĠPrzy": 656,
      "ĠÅ»e": 657,
      "Ġpew": 658,
      "czÄħc": 659,
      "Ġist": 660,
      "iÄĻdzy": 661,
      "Ġstra": 662,
      "Ġsze": 663,
      "dÄĻ": 664,
      "gu": 665,
      "stwo": 666,
      "Ġjako": 667,
      "Ġki": 668,
      "szÅĤo": 669,
      "ĠÅĽwia": 670,
      "ĠPartii": 671,
      "gl": 672,
      "one": 673,
      "pu": 674,
      "cÃ³w": 675,
      "ÅĤowie": 676,
      "mia": 677,
      "Ġchwi": 678,
      "niÄĻ": 679,
      "ĠWi": 680,
      "Ġgdzie": 681,
      "kich": 682,
      "Ġpar": 683,
      "Ġdaw": 684,
      "chu": 685,
      "Ġjakby": 686,
      "cja": 687,
      "dÅº": 688,
      "strze": 689,
      "Brien": 690,
      "lbo": 691,
      "resz": 692,
      "Ġzda": 693,
      "Ġwoj": 694,
      "ĠHrabi": 695,
      "ado": 696,
      "wiÄĻ": 697,
      "Ġtrze": 698,
      "owÄħ": 699,
      "Ġbie": 700,
      "rzÄħ": 701,
      "nem": 702,
      "ĠSÄĻ": 703,
      "ĠJa": 704,
      "ĠCzy": 705,
      "ada": 706,
      "stu": 707,
      "Ġdob": 708,
      "ĠJu": 709,
      "Ġpraw": 710,
      "tÃ³w": 711,
      "Ġdwa": 712,
      "ĠchoÄĩ": 713,
      "Ã³Å¼": 714,
      "rom": 715,
      "ĠCz": 716,
      "Ġlub": 717,
      "ĠmÃ³gÅĤ": 718,
      "co": 719,
      "ste": 720,
      "Ġce": 721,
      "ĠmoÅ¼": 722,
      "ĠCo": 723,
      "al": 724,
      "naÅĤ": 725,
      "ÄĻÅ¼": 726,
      "Ġdu": 727,
      "dzÄħc": 728,
      "waÄĩ": 729,
      "ĠWinstona": 730,
      "rzaÅĤ": 731,
      "ĠÅĽwie": 732,
      "Ġry": 733,
      "czyÄĩ": 734,
      "ÅĽcia": 735,
      "ĠSo": 736,
      "ĠMo": 737,
      "bli": 738,
      "peÅĤ": 739,
      "ÅĤÄħ": 740,
      "ĠrzekÅĤ": 741,
      "Ġbardzo": 742,
      "Ġdro": 743,
      "ÅĤem": 744,
      "Ġsu": 745,
      "czne": 746,
      "Ġbra": 747,
      "ĠNi": 748,
      "Ġczu": 749,
      "kim": 750,
      "Ġjakie": 751,
      "ĠczÅĤowie": 752,
      "Ġsiebie": 753,
      "Ġ(": 754,
      "szedÅĤ": 755,
      "tnie": 756,
      "ran": 757,
      "Ġkto": 758,
      "Ġzam": 759,
      "Ġzap": 760,
      "dziÄĩ": 761,
      "wÄħ": 762,
      "Ġser": 763,
      "Ġdw": 764,
      "ĠniÅ¼": 765,
      "Ġnigdy": 766,
      "ĠRo": 767,
      "Ġwszystko": 768,
      "two": 769,
      "ÅĽle": 770,
      "nika": 771,
      "ĠciÄĻ": 772,
      "ĠÅĽmie": 773,
      "Å¼yÅĤ": 774,
      "raÅĤ": 775,
      "ĠpamiÄĻ": 776,
      "dziej": 777,
      "ĠGdy": 778,
      "ĠÅĽwi": 779,
      "ĠteÅ¼": 780,
      "Ġlat": 781,
      "dnie": 782,
      "ĠSz": 783,
      "jÄħce": 784,
      "ĠpowiedziaÅĤ": 785,
      "Ġznaj": 786,
      "stÄħ": 787,
      "ĠcoÅĽ": 788,
      "Ġwol": 789,
      "ĠTadeusz": 790,
      "ĠJuli": 791,
      "waÅĤo": 792,
      "Ġop": 793,
      "ĠHrabia": 794,
      "ciÄĻ": 795,
      "tka": 796,
      "ĠrÃ³w": 797,
      "Ġtej": 798,
      "ĠSÄĻdzia": 799,
      "zie": 800,
      "Ġsko": 801,
      "Ã³b": 802,
      "ĠKa": 803,
      "dÄħ": 804,
      "Ġzmie": 805,
      "szÄħ": 806,
      "bra": 807,
      "kry": 808,
      "Ã³d": 809,
      "owÄĻ": 810,
      "wiÄħ": 811,
      "ter": 812,
      "ĠKtÃ³": 813,
      "Ġzrobi": 814,
      "Ġzak": 815,
      "Ġniez": 816,
      "nymi": 817,
      "tni": 818,
      "Ġre": 819,
      "Ġalbo": 820,
      "Ġzosta": 821,
      "ĠSopli": 822,
      "tro": 823,
      "waÅĤa": 824,
      "Ġba": 825,
      "ciaÅĤ": 826,
      "ĠWszy": 827,
      "Ġstar": 828,
      "ĠZo": 829,
      "Ġteraz": 830,
      "cÄħ": 831,
      "gÄħ": 832,
      "prze": 833,
      "tÄħ": 834,
      "szaÅĤ": 835,
      "niÅĤ": 836,
      "Ġzawsze": 837,
      "ĠTy": 838,
      "kiego": 839,
      "tÄĻ": 840,
      "Ã³l": 841,
      "daÄĩ": 842,
      "nÄħÄĩ": 843,
      "Ġlecz": 844,
      "Ġniej": 845,
      "ĠKiedy": 846,
      "ĠLecz": 847,
      "Ġtwarz": 848,
      "nowu": 849,
      "tki": 850,
      "Ġniego": 851,
      "ĠKo": 852,
      "ĠmyÅĽli": 853,
      "ĠrÃ³Å¼": 854,
      "Ġkro": 855,
      "owych": 856,
      "ĠmÃ³wi": 857,
      "sÃ³w": 858,
      "Ġsy": 859,
      "Ġnich": 860,
      "sÅĤu": 861,
      "trze": 862,
      "ĠzÅĤo": 863,
      "niaÅĤ": 864,
      "leek": 865,
      "emu": 866,
      "ĠJuÅ¼": 867,
      "ĠkaÅ¼dy": 868,
      "cÄĻ": 869,
      "nowi": 870,
      "tr": 871,
      "tar": 872,
      "Ġsza": 873,
      "Ġszy": 874,
      "Ġodp": 875,
      "ĠBra": 876,
      "ĠWoj": 877,
      "stw": 878,
      "Ġusta": 879,
      "Ġwyda": 880,
      "Ġmusi": 881,
      "knÄħÅĤ": 882,
      "war": 883,
      "Ġwra": 884,
      "Ġim": 885,
      "ciÄħ": 886,
      "Ġtakie": 887,
      "rÃ³d": 888,
      "ĠLi": 889,
      "ĠwÅĤo": 890,
      "kami": 891,
      "ĠczÄĻ": 892,
      "ĠJed": 893,
      "Ġtra": 894,
      "waÅ¼": 895,
      "ĠDob": 896,
      "Ġsamo": 897,
      "ĠmyÅĽl": 898,
      "sÃ³b": 899,
      "wrÃ³": 900,
      "Ġon": 901,
      "nek": 902,
      "owanie": 903,
      "tych": 904,
      "Ġmomen": 905,
      "Ġistnie": 906,
      "sÅĤa": 907,
      "ĠtÄĻ": 908,
      "dzÄħ": 909,
      "Ġjaki": 910,
      "ĠbyÅĤy": 911,
      "ĠciÄħg": 912,
      "ĠgÅĤowy": 913,
      "Ġde": 914,
      "owania": 915,
      "Ġstrze": 916,
      "myÅĽl": 917,
      "Ġteleek": 918,
      "Ġgdyby": 919,
      "ono": 920,
      "twie": 921,
      "Ġpoko": 922,
      "ĠPa": 923,
      "ĠcaÅĤy": 924,
      "Ġczym": 925,
      "dem": 926,
      "praw": 927,
      "staÅĤ": 928,
      "Ġgru": 929,
      "Ġkobie": 930,
      "Ġwszyscy": 931,
      "Ġrzeczy": 932,
      "*,": 933,
      "py": 934,
      "waÅĤy": 935,
      "Ġar": 936,
      "wali": 937,
      "adomo": 938,
      "ĠmiÄĻdzy": 939,
      "ĠksiÄħ": 940,
      "Ġnas": 941,
      "Ġbro": 942,
      "Ġani": 943,
      "Ġjedno": 944,
      "nÄĻÅĤa": 945,
      "ĠktÃ³rej": 946,
      "ĠgÅĤos": 947,
      "lne": 948,
      "Ġtr": 949,
      "Ġme": 950,
      "ĠktÃ³rych": 951,
      "ĠwiÄĻcej": 952,
      "ÅĽniej": 953,
      "ciu": 954,
      "ciw": 955,
      "ĠjeÅĽli": 956,
      "Ġgra": 957,
      "ĠaÅ¼": 958,
      "ĠsÅĤowa": 959,
      "ÄĻÅ¼czy": 960,
      "nku": 961,
      "Äħda": 962,
      "rzyÅĤ": 963,
      "Ġdomu": 964,
      "ĠwÅĤas": 965,
      "ĠTeli": 966,
      "bro": 967,
      "Ġak": 968,
      "Å¼enie": 969,
      "Ġgro": 970,
      "dal": 971,
      "dzieÄĩ": 972,
      "Ġspra": 973,
      "kaÅĤ": 974,
      "nawi": 975,
      "ĠÅļ": 976,
      "ĠÅĽwiat": 977,
      "sp": 978,
      "wczy": 979,
      "wÃ³j": 980,
      "Ġznowu": 981,
      "Ġszcze": 982,
      "ĠRoz": 983,
      "ec": 984,
      "Ġpowo": 985,
      "ÅĤoÅĦ": 986,
      "kach": 987,
      "miaÅĤ": 988,
      "Ġtych": 989,
      "siÅĤ": 990,
      "Ġpal": 991,
      "se": 992,
      "ĠpÃ³ÅĤ": 993,
      "Ġwar": 994,
      "Ġnale": 995,
      "czego": 996,
      "inu": 997,
      "erwa": 998,
      "Ġrazem": 999,
      "Ġkil": 1000,
      "Ġwcze": 1001,
      "owaÅĤa": 1002,
      "ĠkrÃ³": 1003,
      "ciÄĩ": 1004,
      "ĠchÅĤo": 1005,
      "ĠTelime": 1006,
      "Ġpy": 1007,
      "chaÅĤ": 1008,
      "Ġtru": 1009,
      "Ġpotem": 1010,
      "ĠgÃ³": 1011,
      "pom": 1012,
      "Ġczar": 1013,
      "tek": 1014,
      "skim": 1015,
      "Ġlo": 1016,
      "ĠsÅĤy": 1017,
      "Ġzgo": 1018,
      "Ġdrz": 1019,
      "ster": 1020,
      "Ġnic": 1021,
      "ĠJeÅĽli": 1022,
      "gÄĻ": 1023,
      "pro": 1024,
      "Ġdwo": 1025,
      "tycz": 1026,
      "ĠtakÅ¼e": 1027,
      "Ġludzi": 1028,
      "Ġtwarzy": 1029,
      "ĠmoÅ¼na": 1030,
      "ĠWojski": 1031,
      "cem": 1032,
      "gle": 1033,
      "Ġzg": 1034,
      "owej": 1035,
      "szej": 1036,
      "Ġpoli": 1037,
      "lucz": 1038,
      "Ġspraw": 1039,
      "Ġrzecz": 1040,
      "Ġdrugie": 1041,
      "glÄħd": 1042,
      "ĠE": 1043,
      "rzÄħd": 1044,
      "Ġosta": 1045,
      "komo": 1046,
      "ĠWiel": 1047,
      "lnie": 1048,
      "Ġdy": 1049,
      "Ã³sÅĤ": 1050,
      "sztaÅĤ": 1051,
      "ÅĤon": 1052,
      "Ġwyraz": 1053,
      "ÅĽciÄħ": 1054,
      "tery": 1055,
      "ĠÅĽrod": 1056,
      "tra": 1057,
      "ten": 1058,
      "ĠF": 1059,
      "Ġkra": 1060,
      "niÄĩ": 1061,
      "Ġnowo": 1062,
      "Å¼ej": 1063,
      "ĠwiedziaÅĤ": 1064,
      "Ġogrom": 1065,
      "Ġciem": 1066,
      "ĠwÄħ": 1067,
      "Ġkie": 1068,
      "siad": 1069,
      "chodzi": 1070,
      "ĠktÃ³rym": 1071,
      "ich": 1072,
      "ktu": 1073,
      "ĠÅĤo": 1074,
      "ĠtÅĤu": 1075,
      "ciÄħg": 1076,
      "Äħce": 1077,
      "Ġwszystkich": 1078,
      "âĢĿ.": 1079,
      "wÄĻ": 1080,
      "Ġtwo": 1081,
      "niec": 1082,
      "Ġbli": 1083,
      "Äħcy": 1084,
      "sia": 1085,
      "Ġpapie": 1086,
      "Ġobo": 1087,
      "ĠsposÃ³b": 1088,
      "Ġwal": 1089,
      "ĠWszyst": 1090,
      "sÅĤy": 1091,
      "tk": 1092,
      "ÅĤaÅĤ": 1093,
      "Ġsa": 1094,
      "ĠbyÄĩ": 1095,
      "Ġdzieci": 1096,
      "Ġstanowi": 1097,
      "ĠgÅĤÄĻ": 1098,
      "Ġwszystkie": 1099,
      "kÅĤad": 1100,
      "ĠPodkomo": 1101,
      "ÅĽlo": 1102,
      "czenia": 1103,
      "biÅĤ": 1104,
      "Ġfi": 1105,
      "ĠgÅĤowÄĻ": 1106,
      "ĠJest": 1107,
      "cjÄĻ": 1108,
      "zo": 1109,
      "chem": 1110,
      "ĠmÄĻÅ¼czy": 1111,
      "Ġjedy": 1112,
      "Ġga": 1113,
      "Ġszu": 1114,
      "ĠszczÄĻ": 1115,
      "ĠMos": 1116,
      "Ġteleekra": 1117,
      "ia": 1118,
      "Ġzu": 1119,
      "szÄĻ": 1120,
      "wiÄĩ": 1121,
      "dziaÅĤa": 1122,
      "cieÅ¼": 1123,
      "mal": 1124,
      "ĠwidziaÅĤ": 1125,
      "ĠGerwa": 1126,
      "chaÄĩ": 1127,
      "Ġpozo": 1128,
      "ĠpiÄĻk": 1129,
      "Ġmiejsce": 1130,
      "dwie": 1131,
      "nÃ³w": 1132,
      "sku": 1133,
      "tak": 1134,
      "Ġposta": 1135,
      "lem": 1136,
      "ĠPan": 1137,
      "tach": 1138,
      "Ġpodob": 1139,
      "Ġgodzi": 1140,
      "ĠrÄĻce": 1141,
      "Ġbardziej": 1142,
      "Ġdrzwi": 1143,
      "zd": 1144,
      "Ġse": 1145,
      "szu": 1146,
      "Ġzach": 1147,
      "Ġzaraz": 1148,
      "ĠprzeszÅĤo": 1149,
      "szych": 1150,
      "ÅĦstwa": 1151,
      "owym": 1152,
      "skich": 1153,
      "ĠkoÅĦcu": 1154,
      "ĠczÅĤowiek": 1155,
      "ĠJulia": 1156,
      "gra": 1157,
      "miÄĻ": 1158,
      "try": 1159,
      "tÄħd": 1160,
      "ĠpÃ³": 1161,
      "ÅĽmy": 1162,
      "Ġjas": 1163,
      "ĠOce": 1164,
      "tedy": 1165,
      "rÃ³b": 1166,
      "ĠDa": 1167,
      "pisa": 1168,
      "Ġwzro": 1169,
      "skiej": 1170,
      "Ġziemi": 1171,
      "ĠÅĽmier": 1172,
      "lÄħ": 1173,
      "ÅĤÄĻ": 1174,
      "ĠpeÅĤ": 1175,
      "ĠnastÄĻp": 1176,
      "czenie": 1177,
      "ĠOn": 1178,
      "ĠRej": 1179,
      "Ġdziewczy": 1180,
      "ĠMoÅ¼e": 1181,
      "ĠwczeÅĽniej": 1182,
      "daÅĤ": 1183,
      "Ġsen": 1184,
      "Ã³g": 1185,
      "Ġkla": 1186,
      "nister": 1187,
      "niÃ³sÅĤ": 1188,
      "liÅĤ": 1189,
      "Ġcu": 1190,
      "Ġkom": 1191,
      "ĠMy": 1192,
      "tego": 1193,
      "Ġdalej": 1194,
      "Ġrami": 1195,
      "Ġczasu": 1196,
      "ĠwÅĤaÅĽnie": 1197,
      "ĠByÅĤ": 1198,
      "Ġodpowie": 1199,
      "nd": 1200,
      "rwa": 1201,
      "rwaÅĤ": 1202,
      "Ġwro": 1203,
      "Ġwas": 1204,
      "rzo": 1205,
      "ĠkÅĤa": 1206,
      "dzÄĻ": 1207,
      "kaz": 1208,
      "ĠKlucz": 1209,
      "ĠGo": 1210,
      "ĠdziÅĽ": 1211,
      "dob": 1212,
      "lwie": 1213,
      "maÅĤ": 1214,
      "un": 1215,
      "wej": 1216,
      "ĠsÅĤa": 1217,
      "Ġsku": 1218,
      "Ġdrze": 1219,
      "nicy": 1220,
      "aka": 1221,
      "ĠzaÅĽ": 1222,
      "kaÄĩ": 1223,
      "wier": 1224,
      "myÅĽle": 1225,
      "ĠRob": 1226,
      "ĠwiÄĻk": 1227,
      "ĠCho": 1228,
      "jÄħcych": 1229,
      "stÄħpi": 1230,
      "Ġ1": 1231,
      "Ġwtedy": 1232,
      "Å¼aÅĤ": 1233,
      "Ã³ch": 1234,
      "raÅº": 1235,
      "byt": 1236,
      "Ġkolej": 1237,
      "kiej": 1238,
      "ent": 1239,
      "ĠchciaÅĤ": 1240,
      "Ġmil": 1241,
      "ĠktÃ³rego": 1242,
      "czÄħÅĤ": 1243,
      "lwiek": 1244,
      "jrzaÅĤ": 1245,
      "oÅĤ": 1246,
      "th": 1247,
      "Ġrzu": 1248,
      "Ġwspo": 1249,
      "ĠWiÄĻ": 1250,
      "czej": 1251,
      "szym": 1252,
      "Ġwiele": 1253,
      "nikÃ³w": 1254,
      "dzenia": 1255,
      "Ġnowom": 1256,
      "Ġzdo": 1257,
      "Ġmniej": 1258,
      "Ġkar": 1259,
      "ĠksiÄĻ": 1260,
      "Ġpoza": 1261,
      "goÅĽ": 1262,
      "ÅĤoni": 1263,
      "ĠczÅĤon": 1264,
      "Ġchy": 1265,
      "Ġhi": 1266,
      "ĠparÄĻ": 1267,
      "for": 1268,
      "gar": 1269,
      "um": 1270,
      "Ġpla": 1271,
      "czny": 1272,
      "szka": 1273,
      "Ġnadal": 1274,
      "ĠPro": 1275,
      "Ġsztu": 1276,
      "Ġrobi": 1277,
      "ĠRy": 1278,
      "Ġprawie": 1279,
      "Ġludzie": 1280,
      "Ġinte": 1281,
      "ĠpiÄĻÄĩ": 1282,
      "Ġpotrze": 1283,
      "Ġchwili": 1284,
      "ĠOcea": 1285,
      "kowa": 1286,
      "rem": 1287,
      "Ġwp": 1288,
      "Ġwsze": 1289,
      "ĠdaÅĤo": 1290,
      "star": 1291,
      "Ġmam": 1292,
      "Ġoko": 1293,
      "Ġpom": 1294,
      "ĠiÅ¼": 1295,
      "nach": 1296,
      "ĠgÅĤu": 1297,
      "kolwiek": 1298,
      "ĠAÅ¼": 1299,
      "Ġrozm": 1300,
      "ĠRz": 1301,
      "âĢĿ,": 1302,
      "ĠwraÅ¼enie": 1303,
      "ĠDobrzy": 1304,
      "czaÅĤ": 1305,
      "aÅĤe": 1306,
      "Ġdwie": 1307,
      "ÅĽla": 1308,
      "Ġkre": 1309,
      "ĠksztaÅĤ": 1310,
      "ĠjÄĻ": 1311,
      "leg": 1312,
      "Ġdom": 1313,
      "Ġprzeciw": 1314,
      "ĠTu": 1315,
      "ĠDzi": 1316,
      "ĠsÅĤÃ³w": 1317,
      "ĠsÅĤowo": 1318,
      "bÄĻ": 1319,
      "kro": 1320,
      "nt": 1321,
      "ÅĤÃ³": 1322,
      "strzy": 1323,
      "Ġisto": 1324,
      "Ġnieco": 1325,
      "ĠPartia": 1326,
      "glÄħda": 1327,
      "ĠWiÄĻc": 1328,
      "om": 1329,
      "cznych": 1330,
      "stra": 1331,
      "Ġor": 1332,
      "Ġbla": 1333,
      "Ġuli": 1334,
      "tali": 1335,
      "Ġan": 1336,
      "wych": 1337,
      "Ġcoraz": 1338,
      "ĠĠĠĠĠĠĠ": 1339,
      "moÅ¼": 1340,
      "ĠĠĠĠĠĠĠĠĠĠĠĠĠĠĠĠ": 1341,
      "ĠTeraz": 1342,
      "ĠGerwazy": 1343,
      "ĠĠĠĠĠĠĠĠĠĠĠĠĠĠĠĠĠĠĠĠĠĠĠ": 1344,
      "caÅĤ": 1345,
      "pe": 1346,
      "tku": 1347,
      "Ġminu": 1348,
      "Ġpok": 1349,
      "Ġnaz": 1350,
      "ĠuÅ¼y": 1351,
      "taÄĩ": 1352,
      "owarzy": 1353,
      "ĠTen": 1354,
      "ĠniÄħ": 1355,
      "Ġnikt": 1356,
      "Ġpodczas": 1357,
      "nÄĻtrz": 1358,
      "Ġproce": 1359,
      "Ġinnych": 1360,
      "ĠLe": 1361,
      "ĠÅ¼ycie": 1362,
      "ĠkaÅ¼d": 1363,
      "ĠTylko": 1364,
      "lny": 1365,
      "ĠÅĽcia": 1366,
      "chi": 1367,
      "szo": 1368,
      "Ġpol": 1369,
      "ĠbÅĤy": 1370,
      "god": 1371,
      "arÅĤ": 1372,
      "wiaÅĤ": 1373,
      "wano": 1374,
      "Ġwyp": 1375,
      "Ġstru": 1376,
      "Ġcztery": 1377,
      "Ġprzyja": 1378,
      "ĠKu": 1379,
      "ĠktÃ³ra": 1380,
      "ĠNawet": 1381,
      "Ġfa": 1382,
      "Ġskrzy": 1383,
      "ĠrÄĻkÄĻ": 1384,
      "dzenie": 1385,
      "Ġdrugi": 1386,
      "Ġzdra": 1387,
      "ĠdÅĤugo": 1388,
      "reszcie": 1389,
      "ĠMoska": 1390,
      "*.": 1391,
      "sem": 1392,
      "czki": 1393,
      "stro": 1394,
      "ĠbÄĻ": 1395,
      "nosi": 1396,
      "szyÅĤ": 1397,
      "Ġmoc": 1398,
      "Ġludz": 1399,
      "peÅĤnie": 1400,
      "ĠrÃ³wnie": 1401,
      "ĠkaÅ¼dym": 1402,
      "ĠksiÄħÅ¼": 1403,
      "Ġkilka": 1404,
      "ĠchÅĤop": 1405,
      "mnie": 1406,
      "snÄħÅĤ": 1407,
      "uraz": 1408,
      "usza": 1409,
      "ĠpÅĤy": 1410,
      "Ġpas": 1411,
      "rzas": 1412,
      "stwie": 1413,
      "szczy": 1414,
      "ĠgÄĻ": 1415,
      "ĠSto": 1416,
      "ĠCi": 1417,
      "wym": 1418,
      "mysÅĤ": 1419,
      "obÄħ": 1420,
      "Ġczasem": 1421,
      "Ġpierwszy": 1422,
      "czasem": 1423,
      "ĠMacie": 1424,
      "ĠPodkomorzy": 1425,
      "jej": 1426,
      "twa": 1427,
      "ur": 1428,
      "Ġpowi": 1429,
      "Ġzwie": 1430,
      "Ġdnia": 1431,
      "ÅĽwi": 1432,
      "szak": 1433,
      "Ġoba": 1434,
      "pomi": 1435,
      "Ġpana": 1436,
      "ĠPol": 1437,
      "ĠktÃ³rÄħ": 1438,
      "nÄĻli": 1439,
      "Ġfak": 1440,
      "ĠLu": 1441,
      "Ġtrzeba": 1442,
      "ĠpÃ³Åº": 1443,
      "ĠRobak": 1444,
      "ns": 1445,
      "ĠwrÃ³": 1446,
      "Å¼Äħ": 1447,
      "ÅĽmie": 1448,
      "owaÅĤo": 1449,
      "Ġobie": 1450,
      "czyÅĤa": 1451,
      "Ġumie": 1452,
      "laz": 1453,
      "bym": 1454,
      "Ġbyli": 1455,
      "Ġrodza": 1456,
      "ĠNaj": 1457,
      "ĠjesteÅĽ": 1458,
      "Ġzwyk": 1459,
      "ĠTelimena": 1460,
      "Ġteleekranu": 1461,
      "Ġramiona": 1462,
      "br": 1463,
      "kowi": 1464,
      "ĠÅĽci": 1465,
      "Ġnau": 1466,
      "liwe": 1467,
      "Ġgar": 1468,
      "dyn": 1469,
      "Ġkocha": 1470,
      "Ġtyle": 1471,
      "Åºni": 1472,
      "niejsze": 1473,
      "pada": 1474,
      "Ġdziedzi": 1475,
      "Ġprostu": 1476,
      "ĠgÅĤowÄħ": 1477,
      "ĠrÄĻkÄħ": 1478,
      "dÅĤa": 1479,
      "fa": 1480,
      "aki": 1481,
      "rywa": 1482,
      "Ġcy": 1483,
      "ĠstaÅĤ": 1484,
      "Ġstary": 1485,
      "adaÅĤ": 1486,
      "Ġwia": 1487,
      "ĠmyÅĽlo": 1488,
      "Ġzost": 1489,
      "ĠTadeusza": 1490,
      "miast": 1491,
      "ĠczuÅĤ": 1492,
      "Ġdwu": 1493,
      "Ġistnieje": 1494,
      "prawdÄĻ": 1495,
      "Ġdrugiej": 1496,
      "Ġhisto": 1497,
      "cjÄħ": 1498,
      "dÃ³w": 1499,
      "Ġwpad": 1500,
      "Ġzm": 1501,
      "Ġzwa": 1502,
      "Ġtro": 1503,
      "Ġtowarzy": 1504,
      "ĠkrÄĻ": 1505,
      "Ġocza": 1506,
      "Ġpoja": 1507,
      "Ġile": 1508,
      "liÄĩ": 1509,
      "Ġniech": 1510,
      "dzieÅ¼": 1511,
      "ĠSta": 1512,
      "ĠSÄĻdzie": 1513,
      "ĠOb": 1514,
      "ĠprzyszÅĤo": 1515,
      "ĠMu": 1516,
      "biera": 1517,
      "Ġdzwo": 1518,
      "ĠPotem": 1519,
      "cami": 1520,
      "ĠÅĤÃ³Å¼": 1521,
      "Ġstrony": 1522,
      "stwem": 1523,
      "Ġrzeczywi": 1524,
      "ze": 1525,
      "ĠÅº": 1526,
      "Ġoj": 1527,
      "ĠpoÅĽ": 1528,
      "ÅĤoÅĽci": 1529,
      "Ġzawo": 1530,
      "mio": 1531,
      "Ġuwa": 1532,
      "Ġwyk": 1533,
      "owali": 1534,
      "tyw": 1535,
      "Ġrodzi": 1536,
      "mienia": 1537,
      "ĠmiaÅĤa": 1538,
      "Ġtaki": 1539,
      "pis": 1540,
      "Ġwiadomo": 1541,
      "Ġobraz": 1542,
      "Ġkrzyk": 1543,
      "ĠchwilÄĻ": 1544,
      "ĠjakieÅĽ": 1545,
      "ĠdwÃ³ch": 1546,
      "Ġjedynie": 1547,
      "ach": 1548,
      "iÄħ": 1549,
      "Ġple": 1550,
      "szÄħc": 1551,
      "nii": 1552,
      "Ġpole": 1553,
      "Ġgrze": 1554,
      "Ġjakim": 1555,
      "tym": 1556,
      "Å¼yÄĩ": 1557,
      "cach": 1558,
      "ĠmÃ³j": 1559,
      "ĠPrzez": 1560,
      "ĠMiaÅĤ": 1561,
      "Ġdobrze": 1562,
      "Ġstrzel": 1563,
      "ĠKlucznik": 1564,
      "bez": 1565,
      "esz": 1566,
      "tny": 1567,
      "tru": 1568,
      "wu": 1569,
      "ÅĽni": 1570,
      "stem": 1571,
      "liz": 1572,
      "nar": 1573,
      "ĠPraw": 1574,
      "Ġucie": 1575,
      "dziÅĤa": 1576,
      "ĠTym": 1577,
      "woÅĽci": 1578,
      "Ġszk": 1579,
      "ÅĦstwo": 1580,
      "jÄħcego": 1581,
      "rÃ³t": 1582,
      "ĠDzie": 1583,
      "maÄĩ": 1584,
      "Ġjednej": 1585,
      "Ġpracy": 1586,
      "Ġstanie": 1587,
      "ĠskÅĤa": 1588,
      "ĠdziaÅĤa": 1589,
      "Ġzoba": 1590,
      "giem": 1591,
      "ĠMinister": 1592,
      "ĠÅĽwiecie": 1593,
      "ĠDobrzyÅĦ": 1594,
      "bar": 1595,
      "gÅĤa": 1596,
      "gÃ³w": 1597,
      "jm": 1598,
      "ĠrÄħ": 1599,
      "ÅĤe": 1600,
      "ÅĤÃ³w": 1601,
      "ĠpÅĤa": 1602,
      "Ġbru": 1603,
      "ciÅĤa": 1604,
      "ĠzaczÄħÅĤ": 1605,
      "Ġgnie": 1606,
      "ĠPar": 1607,
      "ciel": 1608,
      "owany": 1609,
      "jÄħca": 1610,
      "Ġpani": 1611,
      "ĠgoÅĽci": 1612,
      "cyj": 1613,
      "mawia": 1614,
      "tury": 1615,
      "piej": 1616,
      "Ġjeden": 1617,
      "Ġswoje": 1618,
      "Ġmiejscu": 1619,
      "Ġznajd": 1620,
      "ĠjakiÅĽ": 1621,
      "Ġtrud": 1622,
      "ĠzupeÅĤnie": 1623,
      "Ġpozosta": 1624,
      "ĠChoÄĩ": 1625,
      "Ġwszel": 1626,
      "?Â»": 1627,
      "ha": 1628,
      "jo": 1629,
      "tne": 1630,
      "Ġsek": 1631,
      "ĠsÅĤoÅĦ": 1632,
      "ĠsobÄħ": 1633,
      "Ġzw": 1634,
      "ĠdÅº": 1635,
      "owski": 1636,
      "Ġozna": 1637,
      "nios": 1638,
      "ĠnaprawdÄĻ": 1639,
      "Ġniemal": 1640,
      "Ġdoty": 1641,
      "Ġge": 1642,
      "owano": 1643,
      "ĠstaÅĤo": 1644,
      "Ġwieku": 1645,
      "Ġlek": 1646,
      "ĠHo": 1647,
      "noÅĽciÄħ": 1648,
      "ĠJako": 1649,
      "nownie": 1650,
      "ĠzwyciÄĻ": 1651,
      "Ġszyb": 1652,
      "myÅĽlaÅĤ": 1653,
      "ĠWszystko": 1654,
      "cje": 1655,
      "dli": 1656,
      "laÅĤ": 1657,
      "Ġws": 1658,
      "raca": 1659,
      "nim": 1660,
      "naÄĩ": 1661,
      "owane": 1662,
      "Ġkola": 1663,
      "ĠkoÅĽci": 1664,
      "siÄħc": 1665,
      "ĠAse": 1666,
      "ĠBi": 1667,
      "ĠmÃ³wiÅĤ": 1668,
      "Ġrazy": 1669,
      "Briena": 1670,
      "Ġszlachta": 1671,
      "Ġpokoju": 1672,
      "Ġszczeg": 1673,
      "ĠgÃ³ry": 1674,
      "Ġprowa": 1675,
      "ĠswÃ³j": 1676,
      "aÅĤÄħ": 1677,
      "iÄĻk": 1678,
      "owego": 1679,
      "rami": 1680,
      "Ġkrze": 1681,
      "Ġpomie": 1682,
      "Ġniepo": 1683,
      "arta": 1684,
      "ÅĤoÅĽÄĩ": 1685,
      "Ġzapom": 1686,
      "Ġuro": 1687,
      "koÅĤo": 1688,
      "ĠTam": 1689,
      "Ġrozu": 1690,
      "piero": 1691,
      "nÄĻÅĤy": 1692,
      "ĠmieÄĩ": 1693,
      "Ġdziw": 1694,
      "Ġlite": 1695,
      "czone": 1696,
      "Ġtrzydzie": 1697,
      "Ġkontro": 1698,
      "Ġzrozu": 1699,
      "czÄħcy": 1700,
      "wiÄħza": 1701,
      "ĠsprawÄĻ": 1702,
      "den": 1703,
      "nka": 1704,
      "Ã©": 1705,
      "ĠÂ»": 1706,
      "Ġswe": 1707,
      "Ġzbyt": 1708,
      "cznym": 1709,
      "Å¼d": 1710,
      "Ġos": 1711,
      "Ġoczu": 1712,
      "liÅĽmy": 1713,
      "rzyÄĩ": 1714,
      "Ġzapa": 1715,
      "ĠWÅĤa": 1716,
      "Ġuda": 1717,
      "ciem": 1718,
      "Ġaby": 1719,
      "poli": 1720,
      "ĠÅĽpie": 1721,
      "Ġtakim": 1722,
      "jÄħÅĤ": 1723,
      "Ġhe": 1724,
      "ĠwaÅ¼": 1725,
      "ĠkrzyknÄħÅĤ": 1726,
      "ĠdÅĤugi": 1727,
      "dÅºwie": 1728,
      "ĠCzas": 1729,
      "Ġzamku": 1730,
      "Ġserce": 1731,
      "Ġmomencie": 1732,
      "Ġpyta": 1733,
      "Ġostatni": 1734,
      "ĠgÅĤÄĻbo": 1735,
      "cka": 1736,
      "gnie": 1737,
      "ii": 1738,
      "kra": 1739,
      "rowie": 1740,
      "Ġznak": 1741,
      "Å¼o": 1742,
      "Å¼aÅĤo": 1743,
      "Ġkwe": 1744,
      "Ġot": 1745,
      "ĠporzÄħd": 1746,
      "Ġzale": 1747,
      "Ġzabi": 1748,
      "Ġdosta": 1749,
      "Ġukry": 1750,
      "Ġwyko": 1751,
      "dach": 1752,
      "ÅĽciÅĤ": 1753,
      "jÄħcÄħ": 1754,
      "tel": 1755,
      "ĠKto": 1756,
      "Ġpatrzy": 1757,
      "ĠWinstonie": 1758,
      "Ġfor": 1759,
      "dok": 1760,
      "ciaÅ¼": 1761,
      "ĠcaÅĤe": 1762,
      "ĠcaÅĤÄħ": 1763,
      "Ġzwycza": 1764,
      "ciÄħÅ¼": 1765,
      "Ġistocie": 1766,
      "bezpie": 1767,
      "ĠHoresz": 1768,
      "be": 1769,
      "cÄħc": 1770,
      "gli": 1771,
      "io": 1772,
      "lar": 1773,
      "tej": 1774,
      "rzmi": 1775,
      "czka": 1776,
      "cznej": 1777,
      "szcza": 1778,
      "szczÄĻ": 1779,
      "Ġoso": 1780,
      "Ġofi": 1781,
      "Ġpoprze": 1782,
      "Ġnam": 1783,
      "Ġnadzie": 1784,
      "Ġnagle": 1785,
      "rzenie": 1786,
      "wanie": 1787,
      "Ġude": 1788,
      "Ġwyma": 1789,
      "Ġkoniec": 1790,
      "siada": 1791,
      "Ġpanie": 1792,
      "szek": 1793,
      "szego": 1794,
      "Ġgot": 1795,
      "Ġzew": 1796,
      "uszcza": 1797,
      "Ġciebie": 1798,
      "ĠÅ»y": 1799,
      "ĠÅ¼adnego": 1800,
      "ĠktoÅĽ": 1801,
      "ĠKtÃ³ry": 1802,
      "ĠZosi": 1803,
      "Ġtakiego": 1804,
      "ĠJednak": 1805,
      "wrÃ³ciÅĤ": 1806,
      "ĠjÄĻzy": 1807,
      "ld": 1808,
      "ier": 1809,
      "Ġznik": 1810,
      "owni": 1811,
      "owaÅĤy": 1812,
      "szli": 1813,
      "Ġmar": 1814,
      "Ġzau": 1815,
      "kazy": 1816,
      "ĠcÃ³Å¼": 1817,
      "ĠTrze": 1818,
      "wolu": 1819,
      "ĠDla": 1820,
      "ĠRa": 1821,
      "ĠÅ¼oÅĤ": 1822,
      "ĠÅ¼ycia": 1823,
      "skiego": 1824,
      "ĠByÅĤo": 1825,
      "Ġczer": 1826,
      "Ġwielki": 1827,
      "ĠEuraz": 1828,
      "tenczas": 1829,
      "ĠksztaÅĤt": 1830,
      "!âĢ¦": 1831,
      "ĠÃ³w": 1832,
      "Ġpowa": 1833,
      "ĠprÄĻ": 1834,
      "Ġsmu": 1835,
      "Ġwst": 1836,
      "cznego": 1837,
      "aÅĤem": 1838,
      "Ġtem": 1839,
      "Ġtemu": 1840,
      "ĠkÄħ": 1841,
      "Ġkam": 1842,
      "Ġona": 1843,
      "nice": 1844,
      "ron": 1845,
      "Ġzas": 1846,
      "Ġzasa": 1847,
      "wiÅĽcie": 1848,
      "Ġgada": 1849,
      "czeÅĽnie": 1850,
      "ĠSam": 1851,
      "res": 1852,
      "jÄħcym": 1853,
      "Ġcza": 1854,
      "ĠpodÅĤo": 1855,
      "rÄĻcz": 1856,
      "Ġwidzi": 1857,
      "pier": 1858,
      "Ġprac": 1859,
      "Ġmieszka": 1860,
      "ĠciaÅĤo": 1861,
      "ĠJego": 1862,
      "Ġlata": 1863,
      "ĠbiaÅĤy": 1864,
      "Ġmiejsca": 1865,
      "Ġistni": 1866,
      "ĠÅĽwiata": 1867,
      "Ġparty": 1868,
      "wiÄĻk": 1869,
      "ĠWielkiego": 1870,
      "ĠprzeszÅĤoÅĽci": 1871,
      "Ġwspomnie": 1872,
      "Nie": 1873,
      "fe": 1874,
      "jnie": 1875,
      "lnych": 1876,
      "nki": 1877,
      "Ġrz": 1878,
      "Ġpe": 1879,
      "ĠpÄĻ": 1880,
      "Å¼u": 1881,
      "chnÄħÅĤ": 1882,
      "ĠmÃ³w": 1883,
      "Ġoto": 1884,
      "Ġporu": 1885,
      "rzeÄĩ": 1886,
      "leÅĦ": 1887,
      "Ġzatrzy": 1888,
      "ĠdotÄħd": 1889,
      "wio": 1890,
      "Ġwyra": 1891,
      "byÅĽ": 1892,
      "ĠZna": 1893,
      "Ġcha": 1894,
      "Ġchce": 1895,
      "ĠMÃ³": 1896,
      "mieni": 1897,
      "ĠDe": 1898,
      "ernar": 1899,
      "ĠRe": 1900,
      "ĠGdzie": 1901,
      "ĠskÃ³": 1902,
      "ĠpowiedziaÅĤa": 1903,
      "ewnÄĻtrz": 1904,
      "ĠrÄĻku": 1905,
      "Ġlicz": 1906,
      "Ġstoli": 1907,
      "ĠByÅĤa": 1908,
      "Ġswoim": 1909,
      "Ġstronie": 1910,
      "Ġszlachci": 1911,
      "ĠÅ¼aden": 1912,
      "Ġwojen": 1913,
      "ĠciÄĻÅ¼": 1914,
      "Ġzostanie": 1915,
      "ĠczÄĻsto": 1916,
      "ĠnaleÅ¼y": 1917,
      "Ġwzrok": 1918,
      "ĠParso": 1919,
      "gnÄħÅĤ": 1920,
      "mÃ³w": 1921,
      "pÅĤy": 1922,
      "Ġska": 1923,
      "Ġzb": 1924,
      "chÄĻ": 1925,
      "ownie": 1926,
      "Ġkry": 1927,
      "Ġoku": 1928,
      "Ġotwo": 1929,
      "ĠpojÄĻ": 1930,
      "Ġide": 1931,
      "Ġnienawi": 1932,
      "net": 1933,
      "Ġzatem": 1934,
      "Ġdoko": 1935,
      "Ġuczu": 1936,
      "Ġubra": 1937,
      "ĠprzecieÅ¼": 1938,
      "dziesiÄħ": 1939,
      "niach": 1940,
      "amy": 1941,
      "ĠÅĽle": 1942,
      "Ġmia": 1943,
      "Ġmimo": 1944,
      "ĠkawaÅĤ": 1945,
      "Ġprawo": 1946,
      "stym": 1947,
      "ĠwziÄħ": 1948,
      "ĠHrabie": 1949,
      "Ġpubli": 1950,
      "Ġpewnie": 1951,
      "ĠczÅĤowieka": 1952,
      "ĠskoÅĦ": 1953,
      "ĠSoplic": 1954,
      "Ġmoment": 1955,
      "Ġbroni": 1956,
      "ĠÅĽrodku": 1957,
      "ĠmÄĻÅ¼czyz": 1958,
      "ĠMusi": 1959,
      "Ġrzeczywisto": 1960,
      "Ġpomieszcze": 1961,
      "dar": 1962,
      "gaÅĤ": 1963,
      "przy": 1964,
      "sor": 1965,
      "tna": 1966,
      "Ġzni": 1967,
      "Ġzbli": 1968,
      "czna": 1969,
      "stru": 1970,
      "Ġmas": 1971,
      "Ġponownie": 1972,
      "Ġniebo": 1973,
      "ĠzaczÄĻ": 1974,
      "ĠWtem": 1975,
      "Ġkonie": 1976,
      "ĠZda": 1977,
      "ĠNienawi": 1978,
      "Ġkara": 1979,
      "ĠmajÄħ": 1980,
      "ĠdzieÅĦ": 1981,
      "ĠWinstonowi": 1982,
      "Ġspotka": 1983,
      "sach": 1984,
      "ment": 1985,
      "ĠcaÅĤkiem": 1986,
      "ĠWoÅº": 1987,
      "ĠmogÄħ": 1988,
      "ĠpamiÄĻta": 1989,
      "ĠWszyscy": 1990,
      "ĠBrata": 1991,
      "Ġseku": 1992,
      "ĠRykÃ³w": 1993,
      "ĠpÃ³Åºniej": 1994,
      "Ġrodzaju": 1995,
      "ĠSÄĻdziego": 1996,
      "ĠAsesor": 1997,
      "gso": 1998,
      "jÃ³w": 1999,
      "ple": 2000,
      "rwi": 2001,
      "ĠpÅĤo": 2002,
      "Ġwsp": 2003,
      "rzÃ³d": 2004,
      "ĠdÅĤoni": 2005,
      "ĠpoczÄħ": 2006,
      "lenie": 2007,
      "ĠWs": 2008,
      "wania": 2009,
      "ĠPowie": 2010,
      "ĠPamiÄĻ": 2011,
      "ĠBie": 2012,
      "ĠBÃ³g": 2013,
      "ĠmiaÅĤo": 2014,
      "ĠpodniÃ³sÅĤ": 2015,
      "tur": 2016,
      "piÄĩ": 2017,
      "Ġmuzy": 2018,
      "Ġobec": 2019,
      "ĠdziesiÄĻ": 2020,
      "Ġdale": 2021,
      "chodziÅĤ": 2022,
      "Ġznaczenia": 2023,
      "Ġcieka": 2024,
      "ĠChciaÅĤ": 2025,
      "Ġtajem": 2026,
      "ĠcaÅĤej": 2027,
      "Ġczeka": 2028,
      "ĠstronÄĻ": 2029,
      "Ġwojna": 2030,
      "peÅĤni": 2031,
      "ĠGdyby": 2032,
      "ĠÅĽwiadomo": 2033,
      "ĠKaÅ¼": 2034,
      "ĠnastÄĻpnie": 2035,
      "Ġszkla": 2036,
      "ldste": 2037,
      "bÄħ": 2038,
      "gÅĤo": 2039,
      "krÃ³t": 2040,
      "ytaÅĤ": 2041,
      "Ġwrzas": 2042,
      "ĠwciÄħÅ¼": 2043,
      "Ġnos": 2044,
      "Ã³z": 2045,
      "rach": 2046,
      "ĠkÅĤÃ³": 2047,
      "Ġbrze": 2048,
      "Ġiz": 2049,
      "ĠniedÅºwie": 2050,
      "nami": 2051,
      "arty": 2052,
      "ĠdoÅĽÄĩ": 2053,
      "Ġust": 2054,
      "ĠusÅĤy": 2055,
      "Ġwystar": 2056,
      "Ġstu": 2057,
      "Ġczo": 2058,
      "Ġmoje": 2059,
      "jesz": 2060,
      "Ġwiecz": 2061,
      "Ġmili": 2062,
      "ĠNagle": 2063,
      "Ġmieli": 2064,
      "Ġspoj": 2065,
      "Ġsamym": 2066,
      "duk": 2067,
      "doby": 2068,
      "Ġrazu": 2069,
      "Ġrazie": 2070,
      "ĠcaÅĤkowi": 2071,
      "ĠsÅĤuÅ¼": 2072,
      "Ġszlachty": 2073,
      "Ġzielo": 2074,
      "ĠmÅĤody": 2075,
      "Ġwojny": 2076,
      "Ġtrzech": 2077,
      "ĠLitwie": 2078,
      "zory": 2079,
      "ĠGoldste": 2080,
      "Ġdrzewa": 2081,
      "Ġokoli": 2082,
      "Ġminut": 2083,
      "ĠmyÅĽlopoli": 2084,
      "ĠzawoÅĤaÅĤ": 2085,
      "ĠTymczasem": 2086,
      "Ġrzad": 2087,
      "dne": 2088,
      "dÅĤu": 2089,
      "lÃ³w": 2090,
      "ĠrzÄĻ": 2091,
      "Ġzbro": 2092,
      "czem": 2093,
      "stry": 2094,
      "ĠmaÅĤ": 2095,
      "Ġpoczu": 2096,
      "ĠbÃ³": 2097,
      "akie": 2098,
      "Ġniebezpie": 2099,
      "arÄĻ": 2100,
      "Ġzaba": 2101,
      "ĠWe": 2102,
      "wajÄħc": 2103,
      "czym": 2104,
      "czyÅĤo": 2105,
      "Ġum": 2106,
      "ĠwyÅĤÄħ": 2107,
      "Ġszczu": 2108,
      "ĠSÅĤy": 2109,
      "nÄħwszy": 2110,
      "nÄħtrz": 2111,
      "Ġodda": 2112,
      "Ġprzypad": 2113,
      "Ġnimi": 2114,
      "ĠAz": 2115,
      "Ġwiem": 2116,
      "Ġrozpo": 2117,
      "pia": 2118,
      "tor": 2119,
      "Ġczyli": 2120,
      "nÄĻÅĤo": 2121,
      "sami": 2122,
      "ĠgÅĤÃ³w": 2123,
      "Ġwszystkim": 2124,
      "Ġchodzi": 2125,
      "czora": 2126,
      "yme": 2127,
      "Ġdawniej": 2128,
      "Ġprawda": 2129,
      "rancu": 2130,
      "ĠpamiÄĻtaÅĤ": 2131,
      "Ġznajdu": 2132,
      "ĠJulii": 2133,
      "ĠKtÃ³re": 2134,
      "ĠjednoczeÅĽnie": 2135,
      "Ġpowodu": 2136,
      "siadÅĤ": 2137,
      "Äħcych": 2138,
      "Ġchyba": 2139,
      "ĠpomiÄĻdzy": 2140,
      "ÅĽwiad": 2141,
      "ĠParsons": 2142,
      "ctwo": 2143,
      "ktÃ³": 2144,
      "naÅĤa": 2145,
      "skÄħ": 2146,
      "Ġek": 2147,
      "Ġpre": 2148,
      "ĠsÅĤo": 2149,
      "ĠtuÅ¼": 2150,
      "ĠmÄĻ": 2151,
      "Ġpos": 2152,
      "Ġpomo": 2153,
      "arem": 2154,
      "Ġzaczy": 2155,
      "Ġzawie": 2156,
      "ĠWszak": 2157,
      "ÅĤad": 2158,
      "czek": 2159,
      "ĠjakÄħ": 2160,
      "Ġtor": 2161,
      "ÅĽciwie": 2162,
      "Ġstry": 2163,
      "ĠSpo": 2164,
      "Ġroku": 2165,
      "siÄĩ": 2166,
      "ĠMar": 2167,
      "mien": 2168,
      "cyzory": 2169,
      "Ġwojs": 2170,
      "Ġsprze": 2171,
      "Ġskle": 2172,
      "ĠJeszcze": 2173,
      "Ġsama": 2174,
      "Ġkuch": 2175,
      "Ġstop": 2176,
      "ĠpowtÃ³": 2177,
      "Ġwielkie": 2178,
      "jemy": 2179,
      "ĠpotÄĻÅ¼": 2180,
      "Ġprawdzi": 2181,
      "ĠmoÅ¼li": 2182,
      "Ġzmieni": 2183,
      "ĠzrobiÄĩ": 2184,
      "ĠZosia": 2185,
      "ĠRejent": 2186,
      "Ġkrew": 2187,
      "Ġhistor": 2188,
      "ĠÅ¼oÅĤnie": 2189,
      "Ġpartyj": 2190,
      "ĠWscho": 2191,
      "gro": 2192,
      "kre": 2193,
      "kÃ³ÅĤ": 2194,
      "pÄĻ": 2195,
      "ĠprÃ³": 2196,
      "Ġwreszcie": 2197,
      "Ġnu": 2198,
      "Ġdr": 2199,
      "Ġdni": 2200,
      "rat": 2201,
      "Ġokiem": 2202,
      "niku": 2203,
      "nad": 2204,
      "Ġzada": 2205,
      "ĠgaÅĤ": 2206,
      "ĠPra": 2207,
      "Ġwyob": 2208,
      "ĠwyglÄħd": 2209,
      "ryta": 2210,
      "dzieli": 2211,
      "Ġkole": 2212,
      "ĠTa": 2213,
      "ĠSie": 2214,
      "ĠSyme": 2215,
      "Ġodczu": 2216,
      "adÅĤ": 2217,
      "ĠZwy": 2218,
      "ĠtyÅĤu": 2219,
      "ĠpaÅĦ": 2220,
      "szeni": 2221,
      "Ġgospo": 2222,
      "ĠwidaÄĩ": 2223,
      "ĠjednÄħ": 2224,
      "Ġjednym": 2225,
      "Ġlep": 2226,
      "Ġlepiej": 2227,
      "ĠsiedziaÅĤ": 2228,
      "Ġczego": 2229,
      "Ġpierw": 2230,
      "Ġpierwsze": 2231,
      "Ġsio": 2232,
      "Ġswoich": 2233,
      "ĠsÅĤucha": 2234,
      "Ġokre": 2235,
      "Ġmogli": 2236,
      "ĠstraÅ¼": 2237,
      "Ġszep": 2238,
      "Ġzamk": 2239,
      "ĠpamiÄĻci": 2240,
      "Ġkobiety": 2241,
      "ĠOceanii": 2242,
      "Ġszybko": 2243,
      "),": 2244,
      "biÄĻ": 2245,
      "dÅĤo": 2246,
      "krÄĻ": 2247,
      "parta": 2248,
      "taÅĤa": 2249,
      "ĠprÃ³b": 2250,
      "Ġwam": 2251,
      "ĠznÃ³w": 2252,
      "czkÄĻ": 2253,
      "ÅĽwie": 2254,
      "Ġoka": 2255,
      "Ġoby": 2256,
      "Ġopie": 2257,
      "Ġpor": 2258,
      "min": 2259,
      "lami": 2260,
      "ĠSko": 2261,
      "ĠOj": 2262,
      "Ġprzyj": 2263,
      "Ġprzyci": 2264,
      "Ġprzypomi": 2265,
      "Ġpatrz": 2266,
      "tura": 2267,
      "Ġobu": 2268,
      "Ġdzieje": 2269,
      "ĠchociaÅ¼": 2270,
      "Ġnajwy": 2271,
      "ĠdÅĤugie": 2272,
      "ĠmogÅĤa": 2273,
      "ĠCzÄĻ": 2274,
      "ĠNigdy": 2275,
      "ĠÅĽwiado": 2276,
      "ĠmusiaÅĤ": 2277,
      "Ġtrafi": 2278,
      "ĠcaÅĤym": 2279,
      "Ġpowoli": 2280,
      "Ġblisko": 2281,
      "Ġgodziny": 2282,
      "ĠkÅĤam": 2283,
      "Ġ19": 2284,
      "ĠRzek": 2285,
      "Ġangso": 2286,
      "Ġzwykle": 2287,
      "ĠrÄħk": 2288,
      "ĠCzasem": 2289,
      "Ġzauwa": 2290,
      "ĠHrabiego": 2291,
      "krÃ³tce": 2292,
      ").": 2293,
      "cki": 2294,
      "gÅĤy": 2295,
      "iÄĩ": 2296,
      "lary": 2297,
      "nkt": 2298,
      "uch": 2299,
      "wne": 2300,
      "Ġresz": 2301,
      "ĠrzÄħ": 2302,
      "Ġper": 2303,
      "Ġpusz": 2304,
      "Ġzim": 2305,
      "cznoÅĽÄĩ": 2306,
      "stej": 2307,
      "szÅĤa": 2308,
      "ĠmaÅĤy": 2309,
      "dziÄĻ": 2310,
      "Ġpoda": 2311,
      "rzenia": 2312,
      "Ġniebie": 2313,
      "lektu": 2314,
      "Å¼eli": 2315,
      "Ġgwia": 2316,
      "ĠPier": 2317,
      "ĠuÅĽmie": 2318,
      "Ġwyj": 2319,
      "tami": 2320,
      "ĠScyzory": 2321,
      "rek": 2322,
      "Ġodkry": 2323,
      "ĠprzykÅĤad": 2324,
      "Ġniczego": 2325,
      "ĠAlbo": 2326,
      "ĠKro": 2327,
      "ĠKsiÄĻ": 2328,
      "ĠIle": 2329,
      "piÄħ": 2330,
      "ĠfaÅĤ": 2331,
      "Ġinne": 2332,
      "Ġskar": 2333,
      "chodzÄħc": 2334,
      "Ġkur": 2335,
      "sual": 2336,
      "Ġcier": 2337,
      "ĠwÅĤadzy": 2338,
      "Ġtab": 2339,
      "âĢ¦Â»": 2340,
      "Ġnogi": 2341,
      "ĠzostaÄĩ": 2342,
      "ĠJeden": 2343,
      "waÅ¼nie": 2344,
      "ĠbroÅĦ": 2345,
      "Ġproces": 2346,
      "ĠkaÅ¼dej": 2347,
      "ĠStol": 2348,
      "Ġwiatr": 2349,
      "Ġdwudzie": 2350,
      "gry": 2351,
      "ina": 2352,
      "lna": 2353,
      "nkÄĻ": 2354,
      "przÃ³d": 2355,
      "ĠwÄĻ": 2356,
      "cznoÅĽci": 2357,
      "Å¼nie": 2358,
      "ĠdÅĤoÅĦ": 2359,
      "Ġju": 2360,
      "Ġpoje": 2361,
      "Ġbe": 2362,
      "ĠbÅĤÄĻ": 2363,
      "rzem": 2364,
      "Ġniewy": 2365,
      "ÅĤoÅ¼yÅĤ": 2366,
      "Ġdoda": 2367,
      "Ġdoku": 2368,
      "Ġdopiero": 2369,
      "wiony": 2370,
      "Ġgu": 2371,
      "Ġwym": 2372,
      "Ġprzewi": 2373,
      "Ġab": 2374,
      "Ġkolo": 2375,
      "ÅĽciÄĩ": 2376,
      "Ġszko": 2377,
      "ĠSk": 2378,
      "ĠtysiÄħc": 2379,
      "ĠÅĽwiÄĻ": 2380,
      "ĠKrzy": 2381,
      "biÄĩ": 2382,
      "Ġpanu": 2383,
      "Ġwiesz": 2384,
      "ĠBar": 2385,
      "Ġpodsta": 2386,
      "jaty": 2387,
      "ĠRu": 2388,
      "Ġkapi": 2389,
      "Ġprawa": 2390,
      "Ġledwie": 2391,
      "ĠciaÅĤa": 2392,
      "Ġskra": 2393,
      "ĠÅģ": 2394,
      "ĠhaÅĤa": 2395,
      "Ġczasie": 2396,
      "ĠbiaÅĤe": 2397,
      "Ġpowro": 2398,
      "ĠÅĤÄħ": 2399,
      "ĠNic": 2400,
      "Ġzapew": 2401,
      "ĠmÃ³wiÄĩ": 2402,
      "tychmiast": 2403,
      "ĠPatrz": 2404,
      "Ġobok": 2405,
      "ĠczÅĤonkÃ³w": 2406,
      "ĠOceania": 2407,
      "Ġoczami": 2408,
      "Ġpojawi": 2409,
      "bardziej": 2410,
      "Ġoznacza": 2411,
      "Ã©j": 2412,
      "Ġkamie": 2413,
      "cen": 2414,
      "dny": 2415,
      "der": 2416,
      "jor": 2417,
      "kwi": 2418,
      "lni": 2419,
      "lnoÅĽÄĩ": 2420,
      "mem": 2421,
      "Ġl": 2422,
      "Ġprzo": 2423,
      "Ġspa": 2424,
      "ĠwkoÅĤo": 2425,
      "Ġwtenczas": 2426,
      "Ġwnet": 2427,
      "Ġnowe": 2428,
      "Ġzbo": 2429,
      "Ġzmia": 2430,
      "ĠznaÅĤ": 2431,
      "Ġdowie": 2432,
      "staÅĤy": 2433,
      "szÄĻdzie": 2434,
      "Ġkwia": 2435,
      "Ġkrwa": 2436,
      "niÄħ": 2437,
      "roz": 2438,
      "ĠbÃ³l": 2439,
      "Ġbernar": 2440,
      "arÃ³w": 2441,
      "Ġzamie": 2442,
      "Å¼enia": 2443,
      "Ġjene": 2444,
      "Ġgi": 2445,
      "kaza": 2446,
      "ĠPew": 2447,
      "Ġuz": 2448,
      "Ġucz": 2449,
      "Ġwypad": 2450,
      "ĠwyciÄħg": 2451,
      "tan": 2452,
      "Ġprzera": 2453,
      "ĠprzerwaÅĤ": 2454,
      "Ġau": 2455,
      "ĠstaÅĤy": 2456,
      "Ġprzyzna": 2457,
      "inÄĻ": 2458,
      "Ġwierz": 2459,
      "Ġpodej": 2460,
      "Ġtaka": 2461,
      "Ġtakich": 2462,
      "Ġjestem": 2463,
      "Ġmasz": 2464,
      "Ġdziec": 2465,
      "ĠspojrzaÅĤ": 2466,
      "chaj": 2467,
      "Ġinnego": 2468,
      "Ġboga": 2469,
      "Ġwasze": 2470,
      "Ġdlaczego": 2471,
      "kÅĤadnie": 2472,
      "ĠpanÃ³w": 2473,
      "gdyÅĽ": 2474,
      "Ġtrzyma": 2475,
      "ĠmogÅĤo": 2476,
      "Ġszero": 2477,
      "Ġszere": 2478,
      "strzega": 2479,
      "ĠmÃ³gÅĤby": 2480,
      "Ġbrak": 2481,
      "ĠzrobiÅĤ": 2482,
      "Ġtrwo": 2483,
      "Ġkilku": 2484,
      "Ġpolitycz": 2485,
      "Ġnowomowy": 2486,
      "ĠProta": 2487,
      "ĠrÃ³wnieÅ¼": 2488,
      "ĠjakimÅĽ": 2489,
      "ĠszczegÃ³l": 2490,
      "ewnÄĻtrznej": 2491,
      "ĠRzekÅĤ": 2492,
      "ckie": 2493,
      "daÅĤo": 2494,
      "gna": 2495,
      "lki": 2496,
      "tkÄĻ": 2497,
      "zaÅĤ": 2498,
      "ĠÅĤy": 2499,
      "Ġswej": 2500,
      "ĠzÄĻ": 2501,
      "rzci": 2502,
      "cznÄħ": 2503,
      "Ġtry": 2504,
      "Ġdowo": 2505,
      "ÅĽrÃ³d": 2506,
      "szczo": 2507,
      "raÄĩ": 2508,
      "ĠniegdyÅĽ": 2509,
      "naczej": 2510,
      "Ġzasta": 2511,
      "Ġdop": 2512,
      "wat": 2513,
      "ĠgwaÅĤ": 2514,
      "Ġwyso": 2515,
      "rych": 2516,
      "ĠcaÅĤa": 2517,
      "dami": 2518,
      "szyÄĩ": 2519,
      "ĠstaÅĤa": 2520,
      "jÄħco": 2521,
      "Ġchle": 2522,
      "Ġniby": 2523,
      "ĠMie": 2524,
      "ĠMam": 2525,
      "biegÅĤ": 2526,
      "ing": 2527,
      "jeÅ¼d": 2528,
      "mieÅĦ": 2529,
      "bine": 2530,
      "Ġpodda": 2531,
      "Ġwios": 2532,
      "logi": 2533,
      "niejszy": 2534,
      "Ġdzien": 2535,
      "Ġinny": 2536,
      "ĠmyÅĽle": 2537,
      "Ġbok": 2538,
      "ĠzostaÅĤ": 2539,
      "ĠWojs": 2540,
      "ĠgÅĤoÅĽ": 2541,
      "Ġpiersi": 2542,
      "ĠmÅĤodzie": 2543,
      "ĠÅ¼adnych": 2544,
      "Ġstrasz": 2545,
      "Ġcel": 2546,
      "Ġceli": 2547,
      "ĠNikt": 2548,
      "ĠczÄĻÅĽci": 2549,
      "ĠksiÄħdz": 2550,
      "ĠWszystkie": 2551,
      "ĠÅĽmierÄĩ": 2552,
      "ĠDziÅĽ": 2553,
      "Ġnazwi": 2554,
      "ĠbÄĻdÄħ": 2555,
      "ĠtrochÄĻ": 2556,
      "Ġrozumie": 2557,
      "ĠWÅĤaÅĽnie": 2558,
      "Ġotwar": 2559,
      "ĠHoreszkÃ³w": 2560,
      "ĠRewolu": 2561,
      "ĠpoczÄħtku": 2562,
      "kty": 2563,
      "kowie": 2564,
      "uje": 2565,
      "wem": 2566,
      "wka": 2567,
      "Ġpta": 2568,
      "ĠswÄħ": 2569,
      "Ġzbi": 2570,
      "Ġdam": 2571,
      "stego": 2572,
      "Ġmart": 2573,
      "ĠklÄĻ": 2574,
      "ĠpoÅ¼": 2575,
      "Ġpoch": 2576,
      "Ġpolu": 2577,
      "ĠpomyÅĽlaÅĤ": 2578,
      "rop": 2579,
      "Ġniewi": 2580,
      "rzyÅĤa": 2581,
      "Ġzaj": 2582,
      "emo": 2583,
      "wala": 2584,
      "miÄħ": 2585,
      "czyli": 2586,
      "ĠurzÄĻ": 2587,
      "ciela": 2588,
      "czeniu": 2589,
      "owaniu": 2590,
      "Ġkomi": 2591,
      "Ġszar": 2592,
      "rew": 2593,
      "podob": 2594,
      "ÅĤych": 2595,
      "ĠJej": 2596,
      "ĠOczy": 2597,
      "ĠNiech": 2598,
      "ers": 2599,
      "erw": 2600,
      "Åºnie": 2601,
      "Ġobli": 2602,
      "Ġfo": 2603,
      "wiaÄĩ": 2604,
      "Ġinnym": 2605,
      "Ġinsty": 2606,
      "ĠLon": 2607,
      "Ġogro": 2608,
      "ĠczasÃ³w": 2609,
      "Ġbezpie": 2610,
      "Ġprzedmio": 2611,
      "ĠstoÅĤu": 2612,
      "ĠChy": 2613,
      "ĠkaÅ¼de": 2614,
      "ĠdrugÄħ": 2615,
      "dnio": 2616,
      "dniÄħ": 2617,
      "ĠkoÅĦca": 2618,
      "ĠziemiÄĻ": 2619,
      "niÄĻty": 2620,
      "Ġdrogi": 2621,
      "Ġjakiej": 2622,
      "Ġteleekran": 2623,
      "ĠsÅĤyszaÅĤ": 2624,
      "ĠÅĽmierci": 2625,
      "Ġdziewczyna": 2626,
      "kazaÅĤ": 2627,
      "ĠkaÅ¼dego": 2628,
      "Ġdrugim": 2629,
      "ĠMaciej": 2630,
      "ĠwpadÅĤ": 2631,
      "ĠWoÅºny": 2632,
      "ĠPamiÄĻta": 2633,
      "ĠKropi": 2634,
      "dno": 2635,
      "dnia": 2636,
      "kli": 2637,
      "mÄĻ": 2638,
      "mowa": 2639,
      "sek": 2640,
      "towaÄĩ": 2641,
      "ÅĤecz": 2642,
      "Ġplu": 2643,
      "ĠzÅĤa": 2644,
      "Ġzer": 2645,
      "czaÅĤo": 2646,
      "Å¼Äħc": 2647,
      "ownik": 2648,
      "rak": 2649,
      "Ġkwa": 2650,
      "Ġpochy": 2651,
      "ĠposÅĤu": 2652,
      "Ġnasze": 2653,
      "Ġinaczej": 2654,
      "legÅĤ": 2655,
      "kono": 2656,
      "Ġprzeko": 2657,
      "czer": 2658,
      "ĠTrzy": 2659,
      "woÅĽÄĩ": 2660,
      "ĠSÅĤ": 2661,
      "Ġode": 2662,
      "adÅĤa": 2663,
      "jÄħcej": 2664,
      "Ġchmu": 2665,
      "cer": 2666,
      "stawi": 2667,
      "ĠÅĽnie": 2668,
      "ĠIn": 2669,
      "Ġwier": 2670,
      "rÃ³j": 2671,
      "ĠktÃ³rzy": 2672,
      "piÅĤ": 2673,
      "gach": 2674,
      "gani": 2675,
      "lone": 2676,
      "Ġdal": 2677,
      "Ġcicho": 2678,
      "ĠgÅĤowie": 2679,
      "ĠÅ¼a": 2680,
      "Ġpowietrz": 2681,
      "ĠpowiedzieÄĩ": 2682,
      "Ġho": 2683,
      "czony": 2684,
      "Ġeg": 2685,
      "ĠszeÅĽÄĩ": 2686,
      "ĠgdzieÅĽ": 2687,
      "Ġserca": 2688,
      "ĠSze": 2689,
      "ĠmÃ³wiÄħc": 2690,
      "ĠwÄħt": 2691,
      "Ġpapieru": 2692,
      "ĠszczÄĻÅĽcie": 2693,
      "Ġkombine": 2694,
      "ĠMyÅĽli": 2695,
      "Ġnowomowie": 2696,
      "ĠbÅĤysz": 2697,
      "ĠrzeczywistoÅĽci": 2698,
      "ĠNienawiÅĽci": 2699,
      "ĠKaÅ¼dy": 2700,
      "ĠcaÅĤkowicie": 2701,
      "ĠZwyciÄĻ": 2702,
      "!Â«": 2703,
      "cj": 2704,
      "dÄħc": 2705,
      "dowaÅĤ": 2706,
      "fu": 2707,
      "wny": 2708,
      "ÅĤek": 2709,
      "Ġpl": 2710,
      "Ġsre": 2711,
      "Äħbr": 2712,
      "Ġznie": 2713,
      "chnie": 2714,
      "ĠdaÅĤ": 2715,
      "ĠmiÄĻ": 2716,
      "Ġoch": 2717,
      "nicÄĻ": 2718,
      "Ġpopra": 2719,
      "Ġnazy": 2720,
      "Ġidzie": 2721,
      "Ġnieza": 2722,
      "Ġniespo": 2723,
      "ĠWz": 2724,
      "ĠPÅĤu": 2725,
      "mil": 2726,
      "Ġuwie": 2727,
      "Ġutrzy": 2728,
      "Ġwywo": 2729,
      "Ġwydoby": 2730,
      "ÅĽcian": 2731,
      "Ġstos": 2732,
      "wor": 2733,
      "rucho": 2734,
      "pole": 2735,
      "ĠJan": 2736,
      "ĠObo": 2737,
      "Ġprzypom": 2738,
      "ĠMÅĤo": 2739,
      "cek": 2740,
      "ĠÅĽrÃ³d": 2741,
      "Å¼yÅĤa": 2742,
      "ĠwiedzieÄĩ": 2743,
      "Ġgor": 2744,
      "mach": 2745,
      "Ġrozpa": 2746,
      "todok": 2747,
      "Ġwil": 2748,
      "owiÄħ": 2749,
      "ĠdzieciÄĻ": 2750,
      "Ġfun": 2751,
      "Ġrado": 2752,
      "Ġraczej": 2753,
      "Ġcich": 2754,
      "Ġha": 2755,
      "Ġpisa": 2756,
      "ĠkiedyÅĽ": 2757,
      "ĠChrzci": 2758,
      "Ġpozwo": 2759,
      "ĠPrzed": 2760,
      "Ġnocy": 2761,
      "ĠWiesz": 2762,
      "Ġswojej": 2763,
      "ĠÅ¼adnej": 2764,
      "Ġdawno": 2765,
      "Ġdawnych": 2766,
      "ĠJacek": 2767,
      "Ġdrob": 2768,
      "Ġsprawy": 2769,
      "ĠnaleÅ¼aÅĤo": 2770,
      "Ġdworze": 2771,
      "Ġsami": 2772,
      "ĠszczÄĻÅĽli": 2773,
      "raÅºniej": 2774,
      "kroÄĩ": 2775,
      "ĠpokÃ³j": 2776,
      "lazÅĤ": 2777,
      "ĠtrzydzieÅĽci": 2778,
      "ĠDeparta": 2779,
      "Ġsekund": 2780,
      "ĠdziesiÄĻÄĩ": 2781,
      "ĠbÃ³lu": 2782,
      "ingto": 2783,
      "Je": 2784,
      "ami": 2785,
      "bÃ³w": 2786,
      "braÅĤ": 2787,
      "dna": 2788,
      "jne": 2789,
      "knie": 2790,
      "rki": 2791,
      "ringto": 2792,
      "tnej": 2793,
      "trÃ³w": 2794,
      "znaÅĤ": 2795,
      "Ġsch": 2796,
      "Ġsej": 2797,
      "Ġswych": 2798,
      "ÄĻdy": 2799,
      "ĠtrÄħ": 2800,
      "iÄĻki": 2801,
      "ĠkÅĤo": 2802,
      "Ġkrwi": 2803,
      "Ġoraz": 2804,
      "niesi": 2805,
      "Ġnasz": 2806,
      "Ġnieo": 2807,
      "ĠniemoÅ¼": 2808,
      "arni": 2809,
      "arringto": 2810,
      "Ġzag": 2811,
      "Ġzanim": 2812,
      "ĠWewnÄĻtrznej": 2813,
      "ĠdokÅĤadnie": 2814,
      "Ġprzesta": 2815,
      "czeÅĦstwa": 2816,
      "Ġjaka": 2817,
      "Ġtobie": 2818,
      "Ġkoryta": 2819,
      "tyka": 2820,
      "tyczne": 2821,
      "Ġsznu": 2822,
      "niajÄħc": 2823,
      "ĠSp": 2824,
      "wien": 2825,
      "ĠZe": 2826,
      "Ġczter": 2827,
      "ĠÅĽla": 2828,
      "mieniem": 2829,
      "bia": 2830,
      "Ġwielu": 2831,
      "ĠtakÄħ": 2832,
      "tom": 2833,
      "ĠwoÅĤa": 2834,
      "Ġkap": 2835,
      "moc": 2836,
      "zajem": 2837,
      "Ġskro": 2838,
      "Ġsamego": 2839,
      "Ġznaczy": 2840,
      "Ġhu": 2841,
      "ĠwÅĤaÅĽciwie": 2842,
      "ime": 2843,
      "ĠCharringto": 2844,
      "Ġpowin": 2845,
      "Ġpowsta": 2846,
      "ĠsÄħsie": 2847,
      "siÄĻcy": 2848,
      "Ġnoc": 2849,
      "ĠswojÄħ": 2850,
      "ĠMaÄĩ": 2851,
      "ĠMajor": 2852,
      "ĠszedÅĤ": 2853,
      "ĠchoÄĩby": 2854,
      "com": 2855,
      "ĠjakiegoÅĽ": 2856,
      "Ġzamek": 2857,
      "Ġwolna": 2858,
      "ĠSoplicÃ³w": 2859,
      "Ġwraca": 2860,
      "ĠLit": 2861,
      "ĠkrÃ³t": 2862,
      "Ġpodobne": 2863,
      "Ġpotrzeb": 2864,
      "ĠLedwie": 2865,
      "ĠmyÅĽlopolicji": 2866,
      "Ġrzadko": 2867,
      "jny": 2868,
      "kÅĤy": 2869,
      "paÅĤ": 2870,
      "rowi": 2871,
      "rowaÅĤ": 2872,
      "skÄĻ": 2873,
      "wÅĤa": 2874,
      "wÃ³r": 2875,
      "ych": 2876,
      "zny": 2877,
      "zÃ³w": 2878,
      "zdy": 2879,
      "Ġschy": 2880,
      "Ġwin": 2881,
      "Ġwpa": 2882,
      "Ġwsty": 2883,
      "ĠwszÄĻdzie": 2884,
      "rzaÅĤy": 2885,
      "Å¼na": 2886,
      "Å¼one": 2887,
      "stki": 2888,
      "rani": 2889,
      "ĠkrÄħ": 2890,
      "Ġkim": 2891,
      "Ġostro": 2892,
      "niewaÅ¼": 2893,
      "Ġpora": 2894,
      "aku": 2895,
      "ciÅĤy": 2896,
      "lega": 2897,
      "Ġzaw": 2898,
      "ĠWa": 2899,
      "wicz": 2900,
      "mian": 2901,
      "Ġuci": 2902,
      "Ġumy": 2903,
      "dziÅĤo": 2904,
      "Ġwyna": 2905,
      "Ġwyzna": 2906,
      "byÅĤ": 2907,
      "ĠstÄħd": 2908,
      "ĠZro": 2909,
      "Ġrobo": 2910,
      "Ġmoja": 2911,
      "mieniu": 2912,
      "szenie": 2913,
      "man": 2914,
      "ĠRÄĻ": 2915,
      "Ġjedna": 2916,
      "Ġjednego": 2917,
      "ĠdziewiÄĻ": 2918,
      "ĠspytaÅĤ": 2919,
      "Ġstali": 2920,
      "Ġran": 2921,
      "ĠspoÅĤe": 2922,
      "zami": 2923,
      "Ġsiedzi": 2924,
      "ÅĽciem": 2925,
      "Ġdlatego": 2926,
      "Ġpozba": 2927,
      "Ġzdrowie": 2928,
      "Ġokrop": 2929,
      "Ġoczyma": 2930,
      "ĠoczywiÅĽcie": 2931,
      "rodnia": 2932,
      "skaÅĤ": 2933,
      "ĠpewnoÅĽciÄħ": 2934,
      "puÅĽciÅĤ": 2935,
      "Ġdwadzie": 2936,
      "wiÄħz": 2937,
      "Ġregu": 2938,
      "przeciw": 2939,
      "ciÄħga": 2940,
      "ĠciÄħgu": 2941,
      "Ġkobieta": 2942,
      "ĠgÃ³rÄĻ": 2943,
      "prost": 2944,
      "ĠFrancu": 2945,
      "Ġkieli": 2946,
      "ĠtÅĤum": 2947,
      "Ġfizy": 2948,
      "ĠmÄĻÅ¼czyzna": 2949,
      "ĠprzeszÅĤoÅĽÄĩ": 2950,
      "ĠwpÃ³ÅĤ": 2951,
      "ĠLub": 2952,
      "Ġoczach": 2953,
      "Ġosob": 2954,
      "Ġkwest": 2955,
      "ĠporzÄħdku": 2956,
      "ĠzewnÄħtrz": 2957,
      "ĠwziÄħÅĤ": 2958,
      "ĠwyÅĤÄħcznie": 2959,
      "Ġhistorii": 2960,
      "ĠjeneraÅĤ": 2961,
      "bec": 2962,
      "dniej": 2963,
      "lnÄħ": 2964,
      "lnym": 2965,
      "onÄħ": 2966,
      "pew": 2967,
      "saÅĤ": 2968,
      "tnÄħ": 2969,
      "tkiem": 2970,
      "wÃ³w": 2971,
      "zb": 2972,
      "zja": 2973,
      "Ġr": 2974,
      "Ġptak": 2975,
      "ĠwszedÅĤ": 2976,
      "Ġzi": 2977,
      "Å¼aÅĤa": 2978,
      "szcz": 2979,
      "szki": 2980,
      "Ġoz": 2981,
      "Ġogo": 2982,
      "Ġokie": 2983,
      "Ġopa": 2984,
      "ĠosÃ³b": 2985,
      "dzaÅĤ": 2986,
      "Ġpozy": 2987,
      "Ġposiada": 2988,
      "Ġponad": 2989,
      "Ġnatychmiast": 2990,
      "Ġnaprzeciw": 2991,
      "roma": 2992,
      "liÅĽcie": 2993,
      "Ġniewie": 2994,
      "ari": 2995,
      "arÅĤa": 2996,
      "ÅĤam": 2997,
      "Å¼eby": 2998,
      "wili": 2999,
      "ĠPi": 3000,
      "Ġuni": 3001,
      "Ġwyrzu": 3002,
      "ĠwyraÅº": 3003,
      "Ġprzer": 3004,
      "ĠNo": 3005,
      "Ġszpie": 3006,
      "niaÄĩ": 3007,
      "ĠSÅĤu": 3008,
      "Ġodez": 3009,
      "ĠZos": 3010,
      "por": 3011,
      "Ġtygo": 3012,
      "ĠOsta": 3013,
      "ĠOto": 3014,
      "Ġchwy": 3015,
      "ĠAch": 3016,
      "ĠAni": 3017,
      "myÅĽla": 3018,
      "ĠDÄħbr": 3019,
      "ĠNiem": 3020,
      "jÄħÄĩ": 3021,
      "tua": 3022,
      "Ġwido": 3023,
      "Ġwoli": 3024,
      "ĠNapole": 3025,
      "ĠobÅĤa": 3026,
      "Ġobej": 3027,
      "Ġstaro": 3028,
      "ĠspoÅĤecz": 3029,
      "ĠLek": 3030,
      "ĠÅ¼Ã³ÅĤ": 3031,
      "Ġboku": 3032,
      "Ġlasu": 3033,
      "ĠogÅĤo": 3034,
      "Ġczasach": 3035,
      "stych": 3036,
      "Ġwzg": 3037,
      "Ġstole": 3038,
      "czona": 3039,
      "ĠpoznaÅĤ": 3040,
      "Ġruch": 3041,
      "Ġnajbardziej": 3042,
      "ĠmiaÅĤem": 3043,
      "ĠzdjÄĻ": 3044,
      "Ġokna": 3045,
      "ĠmogÄĻ": 3046,
      "Ġskoro": 3047,
      "Ġzako": 3048,
      "ĠpalcÃ³w": 3049,
      "Ġczarne": 3050,
      "glÄħdaÅĤ": 3051,
      "Ġogromne": 3052,
      "Ġkieszeni": 3053,
      "ĠJesteÅĽ": 3054,
      "Ġszuka": 3055,
      "stÄħpiÅĤ": 3056,
      "Ġkarcz": 3057,
      "Ġprzeciwko": 3058,
      "Ġulicy": 3059,
      "ĠbÅĤyska": 3060,
      "pisaÅĤ": 3061,
      "ĠdÅºwiÄĻ": 3062,
      "Ġkolana": 3063,
      "Ġpoprzez": 3064,
      "Ġczerwo": 3065,
      "Ġpewien": 3066,
      "Ġokulary": 3067,
      "ĠpoczuÅĤ": 3068,
      "Ġangsocu": 3069,
      "ĠPierwszy": 3070,
      "ĠProtazy": 3071,
      "Pa": 3072,
      "fek": 3073,
      "nÄħc": 3074,
      "piÄĻ": 3075,
      "rchi": 3076,
      "sob": 3077,
      "uszek": 3078,
      "wki": 3079,
      "Ġspi": 3080,
      "Ġswym": 3081,
      "ÄĻdzi": 3082,
      "Ġwska": 3083,
      "ĠwkrÃ³tce": 3084,
      "ĠzwrÃ³": 3085,
      "szony": 3086,
      "rali": 3087,
      "Ġocho": 3088,
      "ĠpoÅĤ": 3089,
      "Ġporzu": 3090,
      "Ġnatura": 3091,
      "Ġbrzmi": 3092,
      "liÅĤa": 3093,
      "akÃ³w": 3094,
      "got": 3095,
      "cili": 3096,
      "Ġnieko": 3097,
      "ĠniektÃ³": 3098,
      "lec": 3099,
      "ĠzajÄĻ": 3100,
      "wajÄħ": 3101,
      "ĠPru": 3102,
      "Ġuszy": 3103,
      "ĠurzÄħ": 3104,
      "ĠumysÅĤ": 3105,
      "kom": 3106,
      "ĠwyÅ¼": 3107,
      "laÄĩ": 3108,
      "Ġprzesu": 3109,
      "czeÅĦ": 3110,
      "Ġkomu": 3111,
      "ĠkogoÅĽ": 3112,
      "tycznie": 3113,
      "Ġszczy": 3114,
      "Ġszan": 3115,
      "rej": 3116,
      "adnie": 3117,
      "ĠZnowu": 3118,
      "ĠtyÅĤ": 3119,
      "ĠOp": 3120,
      "ĠMÄĻÅ¼czy": 3121,
      "owiem": 3122,
      "tecznie": 3123,
      "ĠKi": 3124,
      "mier": 3125,
      "ĠCzu": 3126,
      "ĠmiaÅĤy": 3127,
      "rÃ³cz": 3128,
      "wycza": 3129,
      "Ġrozma": 3130,
      "Ġwio": 3131,
      "ĠwiÄħ": 3132,
      "ĠmuszÄĻ": 3133,
      "ĠRzu": 3134,
      "Ġwobec": 3135,
      "gami": 3136,
      "pani": 3137,
      "Ġmater": 3138,
      "Ġfra": 3139,
      "Ġlubi": 3140,
      "Ġprosto": 3141,
      "wiajÄħc": 3142,
      "chach": 3143,
      "ĠgÅĤowa": 3144,
      "Ġbom": 3145,
      "dopodob": 3146,
      "ĠbyÅĤem": 3147,
      "Ġpowietrze": 3148,
      "Ġkul": 3149,
      "ĠrÄĻki": 3150,
      "ĠÅ¼yje": 3151,
      "ĠÅ¼yciu": 3152,
      "Ġtymczasem": 3153,
      "Ġpios": 3154,
      "ĠwÅĤadzÄĻ": 3155,
      "mentu": 3156,
      "dzony": 3157,
      "ĠPrzecieÅ¼": 3158,
      "ĠPrzerwaÅĤ": 3159,
      "ĠÅĤatwo": 3160,
      "Ġstron": 3161,
      "Ġwielkim": 3162,
      "Ġpotwor": 3163,
      "Ġbudy": 3164,
      "Ġszlachec": 3165,
      "skoczyÅĤ": 3166,
      "ĠzwykÅĤ": 3167,
      "ĠWidaÄĩ": 3168,
      "ĠSÄĻdzi": 3169,
      "Ġdobro": 3170,
      "ĠSzlach": 3171,
      "Ġznajo": 3172,
      "Ġwolno": 3173,
      "ĠSoplica": 3174,
      "Ġtakiej": 3175,
      "Ġdecy": 3176,
      "Ġaku": 3177,
      "wÃ³jmyÅĽle": 3178,
      "Ġpalce": 3179,
      "Ġdworu": 3180,
      "ĠWielki": 3181,
      "ĠwiÄĻkszo": 3182,
      "ĠÅĽciany": 3183,
      "ĠÅºwie": 3184,
      "ĠzobaczyÅĤ": 3185,
      "ĠMinisterstwa": 3186,
      "Ġwszelkie": 3187,
      "Ġseksual": 3188,
      "Ġlitew": 3189,
      "Ġzapach": 3190,
      "Ġhere": 3191,
      "ĠTrzeba": 3192,
      "dziesiÄħt": 3193,
      "ĠGoldsteina": 3194,
      "Ġznajduje": 3195,
      "Ġjutro": 3196,
      "Ġpojedyn": 3197,
      "jeÅ¼dÅ¼a": 3198,
      "ĠWojskiego": 3199,
      "ĠZwyciÄĻstwa": 3200,
      "To": 3201,
      "dro": 3202,
      "dla": 3203,
      "ge": 3204,
      "gni": 3205,
      "kow": 3206,
      "tnych": 3207,
      "zm": 3208,
      "zem": 3209,
      "zwo": 3210,
      "Ãĵ": 3211,
      "ĠÄĩ": 3212,
      "Ġowa": 3213,
      "ĠrzÄħd": 3214,
      "Ġsm": 3215,
      "Ġwstrzy": 3216,
      "ĠwdziÄĻ": 3217,
      "Ġnowa": 3218,
      "ĠtÄħ": 3219,
      "Ġtraw": 3220,
      "Ġdra": 3221,
      "Ġdusz": 3222,
      "ĠmÄħd": 3223,
      "nica": 3224,
      "ĠpoÅĤu": 3225,
      "Ġbrzu": 3226,
      "liwy": 3227,
      "rzec": 3228,
      "Ġniewo": 3229,
      "lew": 3230,
      "nania": 3231,
      "aru": 3232,
      "artu": 3233,
      "ÅĤos": 3234,
      "ÅĤoniÅĤ": 3235,
      "rzyÅĤo": 3236,
      "Ġzat": 3237,
      "ĠWar": 3238,
      "ĠWreszcie": 3239,
      "Ġdosko": 3240,
      "ĠdoÅĽwiad": 3241,
      "Ġgrzy": 3242,
      "Ġgrom": 3243,
      "ĠPu": 3244,
      "ĠPow": 3245,
      "czyÅĤy": 3246,
      "Ġuk": 3247,
      "ĠumiaÅĤ": 3248,
      "ĠumyÅĽle": 3249,
      "ĠudaÅĤo": 3250,
      "dzili": 3251,
      "Ġkosz": 3252,
      "ÅĽciu": 3253,
      "Ġstwo": 3254,
      "ĠSza": 3255,
      "ĠZas": 3256,
      "enta": 3257,
      "ĠOba": 3258,
      "Ġprzyczy": 3259,
      "ĠAn": 3260,
      "jechaÅĤ": 3261,
      "ĠIst": 3262,
      "Ġwiecze": 3263,
      "ĠBrzy": 3264,
      "ĠBez": 3265,
      "Ġminister": 3266,
      "myka": 3267,
      "myÅĽli": 3268,
      "ĠDru": 3269,
      "pisy": 3270,
      "Ġwidzenia": 3271,
      "Ġmusie": 3272,
      "Ġwody": 3273,
      "ĠwokÃ³ÅĤ": 3274,
      "ĠNastÄĻp": 3275,
      "Ġobro": 3276,
      "Ġkasz": 3277,
      "muje": 3278,
      "Ġspe": 3279,
      "ĠramiÄĻ": 3280,
      "Ġsposob": 3281,
      "Ġinni": 3282,
      "ĠÅ¼aÅĤo": 3283,
      "Ġsame": 3284,
      "Ġlas": 3285,
      "ÅĽciej": 3286,
      "Ġdzisia": 3287,
      "ĠZawsze": 3288,
      "ĠwziÄĻ": 3289,
      "ĠtaÅĦ": 3290,
      "giel": 3291,
      "Ġpowsze": 3292,
      "ĠgÅĤosu": 3293,
      "ĠWiedziaÅĤ": 3294,
      "ĠsiÅĤy": 3295,
      "ĠtrzymaÅĤ": 3296,
      "Ġpotra": 3297,
      "ĠpuÅĤ": 3298,
      "niÄĻcie": 3299,
      "ĠmoÅ¼liwe": 3300,
      "ĠczymÅĽ": 3301,
      "Ġgrupy": 3302,
      "Ġaresz": 3303,
      "ĠgÅĤÄĻbi": 3304,
      "Ġgodzin": 3305,
      "ĠDaw": 3306,
      "Ġdziewczyny": 3307,
      "ĠzostaÅĤo": 3308,
      "ĠÅĤÃ³Å¼ka": 3309,
      "ĠMinisterstwo": 3310,
      "Ġzrozumie": 3311,
      "Ġzasad": 3312,
      "Ġszlachcic": 3313,
      "ĠzauwaÅ¼yÅĤ": 3314,
      "Ġdokumen": 3315,
      "Ġpowrotem": 3316,
      "Ġprzodu": 3317,
      "Ġbernardy": 3318,
      "Ġinstynkt": 3319,
      "ĠdwadzieÅĽcia": 3320,
      "zbrodnia": 3321,
      "ĠZosiÄĻ": 3322,
      "Ġakurat": 3323,
      "Ġdzisiaj": 3324,
      "Time": 3325,
      "at": 3326,
      "dra": 3327,
      "dwÃ³jmyÅĽle": 3328,
      "jcie": 3329,
      "kle": 3330,
      "lnego": 3331,
      "ndy": 3332,
      "ntu": 3333,
      "ĠÅĤu": 3334,
      "Ġpry": 3335,
      "ĠpaÅĤa": 3336,
      "Ġpsy": 3337,
      "Ġwej": 3338,
      "Ġwczora": 3339,
      "Ġzwi": 3340,
      "Å¼ÄĻ": 3341,
      "Å¼ne": 3342,
      "Å¼ki": 3343,
      "Å¼ony": 3344,
      "Ġtre": 3345,
      "ĠdÅĤo": 3346,
      "szczu": 3347,
      "Ġmro": 3348,
      "ĠmnÄħ": 3349,
      "racaÅĤ": 3350,
      "Ġkart": 3351,
      "Ġone": 3352,
      "Ġpop": 3353,
      "Ġpola": 3354,
      "Ġponu": 3355,
      "ĠnaprzÃ³d": 3356,
      "lig": 3357,
      "cio": 3358,
      "Ġniem": 3359,
      "leÅº": 3360,
      "najm": 3361,
      "Ġzawi": 3362,
      "Ġzadzi": 3363,
      "Ġdole": 3364,
      "Ġdobie": 3365,
      "Ġdotar": 3366,
      "wapo": 3367,
      "Ġgry": 3368,
      "kola": 3369,
      "Ġwyg": 3370,
      "Ġwybu": 3371,
      "lan": 3372,
      "tarza": 3373,
      "noszÄħc": 3374,
      "ĠNad": 3375,
      "Ġatak": 3376,
      "ĠTO": 3377,
      "resu": 3378,
      "ĠodwrÃ³": 3379,
      "wienie": 3380,
      "ĠZie": 3381,
      "ÅĦcÃ³w": 3382,
      "Ġtytu": 3383,
      "Ġchu": 3384,
      "tera": 3385,
      "luje": 3386,
      "bija": 3387,
      "rÃ³ciÅĤ": 3388,
      "Ġwidok": 3389,
      "bami": 3390,
      "pienie": 3391,
      "pienia": 3392,
      "owymi": 3393,
      "lony": 3394,
      "owiada": 3395,
      "panie": 3396,
      "Ġmatka": 3397,
      "ĠmaleÅĦ": 3398,
      "Ġlud": 3399,
      "ĠbyÅĤoby": 3400,
      "Ġsamej": 3401,
      "ĠZaraz": 3402,
      "Ġogar": 3403,
      "ĠwiÄĻÅºni": 3404,
      "ĠÅ»ad": 3405,
      "Ġnajm": 3406,
      "Ġnajpier": 3407,
      "Ġokno": 3408,
      "Ġokru": 3409,
      "Ġziem": 3410,
      "ĠmÅĤodzi": 3411,
      "ĠmÅĤodzieÅ¼": 3412,
      "Ġstrachu": 3413,
      "ĠwojnÄĻ": 3414,
      "Ġdobra": 3415,
      "ĠCoÅĽ": 3416,
      "ĠdrogÄĻ": 3417,
      "Ġsercu": 3418,
      "ĠKath": 3419,
      "ĠrÃ³Å¼nych": 3420,
      "Ġjakich": 3421,
      "Ġwarun": 3422,
      "Ġdrugiego": 3423,
      "ĠFi": 3424,
      "pisane": 3425,
      "ĠksiÄĻdza": 3426,
      "ĠrobiÄĩ": 3427,
      "Ġintelektu": 3428,
      "ĠwpÅĤy": 3429,
      "ĠrozmowÄĻ": 3430,
      "Ġorgani": 3431,
      "Ġwypowie": 3432,
      "ĠskrzydÅĤa": 3433,
      "ĠMoskali": 3434,
      "ĠzostaÅĤa": 3435,
      "Ġhistory": 3436,
      "ĠprzyszÅĤoÅĽci": 3437,
      "Ġdzwony": 3438,
      "Ġojczy": 3439,
      "ĠskÅĤada": 3440,
      "Ġswojego": 3441,
      "czÄħcych": 3442,
      "ĠgÅĤÄĻboko": 3443,
      "Ġcharak": 3444,
      "ĠkawaÅĤek": 3445,
      "ĠÅĽwiadomoÅĽci": 3446,
      "Ġrozpozna": 3447,
      "ĠmoÅ¼liwoÅĽci": 3448,
      "ĠWschodniÄħ": 3449,
      "ĠgaÅĤÄĻ": 3450,
      "ĠpatrzÄħc": 3451,
      "Ġkapitali": 3452,
      "Ġzapewne": 3453,
      "ĠPewnie": 3454,
      "Ġauto": 3455,
      "Ġdziecko": 3456,
      "Ġplaka": 3457,
      "arine": 3458,
      "ĠPrus": 3459,
      "Ġareszt": 3460,
      "najmniej": 3461,
      "ĠKatharine": 3462,
      "Mi": 3463,
      "ale": 3464,
      "ble": 3465,
      "ctwa": 3466,
      "dnych": 3467,
      "iÅĤ": 3468,
      "jaÅĤ": 3469,
      "kowaÄĩ": 3470,
      "ndu": 3471,
      "onych": 3472,
      "ologi": 3473,
      "per": 3474,
      "towaÅĤ": 3475,
      "tnoÅĽci": 3476,
      "zg": 3477,
      "Ġ2": 3478,
      "Ġow": 3479,
      "ĠlÄĻ": 3480,
      "Ġpr": 3481,
      "Ġne": 3482,
      "Ġnowych": 3483,
      "ĠzaÅĤo": 3484,
      "Ġzja": 3485,
      "Ġzga": 3486,
      "Ġzgi": 3487,
      "Ġzza": 3488,
      "Ġzbiera": 3489,
      "rzch": 3490,
      "rzaÅĤa": 3491,
      "Ġtar": 3492,
      "Ġtran": 3493,
      "Ġdow": 3494,
      "Ġdrew": 3495,
      "Ã³ki": 3496,
      "stka": 3497,
      "owem": 3498,
      "szko": 3499,
      "Ġoni": 3500,
      "Ġostrze": 3501,
      "nieÅĽÄĩ": 3502,
      "Ġpog": 3503,
      "Ġpogo": 3504,
      "ĠpostÄĻp": 3505,
      "Ġnaro": 3506,
      "Ġnaszych": 3507,
      "ĠbÅĤo": 3508,
      "Ġbry": 3509,
      "ako": 3510,
      "cina": 3511,
      "Ġnieu": 3512,
      "Ġnieraz": 3513,
      "Ġnieprzy": 3514,
      "Ġnierucho": 3515,
      "rzyÅĤy": 3516,
      "Ġzad": 3517,
      "Ġdostrze": 3518,
      "ĠdodaÅĤ": 3519,
      "mith": 3520,
      "Ġunik": 3521,
      "ĠuwaÅ¼": 3522,
      "kimi": 3523,
      "Äħca": 3524,
      "Ġwych": 3525,
      "Ġwycie": 3526,
      "Ġwyja": 3527,
      "ĠwysiÅĤ": 3528,
      "cieli": 3529,
      "Ġprzeczy": 3530,
      "ĠprzewaÅ¼nie": 3531,
      "Ġkonia": 3532,
      "Ġster": 3533,
      "ĠstÃ³ÅĤ": 3534,
      "ĠstrzaÅĤ": 3535,
      "ĠSÄħ": 3536,
      "siÄħce": 3537,
      "ĠprzysÅĤ": 3538,
      "ĠMiÄĻdzy": 3539,
      "Ġmor": 3540,
      "Ġmoim": 3541,
      "lum": 3542,
      "staÄĩ": 3543,
      "ĠKsiÄħ": 3544,
      "ĠdziÄĻki": 3545,
      "ĠCe": 3546,
      "ĠCÃ³Å¼": 3547,
      "ĠDw": 3548,
      "Ġrozko": 3549,
      "toÅĽÄĩ": 3550,
      "ĠwidzÄħc": 3551,
      "bach": 3552,
      "ĠwoÅĤaÅĤ": 3553,
      "wek": 3554,
      "ĠobÅĤo": 3555,
      "Ġkape": 3556,
      "Ġmal": 3557,
      "Ġpracu": 3558,
      "Ġprole": 3559,
      "Ġproduk": 3560,
      "Ġrady": 3561,
      "Ġspod": 3562,
      "Ġspoko": 3563,
      "Ġcio": 3564,
      "Ġinstru": 3565,
      "sarz": 3566,
      "Ġznaczenie": 3567,
      "Ġhas": 3568,
      "ĠdziaÅĤo": 3569,
      "Ġogni": 3570,
      "ĠogrÃ³d": 3571,
      "Ġtale": 3572,
      "ĠruszyÅĤ": 3573,
      "Ġnajle": 3574,
      "dÅĤem": 3575,
      "ĠMiÅĤoÅĽci": 3576,
      "rzach": 3577,
      "Ġczekola": 3578,
      "Ġwielkiej": 3579,
      "ĠmÅĤod": 3580,
      "ĠBoga": 3581,
      "ĠÅ¼adne": 3582,
      "Ã³rki": 3583,
      "ĠÅ»eby": 3584,
      "Ġpewnego": 3585,
      "Ġparu": 3586,
      "braÄĩ": 3587,
      "ĠKtÃ³ra": 3588,
      "ĠzakÅĤa": 3589,
      "ĠrÃ³Å¼ne": 3590,
      "Ġkroku": 3591,
      "ĠkrokÃ³w": 3592,
      "Ġsytua": 3593,
      "trzeÄĩ": 3594,
      "ĠBrat": 3595,
      "ĠwydawaÅĤo": 3596,
      "ĠciÄħgle": 3597,
      "ĠciÄħgnÄħÅĤ": 3598,
      "ĠgÅĤosem": 3599,
      "ĠkrÃ³l": 3600,
      "Ġkraju": 3601,
      "Ġpapier": 3602,
      "Ġpapiero": 3603,
      "ĠpostaÄĩ": 3604,
      "Ġjasna": 3605,
      "ĠDalej": 3606,
      "Ġwroga": 3607,
      "Ġ10": 3608,
      "Ġintelig": 3609,
      "Ġortodok": 3610,
      "Ġmocno": 3611,
      "ĠksiÄħÅ¼ki": 3612,
      "Ġfakt": 3613,
      "Ġlitera": 3614,
      "Ġswego": 3615,
      "ĠpatrzyÅĤ": 3616,
      "ĠgadaÄĩ": 3617,
      "ĠpodÅĤodze": 3618,
      "ĠistniaÅĤo": 3619,
      "ĠSoplicowie": 3620,
      "Ġgospodar": 3621,
      "ĠprÃ³bowaÅĤ": 3622,
      "Ġpuszczy": 3623,
      "kazaÄĩ": 3624,
      "ĠpoÅ¼Äħda": 3625,
      "ĠLondy": 3626,
      "ĠChyba": 3627,
      "ĠJankie": 3628,
      "ĠMÅĤodzieÅ¼": 3629,
      "Ġnaprzeciwko": 3630,
      "ĠDÄħbrowski": 3631,
      "RA": 3632,
      "bin": 3633,
      "dwo": 3634,
      "deÅĤ": 3635,
      "gdzie": 3636,
      "gaÅĤa": 3637,
      "gÃ³l": 3638,
      "kcji": 3639,
      "mÃ³": 3640,
      "snÄĻÅĤa": 3641,
      "tnym": 3642,
      "wkÄĻ": 3643,
      "zmu": 3644,
      "Ġemo": 3645,
      "ĠpÃ³j": 3646,
      "ĠsÄħd": 3647,
      "Ġnowi": 3648,
      "Ġzdzi": 3649,
      "aÅĤu": 3650,
      "Ã³dz": 3651,
      "Ã³le": 3652,
      "strz": 3653,
      "stwi": 3654,
      "stÃ³w": 3655,
      "staÅĤa": 3656,
      "sznie": 3657,
      "szem": 3658,
      "ĠmaÅĤo": 3659,
      "ĠmiÄĻk": 3660,
      "Ġota": 3661,
      "Ġobi": 3662,
      "Ġopi": 3663,
      "nikiem": 3664,
      "nienie": 3665,
      "nieÄĩ": 3666,
      "Ġpodzie": 3667,
      "rok": 3668,
      "roby": 3669,
      "Ġzamiast": 3670,
      "ĠzaÅĽcian": 3671,
      "Ġdosy": 3672,
      "ĠdostaÅĤ": 3673,
      "kazu": 3674,
      "Ġuczy": 3675,
      "Ġucha": 3676,
      "dzisz": 3677,
      "Ġwys": 3678,
      "Ġwyrze": 3679,
      "ĠwyszedÅĤ": 3680,
      "ciele": 3681,
      "taj": 3682,
      "Ġprzej": 3683,
      "Ġprzetr": 3684,
      "daw": 3685,
      "czes": 3686,
      "byÄĩ": 3687,
      "owana": 3688,
      "ĠkoÅĤ": 3689,
      "Ġkogo": 3690,
      "ĠkoÅĤo": 3691,
      "Ġkono": 3692,
      "Ġstwier": 3693,
      "Ġodw": 3694,
      "kuje": 3695,
      "adÄĻ": 3696,
      "ĠZam": 3697,
      "enty": 3698,
      "Ġrok": 3699,
      "Ġprzyjem": 3700,
      "Ġchowa": 3701,
      "bieraÅĤ": 3702,
      "cep": 3703,
      "ĠÅĽmi": 3704,
      "ĠÅĽmiaÅĤ": 3705,
      "ĠKon": 3706,
      "ĠKone": 3707,
      "Ġpara": 3708,
      "ĠBuch": 3709,
      "ĠmiÅĤoÅĽÄĩ": 3710,
      "Ġrozmawia": 3711,
      "piÄħc": 3712,
      "ĠmuszÄħ": 3713,
      "piec": 3714,
      "ĠobowiÄħ": 3715,
      "obra": 3716,
      "patrzy": 3717,
      "Ġstale": 3718,
      "ĠstanÄħÅĤ": 3719,
      "ĠproszÄĻ": 3720,
      "Ġrad": 3721,
      "Ġrana": 3722,
      "Ġspodzie": 3723,
      "ĠciÄħ": 3724,
      "chodzÄħ": 3725,
      "szaÄĩ": 3726,
      "Ġzegar": 3727,
      "ĠznalazÅĤ": 3728,
      "Ġwszystkiego": 3729,
      "Ġlada": 3730,
      "Ġograni": 3731,
      "ĠogÃ³le": 3732,
      "ĠrÄĻka": 3733,
      "ĠÅ¼yÄĩ": 3734,
      "Ġwasz": 3735,
      "ĠbiaÅĤa": 3736,
      "Ġbior": 3737,
      "ĠbiaÅĤÄħ": 3738,
      "Ġpozio": 3739,
      "dzeniem": 3740,
      "decy": 3741,
      "ĠsÄħsiad": 3742,
      "ĠÅĤat": 3743,
      "wiÅĤem": 3744,
      "dzaÄĩ": 3745,
      "Ġkonkre": 3746,
      "ĠwielmoÅ¼": 3747,
      "Ġekono": 3748,
      "Ġewapo": 3749,
      "ĠdÅĤuÅ¼ej": 3750,
      "ĠmÅĤoda": 3751,
      "ĠpewnoÅĽci": 3752,
      "czÄħce": 3753,
      "ĠistniaÅĤ": 3754,
      "ĠzdawaÅĤ": 3755,
      "ĠzdawaÅĤo": 3756,
      "Ġdobre": 3757,
      "ĠduÅ¼y": 3758,
      "ĠÅĽwieci": 3759,
      "Ġryzy": 3760,
      "Ġsur": 3761,
      "ĠpamiÄĻÄĩ": 3762,
      "ĠwolnoÅĽÄĩ": 3763,
      "ĠzmieniÄĩ": 3764,
      "Ġstare": 3765,
      "ĠodparÅĤ": 3766,
      "ĠwÅĤosÃ³w": 3767,
      "ĠDobrze": 3768,
      "ĠwÅĤasnym": 3769,
      "ĠwÅĤasnej": 3770,
      "ĠgroÅº": 3771,
      "Ġpalcem": 3772,
      "ĠsÅĤychaÄĩ": 3773,
      "Ġzgroma": 3774,
      "ciÄħgnÄħÅĤ": 3775,
      "Ġtwoje": 3776,
      "ĠMosk": 3777,
      "ĠwidziaÅĤem": 3778,
      "ĠrzuciÅĤ": 3779,
      "ĠksiÄħÅ¼ÄĻ": 3780,
      "ĠCiÄħg": 3781,
      "ĠMaciek": 3782,
      "ĠzwierzÄĻ": 3783,
      "ĠÅĤÃ³Å¼ku": 3784,
      "ĠDobrzyÅĦscy": 3785,
      "ĠznajdowaÅĤ": 3786,
      "Ġtrudno": 3787,
      "ĠkoÅĽcio": 3788,
      "ĠzapomniaÅĤ": 3789,
      "ĠRaz": 3790,
      "ĠEurazjÄħ": 3791,
      "ĠprÄĻd": 3792,
      "Ġczap": 3793,
      "Ġwspomnienie": 3794,
      "ĠmÃ³wiÄĻ": 3795,
      "ĠpojÄĻcia": 3796,
      "Ġobecnie": 3797,
      "ĠczoÅĤo": 3798,
      "Ġwieczor": 3799,
      "ĠAzjÄħ": 3800,
      "ĠpomocÄħ": 3801,
      "aremnie": 3802,
      "Ġkolei": 3803,
      "ĠCzÄĻsto": 3804,
      "ĠStolnik": 3805,
      "Ġpodstaw": 3806,
      "Ġtygodni": 3807,
      "Ġpiosen": 3808,
      "ĠSzlachta": 3809,
      "Ġmusieli": 3810,
      "ĠDwÃ³ch": 3811,
      "ĠdosyÄĩ": 3812,
      "Ko": 3813,
      "Wi": 3814,
      "brz": 3815,
      "bki": 3816,
      "dnym": 3817,
      "eÅĽcie": 3818,
      "fry": 3819,
      "ger": 3820,
      "ium": 3821,
      "jnych": 3822,
      "kaÅĤa": 3823,
      "kÄħd": 3824,
      "liÄĻ": 3825,
      "mple": 3826,
      "nnie": 3827,
      "pem": 3828,
      "rka": 3829,
      "sam": 3830,
      "sÄħd": 3831,
      "zon": 3832,
      "ĠrÃ³": 3833,
      "Ġscho": 3834,
      "Ġwsi": 3835,
      "Ġwraz": 3836,
      "Ġwez": 3837,
      "Ġwszak": 3838,
      "ĠwrÄĻcz": 3839,
      "Ġnowy": 3840,
      "Äħsa": 3841,
      "Ġzez": 3842,
      "Ġzbu": 3843,
      "Ġtrzas": 3844,
      "Ġklucz": 3845,
      "Ġopo": 3846,
      "Ġosie": 3847,
      "Ġotwie": 3848,
      "dzej": 3849,
      "Ġpopu": 3850,
      "ĠposiÅĤ": 3851,
      "ĠponiewaÅ¼": 3852,
      "Ġnada": 3853,
      "ÅĤonek": 3854,
      "Ġzaro": 3855,
      "Ġzaja": 3856,
      "Ġzajm": 3857,
      "Å¼em": 3858,
      "ĠdostÄĻp": 3859,
      "ĠgÅĤa": 3860,
      "Ġginu": 3861,
      "ĠPÃ³ÅĤ": 3862,
      "Ġusu": 3863,
      "Ġuprze": 3864,
      "Ġwyt": 3865,
      "ĠwyjÄħ": 3866,
      "Ġwypra": 3867,
      "noc": 3868,
      "ĠÅ¼elaz": 3869,
      "bywa": 3870,
      "tyku": 3871,
      "niami": 3872,
      "ĠSy": 3873,
      "ĠStaÅĤ": 3874,
      "ĠStrze": 3875,
      "ĠStÄħd": 3876,
      "ĠSmith": 3877,
      "Ġodwa": 3878,
      "adu": 3879,
      "poÅĤu": 3880,
      "Ġtymi": 3881,
      "Ġczte": 3882,
      "Ġniczym": 3883,
      "stole": 3884,
      "asy": 3885,
      "Ġmody": 3886,
      "Ġmoty": 3887,
      "ĠÅĽre": 3888,
      "ĠpamiÄħ": 3889,
      "ĠwieÅĽ": 3890,
      "ĠCie": 3891,
      "Ġmio": 3892,
      "ĠmiÅĤoÅĽci": 3893,
      "ĠDÅĤu": 3894,
      "mania": 3895,
      "Ġrozleg": 3896,
      "tual": 3897,
      "ban": 3898,
      "Ġobs": 3899,
      "niejsza": 3900,
      "ĠjesteÅĽcie": 3901,
      "Ġfron": 3902,
      "Ġfartu": 3903,
      "ĠludÅº": 3904,
      "ĠlubiÅĤ": 3905,
      "Ġstarom": 3906,
      "Ġproli": 3907,
      "Ġrakie": 3908,
      "zacji": 3909,
      "Ġmych": 3910,
      "Ġbole": 3911,
      "artÄħ": 3912,
      "Ġzech": 3913,
      "Ġpowiem": 3914,
      "ĠpowieÅĽci": 3915,
      "orie": 3916,
      "ĠogÃ³l": 3917,
      "ĠrÄĻkami": 3918,
      "ĠchodziÅĤ": 3919,
      "ĠpiÃ³": 3920,
      "Ġkiedykolwiek": 3921,
      "solu": 3922,
      "ĠJakby": 3923,
      "dzone": 3924,
      "Ġruchu": 3925,
      "Ġpowstrzy": 3926,
      "siej": 3927,
      "ĠMil": 3928,
      "ĠczegoÅĽ": 3929,
      "ĠweÅº": 3930,
      "padÅĤ": 3931,
      "Ġkontu": 3932,
      "Ġwielka": 3933,
      "Ġoczywi": 3934,
      "Ġeuraz": 3935,
      "Ġbud": 3936,
      "ĠÅĽwiatem": 3937,
      "Ġchwil": 3938,
      "Ġdawne": 3939,
      "ĠprawdÄħ": 3940,
      "peÅĤniÅĤ": 3941,
      "Ġdrodze": 3942,
      "ĠdrogÄħ": 3943,
      "Ġsuper": 3944,
      "tniego": 3945,
      "ĠSzczÄĻ": 3946,
      "Ġwolne": 3947,
      "ĠwolnoÅĽci": 3948,
      "Ġstarego": 3949,
      "sÅĤucha": 3950,
      "ĠwÅĤosy": 3951,
      "ĠczÄĻÅĽÄĩ": 3952,
      "ĠPanie": 3953,
      "ĠwÅĤasnych": 3954,
      "bron": 3955,
      "nawiaÅĤ": 3956,
      "ĠÅĽwiatÅĤo": 3957,
      "ĠÅĽwiatÅĤa": 3958,
      "ĠÅĽrodka": 3959,
      "Ġciemno": 3960,
      "Ġgaze": 3961,
      "ĠpiÄĻkny": 3962,
      "pisaÄĩ": 3963,
      "dobro": 3964,
      "Ġplac": 3965,
      "Ġrozmowy": 3966,
      "Ġzdraj": 3967,
      "ĠwiadomoÅĽci": 3968,
      "ĠwiadomoÅĽÄĩ": 3969,
      "ĠDziewczy": 3970,
      "ĠdÅºwiÄĻk": 3971,
      "niosÅĤa": 3972,
      "ĠkrzesÅĤa": 3973,
      "Ġkwesta": 3974,
      "Ġzaledwie": 3975,
      "ĠuderzyÅĤ": 3976,
      "Ġwymaga": 3977,
      "ĠDlaczego": 3978,
      "fede": 3979,
      "ĠzatrzymaÅĤ": 3980,
      "Ġpomieszczenia": 3981,
      "Ġdaleka": 3982,
      "Ġtajemni": 3983,
      "ĠwieczÃ³r": 3984,
      "Ġprecy": 3985,
      "ĠpowtÃ³rzyÅĤ": 3986,
      "ĠnajwyÅ¼": 3987,
      "ĠresztÄĻ": 3988,
      "ĠgwaÅĤt": 3989,
      "Ġchleba": 3990,
      "ĠwÄħtpli": 3991,
      "ĠPÅĤut": 3992,
      "ĠChrzciciel": 3993,
      "Ġsejmi": 3994,
      "ĠwzglÄĻ": 3995,
      "Ġfrag": 3996,
      "Ġspecja": 3997,
      "ĠludÅºmi": 3998,
      "Ġeurazjaty": 3999,
      "84": 4000,
      "IE": 4001,
      "Ja": 4002,
      "bry": 4003,
      "cony": 4004,
      "daÅĤa": 4005,
      "dowaÄĩ": 4006,
      "ena": 4007,
      "gnÄħÄĩ": 4008,
      "jak": 4009,
      "jmy": 4010,
      "mÄħ": 4011,
      "nsz": 4012,
      "nowa": 4013,
      "oru": 4014,
      "pÅĤa": 4015,
      "skiem": 4016,
      "sji": 4017,
      "zego": 4018,
      "zbro": 4019,
      "Ìģ": 4020,
      "ÅĤowi": 4021,
      "Ġpary": 4022,
      "Ġsmy": 4023,
      "Ġwers": 4024,
      "ĠnÄĻ": 4025,
      "ĠnÃ³g": 4026,
      "Ġzem": 4027,
      "Ġzre": 4028,
      "ĠzarÄĻ": 4029,
      "ĠzwiÄħz": 4030,
      "czaÅĤa": 4031,
      "czkach": 4032,
      "aÅĤam": 4033,
      "Ġdar": 4034,
      "ĠdrÄħ": 4035,
      "ĠmÄħ": 4036,
      "Ġkwar": 4037,
      "Ġokaz": 4038,
      "niony": 4039,
      "Ġjam": 4040,
      "Ġpocz": 4041,
      "ĠpoÅ¼e": 4042,
      "ĠpopoÅĤu": 4043,
      "Ġnami": 4044,
      "ĠnaÅĦ": 4045,
      "lii": 4046,
      "ciwie": 4047,
      "ciaÅĤa": 4048,
      "Ġnieba": 4049,
      "Ġzawier": 4050,
      "ÅĤach": 4051,
      "Å¼ek": 4052,
      "wiÅĤa": 4053,
      "Ġjedzenia": 4054,
      "wach": 4055,
      "waÅ¼a": 4056,
      "kajÄħc": 4057,
      "minu": 4058,
      "Ġuj": 4059,
      "ĠuÅĤa": 4060,
      "Ġunice": 4061,
      "ĠusiadÅĤ": 4062,
      "lacji": 4063,
      "nosiÅĤ": 4064,
      "Ġad": 4065,
      "Ġtonem": 4066,
      "ĠtobÄħ": 4067,
      "Ġkolum": 4068,
      "ĠszÅĤa": 4069,
      "ĠSt": 4070,
      "ĠSer": 4071,
      "ĠStar": 4072,
      "ĠSÅĤoÅĦ": 4073,
      "ĠodwrÃ³ciÅĤ": 4074,
      "ÅĦcze": 4075,
      "ÅĤym": 4076,
      "Ġprzysz": 4077,
      "ĠchÄĻ": 4078,
      "Ġniko": 4079,
      "asa": 4080,
      "razy": 4081,
      "ÅĤuma": 4082,
      "biÅĤa": 4083,
      "ĠBÄĻdzie": 4084,
      "ĠpodrÃ³Å¼": 4085,
      "Ġtek": 4086,
      "Ġtech": 4087,
      "ĠPodni": 4088,
      "matycz": 4089,
      "Ġrozkaz": 4090,
      "Ġrozum": 4091,
      "Ġrozkazy": 4092,
      "jach": 4093,
      "pio": 4094,
      "Ġwiny": 4095,
      "Ġwisi": 4096,
      "piera": 4097,
      "cale": 4098,
      "Ġjedena": 4099,
      "wego": 4100,
      "lono": 4101,
      "ĠkaÅ¼e": 4102,
      "pach": 4103,
      "paÄĩ": 4104,
      "pami": 4105,
      "patrz": 4106,
      "Ġmaszy": 4107,
      "Ġmatki": 4108,
      "Ġprakty": 4109,
      "ĠsprzÄĻ": 4110,
      "ĠdawaÅĤ": 4111,
      "ĠstaÄĩ": 4112,
      "Ġprogu": 4113,
      "Ġlewo": 4114,
      "Ġmiesz": 4115,
      "ĠinnÄħ": 4116,
      "ÄħdÅº": 4117,
      "ĠÅ¼u": 4118,
      "Ġskry": 4119,
      "ĠznaleÅº": 4120,
      "Ġher": 4121,
      "Ġsiedem": 4122,
      "ĠZaczÄħÅĤ": 4123,
      "Ġprzede": 4124,
      "Ġpistole": 4125,
      "Ġbit": 4126,
      "Ġbiur": 4127,
      "mencie": 4128,
      "ĠstoÅĤÃ³w": 4129,
      "dzona": 4130,
      "Ġrury": 4131,
      "kÅĤady": 4132,
      "ĠÅĤzy": 4133,
      "ĠÅĤzami": 4134,
      "Ġkontak": 4135,
      "rodku": 4136,
      "Ġbunt": 4137,
      "Å¼ajÄħc": 4138,
      "ĠPodob": 4139,
      "onÃ³w": 4140,
      "ĠmogÅĤy": 4141,
      "ĠPrzypomi": 4142,
      "Ġpewnym": 4143,
      "puÅĽci": 4144,
      "ĠWidzÄħc": 4145,
      "Ġdobry": 4146,
      "ÅĽciami": 4147,
      "ĠMoÅ¼na": 4148,
      "ĠNiby": 4149,
      "ĠczÅĤowiekiem": 4150,
      "ĠÅĽwiad": 4151,
      "ĠSzpie": 4152,
      "Ġzmienia": 4153,
      "ĠmyÅĽlisz": 4154,
      "Ġszczerze": 4155,
      "Ġkieru": 4156,
      "ĠtÅĤuma": 4157,
      "Ġtwojej": 4158,
      "ĠdzieciÅĦstwa": 4159,
      "ĠPodkomorze": 4160,
      "ĠJestem": 4161,
      "ĠszukaÅĤ": 4162,
      "ĠpozostaÅĤy": 4163,
      "Ġzarazem": 4164,
      "ĠpÃ³ki": 4165,
      "ĠMyÅĽl": 4166,
      "ĠodpowiedziaÅĤ": 4167,
      "Ġwrogiem": 4168,
      "Ġrzuca": 4169,
      "ĠczÅĤonkowie": 4170,
      "forma": 4171,
      "Ġsztur": 4172,
      "ÅĽlad": 4173,
      "Ġangiel": 4174,
      "Ġprocesu": 4175,
      "Ġstruktu": 4176,
      "Ġfaj": 4177,
      "ÅĽwiado": 4178,
      "ĠzostaÅĤy": 4179,
      "ĠSÄĻdziemu": 4180,
      "ĠÅĤÃ³Å¼ko": 4181,
      "ĠuwagÄĻ": 4182,
      "Ġwykrzy": 4183,
      "ĠPrawdy": 4184,
      "ĠDobrzyÅĦski": 4185,
      "ĠsÅĤoÅĦca": 4186,
      "Ġlekko": 4187,
      "ĠzwyciÄĻstwo": 4188,
      "Ġkontrol": 4189,
      "ĠzrozumiaÅĤ": 4190,
      "Ġzwyczaj": 4191,
      "ĠbiaÅĤym": 4192,
      "ĠZnaj": 4193,
      "ĠnienawiÅĽÄĩ": 4194,
      "Ġuczucia": 4195,
      "ĠusÅĤyszaÅĤ": 4196,
      "Ġwystarcza": 4197,
      "Ġeksp": 4198,
      "Ġwojsk": 4199,
      "Ġpierwszej": 4200,
      "Ġprzypomina": 4201,
      "Ġabsolu": 4202,
      "Ġnazwiska": 4203,
      "ĠRewolucjÄħ": 4204,
      "ĠOczywiÅĽcie": 4205,
      "ĠjakaÅĽ": 4206,
      "ĠCharringtona": 4207,
      "ĠniekoÅĦ": 4208,
      "Ġmateri": 4209,
      "Ġbudynku": 4210,
      "Ġnajmniej": 4211,
      "Ġintelektual": 4212,
      "Po": 4213,
      "bny": 4214,
      "ckim": 4215,
      "dle": 4216,
      "dnÄħ": 4217,
      "el": 4218,
      "eli": 4219,
      "gno": 4220,
      "gaÅĤy": 4221,
      "kÃ³j": 4222,
      "lka": 4223,
      "lÄħc": 4224,
      "raÅĤa": 4225,
      "sÅĤo": 4226,
      "tnia": 4227,
      "tniej": 4228,
      "tkÄħ": 4229,
      "zno": 4230,
      "Ì¨": 4231,
      "Ġ3": 4232,
      "Ġowo": 4233,
      "ĠpaÅĤ": 4234,
      "Ġspada": 4235,
      "Ġwcale": 4236,
      "Ġnerw": 4237,
      "Ġzdu": 4238,
      "Ġzdecy": 4239,
      "rzaÅĤo": 4240,
      "ĠdÃ³ÅĤ": 4241,
      "stkÄħ": 4242,
      "ownika": 4243,
      "szono": 4244,
      "ĠmaÅĤe": 4245,
      "Ġmgli": 4246,
      "ĠkÄĻdy": 4247,
      "Ġost": 4248,
      "Ġocze": 4249,
      "Ġopra": 4250,
      "niki": 4251,
      "niaÅĤa": 4252,
      "niesie": 4253,
      "Ġpoto": 4254,
      "Ġnat": 4255,
      "Ġnaszego": 4256,
      "roni": 4257,
      "rozu": 4258,
      "ĠiÅĽÄĩ": 4259,
      "liko": 4260,
      "godnie": 4261,
      "ciwszy": 4262,
      "Ġniebi": 4263,
      "Ġniemu": 4264,
      "Ġniedo": 4265,
      "wiaÅĤa": 4266,
      "widen": 4267,
      "Ġgrz": 4268,
      "ĠPy": 4269,
      "ĠudziaÅĤ": 4270,
      "Ġuzna": 4271,
      "ĠujrzaÅĤ": 4272,
      "Ġwyz": 4273,
      "ciec": 4274,
      "Ġprzerwa": 4275,
      "ĠNim": 4276,
      "Ġag": 4277,
      "Ġkop": 4278,
      "Ġbym": 4279,
      "ĠTwa": 4280,
      "Ġszpa": 4281,
      "ĠszkÅĤa": 4282,
      "Ġszpad": 4283,
      "ruch": 4284,
      "Ġodg": 4285,
      "ÅĦca": 4286,
      "ÅĦczo": 4287,
      "Ġtyp": 4288,
      "ĠtysiÄĻcy": 4289,
      "ĠczÅĤek": 4290,
      "Ġprzywo": 4291,
      "Ġmojej": 4292,
      "ĠAmple": 4293,
      "bili": 4294,
      "ĠIch": 4295,
      "Ġpatro": 4296,
      "ĠBa": 4297,
      "ĠBu": 4298,
      "szer": 4299,
      "ĠDwie": 4300,
      "ĠDowe": 4301,
      "ĠPom": 4302,
      "ĠPoza": 4303,
      "Ġrozp": 4304,
      "Ġrozdzie": 4305,
      "Ġmundu": 4306,
      "ĠNale": 4307,
      "gan": 4308,
      "owiadaÅĤ": 4309,
      "panku": 4310,
      "ĠdziesiÄħ": 4311,
      "Ġdziecka": 4312,
      "chami": 4313,
      "Ġinnej": 4314,
      "Ġrzecze": 4315,
      "ĠrzekÅĤa": 4316,
      "dom": 4317,
      "osy": 4318,
      "Ġlam": 4319,
      "Ġlaty": 4320,
      "anki": 4321,
      "ĠsiedzÄħc": 4322,
      "sunÄħÅĤ": 4323,
      "Ġczasy": 4324,
      "gÅĤe": 4325,
      "Ġbezbron": 4326,
      "ĠÅ¼yÅĤ": 4327,
      "Ġpias": 4328,
      "ĠwÅĤadza": 4329,
      "ĠbiaÅĤ": 4330,
      "Ġstoi": 4331,
      "Ġstodo": 4332,
      "ĠWyda": 4333,
      "ĠtwarzÄħ": 4334,
      "ĠgÅĤoso": 4335,
      "ĠmoÅ¼esz": 4336,
      "ĠÅĤagod": 4337,
      "Ġweso": 4338,
      "ĠpierÅĽ": 4339,
      "ĠDopiero": 4340,
      "Ġwielkich": 4341,
      "ĠbÄĻdziemy": 4342,
      "Ġokrzy": 4343,
      "ziÄħ": 4344,
      "ĠÅ¼adna": 4345,
      "czÄħca": 4346,
      "Ġkilo": 4347,
      "miany": 4348,
      "niÄĻcia": 4349,
      "ĠWidziaÅĤ": 4350,
      "ĠprawdÄĻ": 4351,
      "stety": 4352,
      "Ġcelu": 4353,
      "Ġsuk": 4354,
      "Ġznajdzie": 4355,
      "ĠoprÃ³cz": 4356,
      "Ġniezwy": 4357,
      "ĠKoÅĽci": 4358,
      "ĠmyÅĽliw": 4359,
      "Ġsystem": 4360,
      "ĠszyjÄĻ": 4361,
      "Ġustach": 4362,
      "ĠimiÄĻ": 4363,
      "ĠwÅĤosach": 4364,
      "ĠmyÅĽlaÅĤ": 4365,
      "Ġmomentu": 4366,
      "ĠistnieÄĩ": 4367,
      "Ġgrup": 4368,
      "Ġartyku": 4369,
      "Ġgroma": 4370,
      "Ġwarko": 4371,
      "Ġloka": 4372,
      "Ġlogi": 4373,
      "Ġdrzwia": 4374,
      "ĠÅĽrodek": 4375,
      "Ġkraj": 4376,
      "ĠobojÄĻ": 4377,
      "ĠmÄĻÅ¼czyÅºni": 4378,
      "ĠpeÅĤni": 4379,
      "Ġkolejne": 4380,
      "forth": 4381,
      "Ġpotrzeby": 4382,
      "kowane": 4383,
      "ĠgÅĤupo": 4384,
      "ĠgÅĤupi": 4385,
      "ĠÅĽcianie": 4386,
      "ĠbÄĻdÄĻ": 4387,
      "ĠpÃ³Åºno": 4388,
      "ĠprzyszÅĤoÅĽÄĩ": 4389,
      "ĠzobaczyÄĩ": 4390,
      "ĠsÅĤoÅĦce": 4391,
      "Ġzwraca": 4392,
      "Ġgestem": 4393,
      "Ġkontroluje": 4394,
      "Ġheliko": 4395,
      "Ġosoby": 4396,
      "Ġoficer": 4397,
      "ĠzewnÄĻtrz": 4398,
      "ĠwstrzÄħ": 4399,
      "ĠistniaÅĤa": 4400,
      "ĠskÃ³ry": 4401,
      "Ġideologi": 4402,
      "ĠmÄĻÅ¼czyzn": 4403,
      "Ġkarabe": 4404,
      "ĠÅĽwiadomoÅĽÄĩ": 4405,
      "Ġokolicy": 4406,
      "ĠSÅĤychaÄĩ": 4407,
      "Ġwyobra": 4408,
      "ĠOjczy": 4409,
      "ĠKsiÄĻga": 4410,
      "ĠBardzo": 4411,
      "ĠzÄĻby": 4412,
      "ĠmyÅĽleÄĩ": 4413,
      "ĠteleekranÃ³w": 4414,
      "Ġfunk": 4415,
      "Ġczterdzie": 4416,
      "ĠMaÄĩka": 4417,
      "ĠspoÅĤeczeÅĦstwa": 4418,
      "Ġokien": 4419,
      "ĠodezwaÅĤ": 4420,
      "ĠbÅĤyskawi": 4421,
      "Panie": 4422,
      "ĠCzuÅĤ": 4423,
      "Ġwczoraj": 4424,
      "Mini": 4425,
      "ĠdowÃ³d": 4426,
      "Ġdrewnia": 4427,
      "Ġ101": 4428,
      "Ġosiem": 4429,
      "Ġzechce": 4430,
      "ĠDziewczyna": 4431,
      "widentnie": 4432,
      "ĠAmpleforth": 4433,
      "ĠDowey": 4434,
      "Ġhelikop": 4435,
      "bem": 4436,
      "bÅĤy": 4437,
      "bÃ³g": 4438,
      "cone": 4439,
      "ckich": 4440,
      "fy": 4441,
      "faÅĤ": 4442,
      "fem": 4443,
      "giÄĻ": 4444,
      "ho": 4445,
      "is": 4446,
      "kej": 4447,
      "kowaÅĤ": 4448,
      "lnoÅĽci": 4449,
      "naÅĤy": 4450,
      "oba": 4451,
      "tre": 4452,
      "tnoÅĽÄĩ": 4453,
      "tkaÅĤ": 4454,
      "wnie": 4455,
      "zji": 4456,
      "ĠÃĵ": 4457,
      "ieÅĦ": 4458,
      "ÅĤego": 4459,
      "Ġski": 4460,
      "Ġsce": 4461,
      "Ġwsta": 4462,
      "ĠwÅĽrÃ³d": 4463,
      "Ġwzajem": 4464,
      "Äħb": 4465,
      "Ġzy": 4466,
      "Ġzrzu": 4467,
      "rzone": 4468,
      "czkiem": 4469,
      "Å¼ny": 4470,
      "Å¼szy": 4471,
      "Ġdem": 4472,
      "ĠduÅ¼": 4473,
      "ÅĽlach": 4474,
      "stwy": 4475,
      "stek": 4476,
      "ownikÃ³w": 4477,
      "szaÅĤa": 4478,
      "Ġkwi": 4479,
      "ĠpoÅĤo": 4480,
      "ĠporÃ³w": 4481,
      "Ġpokry": 4482,
      "ĠposÅĤa": 4483,
      "Ġnara": 4484,
      "ĠbrzÄĻ": 4485,
      "Ġbowiem": 4486,
      "lin": 4487,
      "liwszy": 4488,
      "rzeÅĦ": 4489,
      "ĠnieszczÄĻ": 4490,
      "lek": 4491,
      "nale": 4492,
      "nano": 4493,
      "rzysta": 4494,
      "Ġzacie": 4495,
      "Ġzacho": 4496,
      "Ġzagra": 4497,
      "ĠdosÅĤ": 4498,
      "wiona": 4499,
      "wione": 4500,
      "wan": 4501,
      "ĠgÅĤad": 4502,
      "czych": 4503,
      "czyna": 4504,
      "Ġupo": 4505,
      "Ġwyro": 4506,
      "Ġwybo": 4507,
      "cier": 4508,
      "larz": 4509,
      "Ġprzebu": 4510,
      "dziesiÄĻ": 4511,
      "Ġal": 4512,
      "ĠaÅ¼eby": 4513,
      "czeÅĦstwo": 4514,
      "Ġkos": 4515,
      "Ġszor": 4516,
      "wieni": 4517,
      "ÅĦski": 4518,
      "ÅĦcu": 4519,
      "ÅĦskie": 4520,
      "entu": 4521,
      "ĠczÅĤonek": 4522,
      "Ġprzyz": 4523,
      "Ġprzychodzi": 4524,
      "Ġprzynajmniej": 4525,
      "ĠchcÄĻ": 4526,
      "ĠchcÄħc": 4527,
      "Ġcharty": 4528,
      "ĠMinu": 4529,
      "ĠAfry": 4530,
      "ĠÅĽnia": 4531,
      "ĠÅĽlu": 4532,
      "biÃ³r": 4533,
      "Ġwierzy": 4534,
      "ĠwiedzÄħ": 4535,
      "Ġwieczora": 4536,
      "ĠpodszedÅĤ": 4537,
      "ĠpodrÄĻcz": 4538,
      "ĠgoÅĽÄĩ": 4539,
      "Ġter": 4540,
      "maty": 4541,
      "ĠNiektÃ³": 4542,
      "Ġrozle": 4543,
      "Ġrozwi": 4544,
      "ĠRÃ³z": 4545,
      "baj": 4546,
      "zywa": 4547,
      "Ġczyta": 4548,
      "ĠobjÄĻ": 4549,
      "lot": 4550,
      "gina": 4551,
      "ĠpracÄĻ": 4552,
      "Ġspu": 4553,
      "ĠspÃ³r": 4554,
      "ĠlewÄħ": 4555,
      "Ġlewej": 4556,
      "ĠleÅ¼aÅĤ": 4557,
      "ĠmiesiÄħc": 4558,
      "Ġsposo": 4559,
      "Ġcichu": 4560,
      "Ġinnymi": 4561,
      "ĠÅ¼ona": 4562,
      "ĠskrÄĻ": 4563,
      "czaÄĩ": 4564,
      "Ġzeszy": 4565,
      "Ġzebra": 4566,
      "szczenie": 4567,
      "Ġlatach": 4568,
      "Ġdzisiej": 4569,
      "ĠrÄĻko": 4570,
      "gÅĤem": 4571,
      "ĠÅ¼yle": 4572,
      "Ġprzedsta": 4573,
      "Ġwzbu": 4574,
      "menty": 4575,
      "ĠstoÅĤem": 4576,
      "czono": 4577,
      "ĠJaki": 4578,
      "Ġpozwala": 4579,
      "dzono": 4580,
      "ĠPartiÄĻ": 4581,
      "ĠnajwiÄĻk": 4582,
      "dzeniu": 4583,
      "dziÅĤem": 4584,
      "ĠkaÅ¼da": 4585,
      "ĠmoÅ¼emy": 4586,
      "Ġpanny": 4587,
      "ĠHrabiÄĻ": 4588,
      "ĠczekaÄĩ": 4589,
      "Ġwese": 4590,
      "ĠsiÅĤ": 4591,
      "fika": 4592,
      "Ġkonfede": 4593,
      "ĠsÅĤuÅ¼y": 4594,
      "rodÄĻ": 4595,
      "Ġepo": 4596,
      "ĠszlachtÄĻ": 4597,
      "ktry": 4598,
      "Ġparka": 4599,
      "Ġzdanie": 4600,
      "ĠbieÅ¼y": 4601,
      "ĠCzyÅ¼": 4602,
      "Ġdwaj": 4603,
      "ĠCztery": 4604,
      "Ġcelem": 4605,
      "Ġduszy": 4606,
      "ĠÅĽwiet": 4607,
      "Ġdroga": 4608,
      "Ġbracie": 4609,
      "ĠzapytaÅĤ": 4610,
      "ĠwydawaÅĤ": 4611,
      "Ġkobiet": 4612,
      "ĠmetrÃ³w": 4613,
      "ĠwÅĤasne": 4614,
      "Ġsprawie": 4615,
      "ĠTelimeny": 4616,
      "Ġzgody": 4617,
      "ĠogromnÄħ": 4618,
      "Ġwalki": 4619,
      "ĠstanowiÅĤo": 4620,
      "ĠszukaÄĩ": 4621,
      "ĠpiÄĻkne": 4622,
      "Ġpodobnie": 4623,
      "ĠzachÄĻ": 4624,
      "Ġzachowanie": 4625,
      "Ġodpowiedzi": 4626,
      "ĠwrogÃ³w": 4627,
      "Ġskute": 4628,
      "Ġdrzew": 4629,
      "stÄħpiÄĩ": 4630,
      "Ġwspom": 4631,
      "ĠzdoÅĤaÅĤ": 4632,
      "ĠksiÄĻÅ¼y": 4633,
      "Ġsztuki": 4634,
      "Ġpotrzeba": 4635,
      "ĠokoÅĤo": 4636,
      "ĠRzecz": 4637,
      "glÄħdajÄħc": 4638,
      "Ġmocniej": 4639,
      "ĠchÅĤopca": 4640,
      "Ġpowiada": 4641,
      "Ġfakty": 4642,
      "ĠumiejÄĻ": 4643,
      "Ġrodzaj": 4644,
      "Ġramionach": 4645,
      "Ġnauk": 4646,
      "ĠpoÅĽrodku": 4647,
      "Ġgniew": 4648,
      "Ġsekre": 4649,
      "ĠzwyciÄĻstwa": 4650,
      "ĠrozumiaÅĤ": 4651,
      "Ġtrzydziestu": 4652,
      "ĠdostaÄĩ": 4653,
      "Ġnadziei": 4654,
      "ĠjÄĻzyk": 4655,
      "Ġzasady": 4656,
      "ĠpodÅĤogÄĻ": 4657,
      "Niech": 4658,
      "Ġstoliku": 4659,
      "Ġwojennych": 4660,
      "ĠotworzyÅĤ": 4661,
      "dziesiÄħtych": 4662,
      "Ġpomieszczeniu": 4663,
      "ĠzaczÄĻli": 4664,
      "ĠpamiÄĻtam": 4665,
      "ĠwrzasnÄħÅĤ": 4666,
      "Ġizby": 4667,
      "Ġmojego": 4668,
      "Ġzaczyna": 4669,
      "Ġtortu": 4670,
      "Ġkuchni": 4671,
      "ĠodczuwaÅĤ": 4672,
      "ÅĽwiet": 4673,
      "Ġobycza": 4674,
      "ĠtrafiÅĤ": 4675,
      "Ġtabakie": 4676,
      "ĠbÅĤÄĻki": 4677,
      "Ġskrawek": 4678,
      "Ġkwiaty": 4679,
      "ĠbrakowaÅĤo": 4680,
      "Ġdoprowa": 4681,
      "Ġoblicze": 4682,
      "Ġprzedmiot": 4683,
      "ĠPamiÄĻtam": 4684,
      "ĠKropiciel": 4685,
      "Ġpowietrza": 4686,
      "Ġpowietrzu": 4687,
      "ĠObok": 4688,
      "ĠniemoÅ¼liwe": 4689,
      "Ġpozbawio": 4690,
      "ĠniektÃ³rych": 4691,
      "ĠWarsza": 4692,
      "Ġzasadni": 4693,
      "ĠdÅĤonie": 4694,
      "ĠMÅĤodzieÅ¼owej": 4695,
      "ĠKonewka": 4696,
      "Ġewaporowa": 4697,
      "ĠStrzel": 4698,
      "orient": 4699,
      "ĠwÄħtpliwoÅĽci": 4700,
      "ĠSÅĤoÅĦce": 4701,
      "ĠPodniÃ³sÅĤ": 4702,
      "ĠdosÅĤownie": 4703,
      "Do": 4704,
      "bÃ³j": 4705,
      "ct": 4706,
      "caÅĤo": 4707,
      "ckÄħ": 4708,
      "gaÅĤo": 4709,
      "hy": 4710,
      "jusz": 4711,
      "kar": 4712,
      "kcie": 4713,
      "lwar": 4714,
      "mer": 4715,
      "nne": 4716,
      "nkÃ³w": 4717,
      "pak": 4718,
      "rwiÄħ": 4719,
      "snÄħ": 4720,
      "tnego": 4721,
      "zda": 4722,
      "zjÄĻ": 4723,
      "Åļ": 4724,
      "ĠpÅĤ": 4725,
      "Ġpsi": 4726,
      "ĠprÃ³Å¼": 4727,
      "ĠpsÃ³w": 4728,
      "Ġslo": 4729,
      "Ġzmu": 4730,
      "czwa": 4731,
      "Å¼Äħce": 4732,
      "ĠtÅĤo": 4733,
      "ĠtwÃ³j": 4734,
      "ĠdÃ³b": 4735,
      "owne": 4736,
      "Ġmej": 4737,
      "Ġosi": 4738,
      "ĠorÄĻ": 4739,
      "Ġoca": 4740,
      "ĠosÅĤa": 4741,
      "Ġoszu": 4742,
      "Ġostry": 4743,
      "nio": 4744,
      "nienia": 4745,
      "nieje": 4746,
      "Ġpomi": 4747,
      "ĠpoÅĤy": 4748,
      "ĠpodziaÅĤ": 4749,
      "ĠposzedÅĤ": 4750,
      "Ġpogar": 4751,
      "Ġnapa": 4752,
      "Ġnarod": 4753,
      "Ġnapra": 4754,
      "Ġnatury": 4755,
      "ĠnapisaÅĤ": 4756,
      "roÄĩ": 4757,
      "Ġbrzy": 4758,
      "ĠbÅĤa": 4759,
      "ĠbraÅĤ": 4760,
      "liwie": 4761,
      "ciÅĤo": 4762,
      "ciska": 4763,
      "ler": 4764,
      "rzyny": 4765,
      "Ġzapra": 4766,
      "ĠWziÄħ": 4767,
      "Ġdoj": 4768,
      "Ġdomy": 4769,
      "Ġdoktry": 4770,
      "wiÄħc": 4771,
      "ĠjeÅ¼eli": 4772,
      "kajÄħ": 4773,
      "Ġubo": 4774,
      "Ġuleg": 4775,
      "Ġwyd": 4776,
      "Ġwychy": 4777,
      "tarz": 4778,
      "tany": 4779,
      "tacji": 4780,
      "noty": 4781,
      "Ġcar": 4782,
      "ĠÅ¼em": 4783,
      "dzieÅĦ": 4784,
      "czeÄĩ": 4785,
      "Ġtoczy": 4786,
      "owanych": 4787,
      "Ġkot": 4788,
      "Ġkomen": 4789,
      "Ġkome": 4790,
      "ĠkochaÄĩ": 4791,
      "ĠSu": 4792,
      "ĠSpra": 4793,
      "rech": 4794,
      "Ġodno": 4795,
      "ĠZÅĤo": 4796,
      "kiedy": 4797,
      "ÅĦczyÅĤ": 4798,
      "ÅĦczyÄĩ": 4799,
      "Ġtygod": 4800,
      "ĠtysiÄħce": 4801,
      "ejÅ¼e": 4802,
      "ĠOgi": 4803,
      "Ġprzyw": 4804,
      "Ġprzywi": 4805,
      "Ġprzymio": 4806,
      "Ġprzygot": 4807,
      "Ġchart": 4808,
      "biega": 4809,
      "ĠAby": 4810,
      "cenia": 4811,
      "ÅĤupi": 4812,
      "ĠKra": 4813,
      "Ġpacie": 4814,
      "Å¼ywszy": 4815,
      "ĠBart": 4816,
      "ĠgoÅĽcie": 4817,
      "ĠDy": 4818,
      "ĠDwa": 4819,
      "mara": 4820,
      "maga": 4821,
      "ĠNiechaj": 4822,
      "jÄħwszy": 4823,
      "erwaÅĤ": 4824,
      "toÅĽci": 4825,
      "Åºdzi": 4826,
      "Ġwinie": 4827,
      "ĠRÃ³Å¼": 4828,
      "ĠNadal": 4829,
      "Ġobrzy": 4830,
      "Ġkapu": 4831,
      "niejszych": 4832,
      "obÃ³j": 4833,
      "Ġmazu": 4834,
      "Ġpragnie": 4835,
      "moÅĽci": 4836,
      "Ġspad": 4837,
      "ĠdaÄĩ": 4838,
      "Ġdala": 4839,
      "Ġfla": 4840,
      "Ġfan": 4841,
      "Ġfrancu": 4842,
      "ĠGra": 4843,
      "ĠGÅĤos": 4844,
      "Ġstarzy": 4845,
      "Ġprosi": 4846,
      "Ġprodu": 4847,
      "Ġcichy": 4848,
      "Ġinforma": 4849,
      "ĠÅ¼ar": 4850,
      "chodziÄĩ": 4851,
      "szach": 4852,
      "ĠsamobÃ³j": 4853,
      "ĠmyÅĽlach": 4854,
      "Ġsier": 4855,
      "ewnÄħtrz": 4856,
      "ĠogieÅĦ": 4857,
      "ĠÅ¼yjÄħ": 4858,
      "Ġwami": 4859,
      "ĠwaÅĽÄĩ": 4860,
      "Ġwznosi": 4861,
      "rÄħz": 4862,
      "Ġcien": 4863,
      "ĠpisaÅĤ": 4864,
      "ĠToma": 4865,
      "Ġruszy": 4866,
      "Ġtwarze": 4867,
      "ÄĻpy": 4868,
      "ĠgÅĤosy": 4869,
      "Ġdruga": 4870,
      "rzuca": 4871,
      "ĠMiaÅĤa": 4872,
      "Ġtamten": 4873,
      "Ġczele": 4874,
      "Ġwest": 4875,
      "ĠkrzyczÄħc": 4876,
      "Ġkonf": 4877,
      "ĠwielkÄħ": 4878,
      "Ġpun": 4879,
      "ĠbÄĻdziesz": 4880,
      "Ġbutel": 4881,
      "Å¼aÄĩ": 4882,
      "Å¼ajÄħce": 4883,
      "ĠszlachtÄħ": 4884,
      "jÄħcymi": 4885,
      "mey": 4886,
      "ĠPrzykÅĤad": 4887,
      "Ġdawna": 4888,
      "Ġbierze": 4889,
      "ĠCzÅĤowie": 4890,
      "Ġcesarz": 4891,
      "Ġduch": 4892,
      "ĠSoko": 4893,
      "Ġsukie": 4894,
      "Ġbrat": 4895,
      "Ġbracia": 4896,
      "ĠzrobiÅĤa": 4897,
      "Ġzaka": 4898,
      "sÅĤuchi": 4899,
      "Ġszab": 4900,
      "myÅĽlnie": 4901,
      "twier": 4902,
      "Ġarmi": 4903,
      "Ġarchi": 4904,
      "Ġmeta": 4905,
      "ĠwÅĤasnego": 4906,
      "Ġakt": 4907,
      "ĠTelimenie": 4908,
      "ĠgÃ³rze": 4909,
      "Ġczarnych": 4910,
      "Ġzgodnie": 4911,
      "Ġwyrazu": 4912,
      "Ġbliska": 4913,
      "ĠbliÅ¼ej": 4914,
      "tkowo": 4915,
      "Ġfil": 4916,
      "grafi": 4917,
      "tryny": 4918,
      "Ġjasne": 4919,
      "Ġsensie": 4920,
      "Ġklasz": 4921,
      "Ġklasy": 4922,
      "Ġkomple": 4923,
      "ĠChociaÅ¼": 4924,
      "ĠzdoÅĤa": 4925,
      "Ġinteres": 4926,
      "Ġmamy": 4927,
      "ĠgÅĤup": 4928,
      "Ġdomem": 4929,
      "strasz": 4930,
      "ĠgÄĻsto": 4931,
      "ĠjesteÅĽmy": 4932,
      "ĠzmÄĻ": 4933,
      "Ġtowarzysz": 4934,
      "ĠpoÅĽwiÄĻ": 4935,
      "Ġuwagi": 4936,
      "Ġstrzelcy": 4937,
      "ĠznajdowaÅĤa": 4938,
      "Ġzapomnia": 4939,
      "ĠÅ»yd": 4940,
      "ĠprÄĻdzej": 4941,
      "Ġzasadzie": 4942,
      "Ġzatrzyma": 4943,
      "ĠMÃ³gÅĤ": 4944,
      "ĠskÃ³rÄĻ": 4945,
      "ĠkryjÃ³w": 4946,
      "ĠzaczÄĻÅĤa": 4947,
      "ĠspotkaÄĩ": 4948,
      "ĠPowiedz": 4949,
      "Ġdaleko": 4950,
      "ĠniedÅºwiedzi": 4951,
      "ĠmilionÃ³w": 4952,
      "Ġspojrzenie": 4953,
      "ĠGoldstein": 4954,
      "ĠmaÅĤÅ¼e": 4955,
      "akiem": 4956,
      "ĠsÅĤone": 4957,
      "Ġzawiera": 4958,
      "ĠWszakÅ¼e": 4959,
      "Ġstryja": 4960,
      "Ġobywa": 4961,
      "Ġ1984": 4962,
      "ĠSkÄħd": 4963,
      "Ġtryum": 4964,
      "Ġfolwar": 4965,
      "ĠjakiejÅĽ": 4966,
      "Ġprzekona": 4967,
      "ĠSÄĻdzio": 4968,
      "ĠwiÄĻkszoÅĽÄĩ": 4969,
      "ĠÅºwierza": 4970,
      "ĠzatÅĤo": 4971,
      "Ġwieczerzy": 4972,
      "Ġministerstwa": 4973,
      "ĠNastÄĻpnie": 4974,
      "ĠDawniej": 4975,
      "ĠzrozumieÄĩ": 4976,
      "Ġbernardyna": 4977,
      "Timesa": 4978,
      "Ġnajpierw": 4979,
      "ĠgaÅĤÄĻzi": 4980,
      "ĠKsiÄħdz": 4981,
      "Ġkapelu": 4982,
      "Ġpoziomie": 4983,
      "Ġczterech": 4984,
      "Ġkwarty": 4985,
      "Ġszpady": 4986,
      "ĠÃĵw": 4987,
      "ĠdÃ³br": 4988,
      "ĠPrzykÅĤadowo": 4989,
      "!âĢĿ.": 4990,
      "Bra": 4991,
      "NO": 4992,
      "OL": 4993,
      "Pan": 4994,
      "Tak": 4995,
      "ckiej": 4996,
      "dl": 4997,
      "efor": 4998,
      "fie": 4999,
      "gam": 5000,
      "grom": 5001,
      "gnaÅĤ": 5002,
      "inie": 5003,
      "jaÅĤy": 5004,
      "klÄĻ": 5005,
      "mar": 5006,
      "nÃ³": 5007,
      "nce": 5008,
      "naÅĤo": 5009,
      "nnym": 5010,
      "pl": 5011,
      "pnie": 5012,
      "rowy": 5013,
      "remu": 5014,
      "tce": 5015,
      "uro": 5016,
      "ujÄħc": 5017,
      "iera": 5018,
      "ÅĤej": 5019,
      "Ġwpada": 5020,
      "Ġwnios": 5021,
      "Ġzje": 5022,
      "Ġzmy": 5023,
      "Ġzmo": 5024,
      "Ġzgu": 5025,
      "ĠzwiÄħza": 5026,
      "czar": 5027,
      "czaÅĤy": 5028,
      "Å¼ono": 5029,
      "che": 5030,
      "chÃ³": 5031,
      "chÅĤo": 5032,
      "chÃ³w": 5033,
      "ĠtrÃ³j": 5034,
      "ĠtchÃ³": 5035,
      "Ġdniu": 5036,
      "Ġdym": 5037,
      "ÅĽny": 5038,
      "ÅĽne": 5039,
      "ÅĽmi": 5040,
      "Ġmru": 5041,
      "ĠmaÅĤa": 5042,
      "Ġmego": 5043,
      "ĠmaÅĤÄħ": 5044,
      "rajÄħc": 5045,
      "Ġkwie": 5046,
      "Ġodzy": 5047,
      "dzki": 5048,
      "nij": 5049,
      "niegdzie": 5050,
      "Ġpob": 5051,
      "Ġpodzi": 5052,
      "Ġpono": 5053,
      "Ġpoku": 5054,
      "Ġporan": 5055,
      "ĠpomysÅĤ": 5056,
      "Ġporoz": 5057,
      "Ġnaw": 5058,
      "Ġnaczy": 5059,
      "Ġnaszym": 5060,
      "Ġbada": 5061,
      "Ġiden": 5062,
      "lind": 5063,
      "akroÄĩ": 5064,
      "cisnÄħÅĤ": 5065,
      "Ġnies": 5066,
      "Ġnieprze": 5067,
      "letni": 5068,
      "nat": 5069,
      "arstwa": 5070,
      "arstw": 5071,
      "ĠzajÄħc": 5072,
      "Ġzama": 5073,
      "Ġzabra": 5074,
      "ĠzasÅĤu": 5075,
      "Ġzatru": 5076,
      "ĠWkrÃ³tce": 5077,
      "Å¼eni": 5078,
      "wiono": 5079,
      "wane": 5080,
      "waniu": 5081,
      "ĠPla": 5082,
      "ĠPeÅĤ": 5083,
      "Ġudo": 5084,
      "Ġutra": 5085,
      "ĠuniÃ³sÅĤ": 5086,
      "dywaÅĤ": 5087,
      "Ġwybi": 5088,
      "Ġwypa": 5089,
      "Ġwynik": 5090,
      "Ġwystrze": 5091,
      "Ġwygra": 5092,
      "ĠwyglÄħda": 5093,
      "Ġwygod": 5094,
      "ciej": 5095,
      "cielem": 5096,
      "lad": 5097,
      "tane": 5098,
      "rytor": 5099,
      "Ġprzestrze": 5100,
      "ĠNowo": 5101,
      "Ġatra": 5102,
      "czeni": 5103,
      "ĠtoÅ¼": 5104,
      "owach": 5105,
      "owaniem": 5106,
      "Ġkora": 5107,
      "ĠkochaÅĤ": 5108,
      "ĠTuÅ¼": 5109,
      "tyki": 5110,
      "ĠszÃ³": 5111,
      "Ġszta": 5112,
      "ĠStra": 5113,
      "rego": 5114,
      "Ġodby": 5115,
      "ĠoddaÄĩ": 5116,
      "ĠZd": 5117,
      "pol": 5118,
      "ÅĦstwem": 5119,
      "entem": 5120,
      "ĠOw": 5121,
      "Ġprzybli": 5122,
      "ĠprzyszedÅĤ": 5123,
      "ĠchcÄħ": 5124,
      "ĠArchi": 5125,
      "cenie": 5126,
      "stawiÅĤ": 5127,
      "ĠÅĽcieÅ¼": 5128,
      "ĠKle": 5129,
      "mienie": 5130,
      "biaÅĤ": 5131,
      "Ġwiesza": 5132,
      "ĠBernar": 5133,
      "Ġmikro": 5134,
      "Ġpode": 5135,
      "ĠgotÃ³w": 5136,
      "ĠDro": 5137,
      "Ġterytor": 5138,
      "Ġcokolwiek": 5139,
      "ĠNieraz": 5140,
      "ĠrozwiÄħza": 5141,
      "ĠrozsÄħd": 5142,
      "jajÄħc": 5143,
      "ĠwidzieÄĩ": 5144,
      "zywaÅĤ": 5145,
      "Ġwoda": 5146,
      "Ġwoje": 5147,
      "ĠwodÄĻ": 5148,
      "ĠobrÃ³": 5149,
      "Ġobcy": 5150,
      "Ġkawi": 5151,
      "owicz": 5152,
      "Ġprawi": 5153,
      "Ġpraca": 5154,
      "Ġstaje": 5155,
      "ĠleÅ¼y": 5156,
      "ĠmieÅĽcie": 5157,
      "Ġrapier": 5158,
      "Ġramieniu": 5159,
      "bota": 5160,
      "wiali": 5161,
      "chajÄħc": 5162,
      "Ġinna": 5163,
      "zach": 5164,
      "ĠskÅĤon": 5165,
      "ĠsamÄħ": 5166,
      "Ġboha": 5167,
      "szczegÃ³l": 5168,
      "ĠktÃ³rymi": 5169,
      "Ġhono": 5170,
      "Ġsieni": 5171,
      "ĠsiedziaÅĤa": 5172,
      "Ġkula": 5173,
      "Ġdziwa": 5174,
      "ĠZanim": 5175,
      "sur": 5176,
      "ĠÅ¼ywo": 5177,
      "Ġsojusz": 5178,
      "nuje": 5179,
      "ĠwiÄĻÅº": 5180,
      "ĠwzdÅĤu": 5181,
      "syj": 5182,
      "Ġpilnie": 5183,
      "ĠbiÄĩ": 5184,
      "czonych": 5185,
      "ĠsÅĤowy": 5186,
      "czÄĻta": 5187,
      "ĠcaÅĤego": 5188,
      "czÄħÄĩ": 5189,
      "kÅĤada": 5190,
      "ĠÅĤaska": 5191,
      "Ġpanowie": 5192,
      "dziana": 5193,
      "Ġsil": 5194,
      "ĠsiÅĤÄħ": 5195,
      "ĠsiÅĤÄĻ": 5196,
      "ĠDomey": 5197,
      "ĠkrzyczaÅĤ": 5198,
      "ĠjaÅĽnie": 5199,
      "ĠpotÄĻ": 5200,
      "Ġefek": 5201,
      "skar": 5202,
      "ĠkoÅĦczyÅĤ": 5203,
      "ĠmÅĤode": 5204,
      "rowadza": 5205,
      "ĠPrzyszÅĤo": 5206,
      "Ġstrach": 5207,
      "Ġstraszli": 5208,
      "pul": 5209,
      "resztÄħ": 5210,
      "Ġtrzej": 5211,
      "ĠJuliÄĻ": 5212,
      "Ġprawdopodob": 5213,
      "Ġryt": 5214,
      "ÅĤÄħka": 5215,
      "Ġzapy": 5216,
      "ĠrÃ³wni": 5217,
      "Ġzaku": 5218,
      "Ġniezno": 5219,
      "Ġniezmier": 5220,
      "Ġstaruszek": 5221,
      "ĠZofi": 5222,
      "Ġkroki": 5223,
      "trzeb": 5224,
      "ĠBractwo": 5225,
      "ĠJedna": 5226,
      "ĠDobroby": 5227,
      "Ġistnienia": 5228,
      "ĠtÄĻsk": 5229,
      "Ġdeli": 5230,
      "Ġstrzela": 5231,
      "Ġpokona": 5232,
      "ĠkobietÄħ": 5233,
      "Ġargu": 5234,
      "waliÅĤ": 5235,
      "ĠksiÄħÅ¼ek": 5236,
      "ĠÅļwie": 5237,
      "spar": 5238,
      "Ġpalcami": 5239,
      "set": 5240,
      "ĠpÃ³ÅĤnoc": 5241,
      "Ġwarstwa": 5242,
      "ĠchÅĤopiec": 5243,
      "Ġczarny": 5244,
      "Ġdwor": 5245,
      "Ġostatnie": 5246,
      "Ġwyrazy": 5247,
      "Ġogromna": 5248,
      "Ġwalczy": 5249,
      "Ġsali": 5250,
      "Ġsabota": 5251,
      "Ġsetki": 5252,
      "Ġwzroku": 5253,
      "Ġcudem": 5254,
      "ĠKlucznika": 5255,
      "dobry": 5256,
      "ĠRobaka": 5257,
      "ĠchciaÅĤem": 5258,
      "ĠmilczaÅĤ": 5259,
      "Ġmilczeniu": 5260,
      "thefor": 5261,
      "Ġwspomi": 5262,
      "ĠczÅĤonka": 5263,
      "ĠdaÅĤoby": 5264,
      "ĠRze": 5265,
      "moÅ¼li": 5266,
      "ĠÅĽcianÄĻ": 5267,
      "ĠÅĽcianach": 5268,
      "szczyk": 5269,
      "Ġpierwszym": 5270,
      "ĠwrÃ³ciÅĤ": 5271,
      "Ġramionami": 5272,
      "Ġcywili": 5273,
      "Ġcytryny": 5274,
      "ĠmyÅĽlozbrodnia": 5275,
      "ĠÅºle": 5276,
      "ĠÅºre": 5277,
      "ĠpoÅĽpie": 5278,
      "Ġrodziny": 5279,
      "ĠkrzyknÄĻli": 5280,
      "Ġpolega": 5281,
      "ĠPrawda": 5282,
      "ĠdziaÅĤania": 5283,
      "Ġwszelkich": 5284,
      "Ġwspani": 5285,
      "ĠudawaÅĤo": 5286,
      "ĠdÅĤugim": 5287,
      "Ġosoba": 5288,
      "ĠnadziejÄĻ": 5289,
      "ĠjÄĻzyku": 5290,
      "ĠmarszaÅĤ": 5291,
      "ĠEurazja": 5292,
      "ĠpowaÅ¼": 5293,
      "Ġwidzisz": 5294,
      "Ġwspomnienia": 5295,
      "Ġporusza": 5296,
      "Ġliczby": 5297,
      "Ġstolicy": 5298,
      "mÃ³wie": 5299,
      "ĠdokoÅĤa": 5300,
      "ĠÅĽledz": 5301,
      "Ġmiasta": 5302,
      "ĠmÄĻÅ¼czyzny": 5303,
      "ĠMusiaÅĤ": 5304,
      "ĠrzeczywistoÅĽÄĩ": 5305,
      "Ġmuzyka": 5306,
      "ĠniedÅºwiedÅº": 5307,
      "Ġwystarczy": 5308,
      "ĠrzÄĻdem": 5309,
      "ĠposÄĻp": 5310,
      "Ġstryj": 5311,
      "ĠÅ¼oÅĤnier": 5312,
      "ĠprÃ³cz": 5313,
      "ĠprÃ³bu": 5314,
      "ĠPrawie": 5315,
      "ĠSiedziaÅĤ": 5316,
      "Ġgospoda": 5317,
      "ĠokreÅĽla": 5318,
      "Ġmogliby": 5319,
      "Ġportre": 5320,
      "Ġprzycisk": 5321,
      "ĠmogÅĤaby": 5322,
      "ĠÅĽwiadom": 5323,
      "ĠkÅĤamstwo": 5324,
      "ĠuÅĽmiechem": 5325,
      "ĠwyjÅĽÄĩ": 5326,
      "ĠScyzoryk": 5327,
      "ĠStolnika": 5328,
      "ĠRuthefor": 5329,
      "ĠgÅĤoÅĽno": 5330,
      "Ġogrodu": 5331,
      "ĠSzedÅĤ": 5332,
      "Ġkombinezon": 5333,
      "Ġsrebr": 5334,
      "Ġniezale": 5335,
      "ĠOboje": 5336,
      "Ġrozpacz": 5337,
      "Ġciche": 5338,
      "ĠDepartamentu": 5339,
      "ĠsÄħsiedz": 5340,
      "ĠNapoleon": 5341,
      "ĠgÅĤowami": 5342,
      "Ġdecydu": 5343,
      "ĠÄĩwi": 5344,
      "Ġbrzucha": 5345,
      "Ġsposobu": 5346,
      "Ġpowszech": 5347,
      "Ġpotrafi": 5348,
      "Ġmroku": 5349,
      "ĠtytuÅĤ": 5350,
      "ĠjakichÅĽ": 5351,
      "ĠFikcji": 5352,
      "ĠJankiel": 5353,
      "ĠBuchman": 5354,
      "ĠbiorÄħc": 5355,
      "ĠprÄĻdko": 5356,
      "Ġodwagi": 5357,
      "Ġkwestarz": 5358,
      "Ġprecyzy": 5359,
      "ĠSerce": 5360,
      "ĠznaleÅºÄĩ": 5361,
      "ĠwystarczajÄħco": 5362,
      "elimin": 5363,
      "ĠPyta": 5364,
      "Ġpiasku": 5365,
      "Ġdemon": 5366,
      "ĠÅĽniada": 5367,
      "maraÅĦcze": 5368,
      "ĠArchiwÃ³w": 5369,
      "ĠwzdÅĤuÅ¼": 5370,
      "ĠDobrobytu": 5371,
      "83": 5372,
      "?âĢ¦": 5373,
      "Jak": 5374,
      "KI": 5375,
      "LKI": 5376,
      "Wie": 5377,
      "Za": 5378,
      "ali": 5379,
      "aliz": 5380,
      "cona": 5381,
      "ctwie": 5382,
      "dow": 5383,
      "fon": 5384,
      "gowi": 5385,
      "ktyw": 5386,
      "lkie": 5387,
      "laÅĤy": 5388,
      "nowaÅĤ": 5389,
      "nowaÄĩ": 5390,
      "rt": 5391,
      "rwo": 5392,
      "sÄħ": 5393,
      "sar": 5394,
      "sego": 5395,
      "ujÄħ": 5396,
      "zÄĻ": 5397,
      "ziÄĻ": 5398,
      "zgi": 5399,
      "Ġentu": 5400,
      "ÅĤowa": 5401,
      "ĠpÅĤu": 5402,
      "Ġsro": 5403,
      "Ġsno": 5404,
      "Ġwrze": 5405,
      "Ġwle": 5406,
      "Ġwer": 5407,
      "ĠwnÄĻ": 5408,
      "ĠwÅĽcie": 5409,
      "Ġwchodzi": 5410,
      "Ġwprost": 5411,
      "ĠwewnÄħtrz": 5412,
      "Ġnur": 5413,
      "Ġzwo": 5414,
      "Ġzary": 5415,
      "ĠzwrÃ³ciÅĤ": 5416,
      "Ġzorient": 5417,
      "czni": 5418,
      "czÃ³w": 5419,
      "cznik": 5420,
      "Å¼aÅĤy": 5421,
      "Å¼kÄĻ": 5422,
      "chÅĤa": 5423,
      "cham": 5424,
      "Ġtwier": 5425,
      "Ġdia": 5426,
      "ÅĽpie": 5427,
      "Ã³p": 5428,
      "staÅĤo": 5429,
      "stkÄĻ": 5430,
      "Ġmle": 5431,
      "rale": 5432,
      "Ġkrz": 5433,
      "Ġkru": 5434,
      "Ġklu": 5435,
      "niowo": 5436,
      "nieÅĽli": 5437,
      "Ġpocie": 5438,
      "Ġpotu": 5439,
      "ĠpoglÄħda": 5440,
      "ĠposzczegÃ³l": 5441,
      "Ġnarze": 5442,
      "ĠnapeÅĤni": 5443,
      "rost": 5444,
      "Ġban": 5445,
      "Ġimi": 5446,
      "lik": 5447,
      "liÅĤo": 5448,
      "rzeniem": 5449,
      "gor": 5450,
      "cik": 5451,
      "cisz": 5452,
      "Ġniezna": 5453,
      "Ġniepew": 5454,
      "nas": 5455,
      "naty": 5456,
      "nety": 5457,
      "nemu": 5458,
      "armo": 5459,
      "Ġzanie": 5460,
      "Ġzasko": 5461,
      "ĠWska": 5462,
      "ÅĤaÄĩ": 5463,
      "ĠdoÅĤu": 5464,
      "emi": 5465,
      "wis": 5466,
      "wany": 5467,
      "wami": 5468,
      "wawo": 5469,
      "ĠgadaÅĤ": 5470,
      "ĠgaÅĤÄħ": 5471,
      "ĠPe": 5472,
      "miaÅĤa": 5473,
      "Ġup": 5474,
      "Ġule": 5475,
      "Ġuto": 5476,
      "Ġucho": 5477,
      "Ġuszu": 5478,
      "ĠuwaÅ¼nie": 5479,
      "kon": 5480,
      "Ã³wczas": 5481,
      "dynek": 5482,
      "Ġwypi": 5483,
      "Ġwynika": 5484,
      "ĠwyÅ¼ej": 5485,
      "ĠwypeÅĤni": 5486,
      "tani": 5487,
      "tarzaÅĤ": 5488,
      "Ġprzeby": 5489,
      "Ġprzeba": 5490,
      "ĠprzeÅĤÄħ": 5491,
      "ĠprzeszedÅĤ": 5492,
      "ĠcÃ³r": 5493,
      "ĠÅ¼eÅĽ": 5494,
      "Ġam": 5495,
      "czeÅĽniej": 5496,
      "Ġtoale": 5497,
      "owanÄħ": 5498,
      "owanej": 5499,
      "Ġkoniu": 5500,
      "ÅĽcio": 5501,
      "Ġsty": 5502,
      "ĠstÃ³p": 5503,
      "Ġszlo": 5504,
      "ĠSÅĤa": 5505,
      "ĠSzy": 5506,
      "ĠSzu": 5507,
      "recze": 5508,
      "Ġoddy": 5509,
      "Ġoddzie": 5510,
      "Ġodruch": 5511,
      "wieniem": 5512,
      "ĠZu": 5513,
      "ÅĦskim": 5514,
      "ĠOr": 5515,
      "ĠOgrom": 5516,
      "Ġchcieli": 5517,
      "ĠMe": 5518,
      "ĠMnie": 5519,
      "bienia": 5520,
      "razu": 5521,
      "owiec": 5522,
      "tew": 5523,
      "tÃ³Å¼": 5524,
      "stali": 5525,
      "miesz": 5526,
      "ĠpaÅĦstwa": 5527,
      "ĠwiedzÄħc": 5528,
      "ĠBRA": 5529,
      "ĠmiarÄĻ": 5530,
      "szeÄĩ": 5531,
      "Ġpodtrzy": 5532,
      "mywaÅĤ": 5533,
      "Ġgoni": 5534,
      "Ġtere": 5535,
      "ĠteraÅºniej": 5536,
      "ĠPonownie": 5537,
      "ĠPomyÅĽlaÅĤ": 5538,
      "ĠPokÃ³j": 5539,
      "Ġcodzie": 5540,
      "rÄĻcznie": 5541,
      "piaÅĤ": 5542,
      "Åºli": 5543,
      "Ġwici": 5544,
      "Ġwiary": 5545,
      "ĠRÃ³w": 5546,
      "ĠNaprzÃ³d": 5547,
      "Ġobchodzi": 5548,
      "loty": 5549,
      "Ġkawy": 5550,
      "owicie": 5551,
      "Ġdziewi": 5552,
      "waÅĤem": 5553,
      "ĠspÄĻ": 5554,
      "Ġstarzec": 5555,
      "Ġproje": 5556,
      "Ġprosty": 5557,
      "Ġmiesza": 5558,
      "ĠmiesiÄĻcy": 5559,
      "ĠradÄĻ": 5560,
      "ĠracjÄĻ": 5561,
      "chani": 5562,
      "Ġinten": 5563,
      "zane": 5564,
      "ĠgÅĤÃ³d": 5565,
      "ĠskÄħd": 5566,
      "ĠJedy": 5567,
      "ĠJeÅ¼eli": 5568,
      "Ġboju": 5569,
      "Ġzep": 5570,
      "Ġpowiecie": 5571,
      "Ġprzezna": 5572,
      "ĠlasÃ³w": 5573,
      "Ġlasach": 5574,
      "Ġdziu": 5575,
      "ĠHrecze": 5576,
      "ĠwaÄĩ": 5577,
      "ĠwaÅĽci": 5578,
      "Ġchodni": 5579,
      "Ġciep": 5580,
      "Ġbio": 5581,
      "ĠbijÄħ": 5582,
      "mentÃ³w": 5583,
      "son": 5584,
      "ĠstoÅĤy": 5585,
      "czonym": 5586,
      "czonej": 5587,
      "ĠChwi": 5588,
      "ĠgdyÅ¼": 5589,
      "ĠpoznaÄĩ": 5590,
      "ĠWyszedÅĤ": 5591,
      "skaÄĩ": 5592,
      "Ġruchy": 5593,
      "Ġruchem": 5594,
      "ĠnajwaÅ¼": 5595,
      "dep": 5596,
      "kÅĤe": 5597,
      "ĠpowrÃ³": 5598,
      "ĠWolnych": 5599,
      "ĠgÅĤosÃ³w": 5600,
      "ĠkaÅ¼dÄħ": 5601,
      "nowÅĤo": 5602,
      "skiew": 5603,
      "zuje": 5604,
      "ĠMiaÅĤo": 5605,
      "ĠMickie": 5606,
      "rzawszy": 5607,
      "ĠczekaÅĤ": 5608,
      "dziano": 5609,
      "ĠÅĤow": 5610,
      "ĠÅĤowy": 5611,
      "ĠÅĤez": 5612,
      "padÅĤa": 5613,
      "ĠTakie": 5614,
      "ĠpiÄĻtna": 5615,
      "ĠbyÅĤaby": 5616,
      "scypli": 5617,
      "ĠsÅĤuchaÅĤ": 5618,
      "ĠsÅĤuchaÄĩ": 5619,
      "Ġziemia": 5620,
      "spoko": 5621,
      "ktÃ³w": 5622,
      "ĠBogu": 5623,
      "Ġpewne": 5624,
      "ĠpewnoÅĽÄĩ": 5625,
      "Ġstrachem": 5626,
      "glÄħ": 5627,
      "niÄĻte": 5628,
      "Ġzdania": 5629,
      "Ġwojnie": 5630,
      "ĠHrabio": 5631,
      "Ġtrzeci": 5632,
      "ĠJac": 5633,
      "ĠCzyli": 5634,
      "cono": 5635,
      "Ġducha": 5636,
      "Ġsub": 5637,
      "Ġsuger": 5638,
      "Ġzaprze": 5639,
      "ĠdwÃ³j": 5640,
      "ĠdwÃ³r": 5641,
      "nikami": 5642,
      "ĠskoczyÅĤ": 5643,
      "Ġzmiesza": 5644,
      "ĠzmieniÅĤ": 5645,
      "ĠKtÃ³Å¼": 5646,
      "ĠzrobiÅĤo": 5647,
      "ĠniezbÄĻ": 5648,
      "Ġbag": 5649,
      "Ġstarca": 5650,
      "ĠTyle": 5651,
      "ĠKobie": 5652,
      "ĠrÃ³Å¼nicy": 5653,
      "Ġkrok": 5654,
      "Ġkrokiem": 5655,
      "Ġsyn": 5656,
      "ĠzÅĤoci": 5657,
      "ĠszaleÅĦ": 5658,
      "ĠWojna": 5659,
      "stwu": 5660,
      "Ġwydanie": 5661,
      "Ġmusisz": 5662,
      "ĠmusiaÅĤa": 5663,
      "ĠLigi": 5664,
      "ĠwÅĤos": 5665,
      "Ġtrawy": 5666,
      "Ġistnienie": 5667,
      "Ġdeka": 5668,
      "ĠPani": 5669,
      "Ġgrub": 5670,
      "ĠtrwaÄĩ": 5671,
      "ĠtrwaÅĤo": 5672,
      "ĠtrwaÅĤa": 5673,
      "ĠsÅĤowach": 5674,
      "ĠwÅĤasnÄħ": 5675,
      "Ġaktual": 5676,
      "Ġwarstwy": 5677,
      "Ġwczes": 5678,
      "ĠkrÃ³la": 5679,
      "Ġludziom": 5680,
      "Ġostate": 5681,
      "ĠWielkim": 5682,
      "Ġoboje": 5683,
      "ĠwalczyÄĩ": 5684,
      "ĠwalczyÅĤa": 5685,
      "ĠGerwazego": 5686,
      "ĠpiÄĻkna": 5687,
      "zdro": 5688,
      "trywaÅĤ": 5689,
      "rÃ³bcie": 5690,
      "Ġwzrokiem": 5691,
      "ĠziemiÄħ": 5692,
      "lÄħkÅĤ": 5693,
      "wierci": 5694,
      "Ġmilczenie": 5695,
      "Ġmilczkiem": 5696,
      "Ġplan": 5697,
      "ĠrobiÄħ": 5698,
      "Ġinteresu": 5699,
      "Ġwprowa": 5700,
      "Ġpokrzy": 5701,
      "ĠuÅ¼ywa": 5702,
      "Ġpolskie": 5703,
      "Ġpolowanie": 5704,
      "ĠMoskala": 5705,
      "Ġludzkie": 5706,
      "Ġludzkich": 5707,
      "ĠksiÄħÅ¼kÄĻ": 5708,
      "ĠpÅĤynie": 5709,
      "ĠPolak": 5710,
      "Ġdziedziniec": 5711,
      "bieraÄĩ": 5712,
      "ĠpoÅĽrÃ³d": 5713,
      "ĠuwaÅ¼a": 5714,
      "Ġwyklu": 5715,
      "Ġplecami": 5716,
      "ĠstrzelcÃ³w": 5717,
      "ĠskÅĤad": 5718,
      "Ġgniewu": 5719,
      "cyjnych": 5720,
      "jorze": 5721,
      "Ġzwro": 5722,
      "Ġgest": 5723,
      "ĠszczegÃ³": 5724,
      "ĠWÅĤaÅĽciwie": 5725,
      "Å¼onej": 5726,
      "Å¼okej": 5727,
      "ĠzabiÄĩ": 5728,
      "Ġukryty": 5729,
      "Ġforte": 5730,
      "bel": 5731,
      "Ġofice": 5732,
      "Ġoficja": 5733,
      "Ġgotowi": 5734,
      "ĠZosiu": 5735,
      "ĠznikÅĤa": 5736,
      "ĠEurazji": 5737,
      "ĠpowaÅ¼nie": 5738,
      "Ġsmutnie": 5739,
      "ĠwstÄĻ": 5740,
      "ĠpracowaÅĤ": 5741,
      "Ġchcesz": 5742,
      "Ġubrania": 5743,
      "ĠwziÄħÄĩ": 5744,
      "ĠskoÅĦczy": 5745,
      "ĠzbliÅ¼yÅĤ": 5746,
      "ĠwspÃ³ÅĤ": 5747,
      "ĠdziesiÄĻciu": 5748,
      "ĠszklankÄĻ": 5749,
      "Ġwrzask": 5750,
      "Ġnosie": 5751,
      "Ġizbie": 5752,
      "ĠsÅĤuÅ¼Äħcy": 5753,
      "dÅĤug": 5754,
      "Ġstopniu": 5755,
      "Ġwyobraz": 5756,
      "Ġopieku": 5757,
      "ĠSkoro": 5758,
      "ĠprzyjÅĽÄĩ": 5759,
      "ĠkÅĤamstwa": 5760,
      "Ġgwiazdy": 5761,
      "ĠfaÅĤsz": 5762,
      "Ġkolor": 5763,
      "ĠhaÅĤaÅĽli": 5764,
      "ĠdowiedziaÅĤ": 5765,
      "Ġuzbro": 5766,
      "ĠszczegÃ³lnie": 5767,
      "Ġtrybu": 5768,
      "ĠdopÃ³ki": 5769,
      "Ġwysoko": 5770,
      "Ġdziennik": 5771,
      "ĠRewolucji": 5772,
      "niÄĻtymi": 5773,
      "ĠÅ¼alu": 5774,
      "Ġkombinezo": 5775,
      "cjona": 5776,
      "ful": 5777,
      "ĠprzypomniaÅĤ": 5778,
      "ĠradoÅĽci": 5779,
      "ĠLitwi": 5780,
      "ĠumysÅĤu": 5781,
      "ĠRÄĻbaj": 5782,
      "ĠdziewiÄĻtna": 5783,
      "Ġokropnie": 5784,
      "Ġunifor": 5785,
      "Ġszpieg": 5786,
      "ĠLektur": 5787,
      "ĠJesteÅĽmy": 5788,
      "ĠMÄĻÅ¼czyzna": 5789,
      "Ġrozmai": 5790,
      "Ġznajomy": 5791,
      "ĠpoÅĤudnie": 5792,
      "ĠniemaÅĤo": 5793,
      "ĠwiÄĻÅºniÃ³w": 5794,
      "ĠPrusak": 5795,
      "Ġtranspar": 5796,
      "ĠpogrÄħ": 5797,
      "Ġnieprzyja": 5798,
      "ĠuniknÄħÄĩ": 5799,
      "Ġrozkosz": 5800,
      "Ġnajlep": 5801,
      "Ġsytuacji": 5802,
      "ĠwyrzekÅĤ": 5803,
      "patrzyÅĤ": 5804,
      "Ġekonomi": 5805,
      "Ġwieczorem": 5806,
      "ĠrÃ³g": 5807,
      "Ġsupermoc": 5808,
      "dobromyÅĽl": 5809,
      "IELKI": 5810,
      "ĠPodkomorzego": 5811,
      "Ġoczeki": 5812,
      "Ġniebios": 5813,
      "ĠTwarz": 5814,
      "Ġkilome": 5815,
      "Ġzeszyt": 5816,
      "Ġkonfedera": 5817,
      "Ġbrzyd": 5818,
      "ĠTomasz": 5819,
      "ĠCzÅĤowiek": 5820,
      "ierarchi": 5821,
      "Ġnawzajem": 5822,
      "Ġentuzja": 5823,
      "ĠBRAT": 5824,
      "60": 5825,
      "Czy": 5826,
      "Na": 5827,
      "Praw": 5828,
      "atu": 5829,
      "bna": 5830,
      "brzy": 5831,
      "ber": 5832,
      "blem": 5833,
      "dr": 5834,
      "era": 5835,
      "fla": 5836,
      "grÃ³w": 5837,
      "gnaÄĩ": 5838,
      "il": 5839,
      "jnym": 5840,
      "krzy": 5841,
      "klu": 5842,
      "kowy": 5843,
      "lnej": 5844,
      "lÄħd": 5845,
      "lowe": 5846,
      "nny": 5847,
      "nda": 5848,
      "nnoÅĽci": 5849,
      "ntÃ³w": 5850,
      "nÄħce": 5851,
      "pÃ³w": 5852,
      "rowaÄĩ": 5853,
      "sÄĻ": 5854,
      "sce": 5855,
      "sja": 5856,
      "spi": 5857,
      "tp": 5858,
      "tÅĤa": 5859,
      "tko": 5860,
      "ul": 5861,
      "wni": 5862,
      "wer": 5863,
      "wraca": 5864,
      "zer": 5865,
      "zdach": 5866,
      "Åģ": 5867,
      "ÅĤÄħd": 5868,
      "Ġpad": 5869,
      "Ġpowy": 5870,
      "Ġsnu": 5871,
      "Ġwnu": 5872,
      "Ġwpra": 5873,
      "ĠwstÄħ": 5874,
      "ÄħÅ¼y": 5875,
      "Ġzar": 5876,
      "ĠzaÅĤa": 5877,
      "Ġzma": 5878,
      "czce": 5879,
      "czkÄħ": 5880,
      "cznymi": 5881,
      "Å¼szej": 5882,
      "chaÅĤa": 5883,
      "chwy": 5884,
      "chary": 5885,
      "Ġtow": 5886,
      "Ġtas": 5887,
      "ĠdÄĻ": 5888,
      "szÅĤy": 5889,
      "szczÄħ": 5890,
      "szona": 5891,
      "szczÄħc": 5892,
      "Ġmowy": 5893,
      "ĠmnÃ³": 5894,
      "rad": 5895,
      "ĠkÄħc": 5896,
      "ĠkÅĤÄĻ": 5897,
      "ĠkrwiÄħ": 5898,
      "Ġorze": 5899,
      "Ġory": 5900,
      "Ġono": 5901,
      "ĠoÅĽle": 5902,
      "ĠoÅĤÃ³w": 5903,
      "ĠopuÅĽciÅĤ": 5904,
      "Ġoskar": 5905,
      "dzwo": 5906,
      "dzaÅĤa": 5907,
      "dzwycza": 5908,
      "niÅĤo": 5909,
      "niÄħc": 5910,
      "niaÅĤo": 5911,
      "Ġjad": 5912,
      "Ġpoj": 5913,
      "ĠpoÅ¼y": 5914,
      "Ġpostrze": 5915,
      "ĠpopeÅĤ": 5916,
      "ĠpomyÅĽle": 5917,
      "Ġpoleg": 5918,
      "ĠpoÅĤoÅ¼yÅĤ": 5919,
      "Ġpostrzega": 5920,
      "Ġnapo": 5921,
      "Ġnaszej": 5922,
      "Ġnapisa": 5923,
      "Ġnadzwycza": 5924,
      "Ġblo": 5925,
      "ĠbrÄħz": 5926,
      "liny": 5927,
      "lina": 5928,
      "liby": 5929,
      "Ġniemie": 5930,
      "ĠnierÃ³w": 5931,
      "Ġniepra": 5932,
      "Ġnieroz": 5933,
      "lenia": 5934,
      "nastu": 5935,
      "neu": 5936,
      "Ġzago": 5937,
      "ĠzasiÄĻ": 5938,
      "ĠzasÅĤa": 5939,
      "Ġzaszczy": 5940,
      "Ġzagro": 5941,
      "ÅĤaca": 5942,
      "Å¼eniem": 5943,
      "Ġdoz": 5944,
      "Ġdotk": 5945,
      "ĠjeÅĽÄĩ": 5946,
      "ĠjeÅº": 5947,
      "Ġjegry": 5948,
      "Ġgnia": 5949,
      "ĠgrzÄĻ": 5950,
      "ĠgÃ³r": 5951,
      "Ġgwar": 5952,
      "ĠPie": 5953,
      "miÅĤ": 5954,
      "czysz": 5955,
      "Ġuko": 5956,
      "dziÅĤy": 5957,
      "Äħcej": 5958,
      "Ġwyst": 5959,
      "ĠwyÅĤo": 5960,
      "Ġwymie": 5961,
      "Ġwysy": 5962,
      "Ġwyczu": 5963,
      "Ġwyniku": 5964,
      "ĠwyciÄħga": 5965,
      "Ġwyelimin": 5966,
      "lany": 5967,
      "lajÄħc": 5968,
      "nom": 5969,
      "noszÄħ": 5970,
      "Ġprzep": 5971,
      "ĠprzestÄĻp": 5972,
      "Ġprzemian": 5973,
      "ĠprzesÅĤucha": 5974,
      "ĠcaÅĤo": 5975,
      "ĠÅ¼egna": 5976,
      "Ġton": 5977,
      "owani": 5978,
      "owanym": 5979,
      "ĠkoÅĽcie": 5980,
      "ĠbyÅĽ": 5981,
      "Ġszli": 5982,
      "Ġszam": 5983,
      "Ġszer": 5984,
      "Ġszczwa": 5985,
      "niazie": 5986,
      "ĠSa": 5987,
      "ĠSe": 5988,
      "regu": 5989,
      "Ġodbi": 5990,
      "Ġodde": 5991,
      "Ġodleg": 5992,
      "Ġodnosi": 5993,
      "ĠodgÅĤo": 5994,
      "ĠodkÄħd": 5995,
      "wienia": 5996,
      "ĠZg": 5997,
      "ĠZak": 5998,
      "ens": 5999,
      "encji": 6000,
      "Ġroli": 6001,
      "Ġrokiem": 6002,
      "Ġrogu": 6003,
      "Ġtylu": 6004,
      "ĠOna": 6005,
      "ĠOtwo": 6006,
      "Ġprzys": 6007,
      "Ġprzyda": 6008,
      "Ġprzysta": 6009,
      "Ġprzytu": 6010,
      "Ġprzymu": 6011,
      "ĠMamy": 6012,
      "asadnie": 6013,
      "biej": 6014,
      "Ġmocy": 6015,
      "Ġmoskiew": 6016,
      "ĠAda": 6017,
      "ĠAÅ¼eby": 6018,
      "owiedziaÅĤ": 6019,
      "teÅ¼": 6020,
      "lus": 6021,
      "ĠKniazie": 6022,
      "miem": 6023,
      "mieniÅĤ": 6024,
      "ĠIÅ¼": 6025,
      "ĠpaÅĦstwo": 6026,
      "ĠpatrzeÄĩ": 6027,
      "Ġwiemy": 6028,
      "ĠCy": 6029,
      "ĠmiÅĤo": 6030,
      "Ġmistrz": 6031,
      "szep": 6032,
      "ĠpodwÃ³r": 6033,
      "ĠgoÅĤÄĻ": 6034,
      "ĠPopra": 6035,
      "ĠktÃ³remu": 6036,
      "mans": 6037,
      "Ġcom": 6038,
      "Ġrozej": 6039,
      "Ġrozpra": 6040,
      "pisu": 6041,
      "ton": 6042,
      "torem": 6043,
      "Ġwiwat": 6044,
      "ĠResz": 6045,
      "bacz": 6046,
      "Ġjedwa": 6047,
      "gany": 6048,
      "gajÄħc": 6049,
      "Ġobsz": 6050,
      "lom": 6051,
      "lona": 6052,
      "lonym": 6053,
      "pali": 6054,
      "pany": 6055,
      "Â«.": 6056,
      "Ġmacie": 6057,
      "Ġspy": 6058,
      "ĠspaÅĤ": 6059,
      "Ġdaj": 6060,
      "Ġdaje": 6061,
      "Ġfu": 6062,
      "Ġfur": 6063,
      "Ġstawy": 6064,
      "Ġprol": 6065,
      "Ġlegi": 6066,
      "Ġmiecz": 6067,
      "Ġramienia": 6068,
      "Ġramieniem": 6069,
      "Ġspoczy": 6070,
      "Ġspostrze": 6071,
      "Ġspozie": 6072,
      "ĠspoglÄħda": 6073,
      "ĠspotkaÅĤ": 6074,
      "Ġcias": 6075,
      "ĠciaÅĤem": 6076,
      "wiat": 6077,
      "Ġindziej": 6078,
      "ĠÅ¼o": 6079,
      "ĠÅ¼Äħd": 6080,
      "ĠÅ¼ony": 6081,
      "Ġskru": 6082,
      "czach": 6083,
      "Ġmym": 6084,
      "Ġboru": 6085,
      "Ġbokiem": 6086,
      "szczenia": 6087,
      "Ġznam": 6088,
      "ĠznaÄĩ": 6089,
      "orÃ³w": 6090,
      "ang": 6091,
      "Ġhan": 6092,
      "Ġhierarchi": 6093,
      "Ġkury": 6094,
      "ĠZaÅĽ": 6095,
      "ĠZaczÄĻ": 6096,
      "Ġognia": 6097,
      "Ġsoli": 6098,
      "ĠpieÅĽ": 6099,
      "Ġprzedstawi": 6100,
      "Ġwzdy": 6101,
      "rÄħcz": 6102,
      "ĠpiÄĩ": 6103,
      "ĠliÅĽcie": 6104,
      "mensa": 6105,
      "sora": 6106,
      "ĠUcie": 6107,
      "ĠUda": 6108,
      "ĠUsta": 6109,
      "ĠstoÅĤa": 6110,
      "ĠstojÄħc": 6111,
      "Ġstopy": 6112,
      "ĠChce": 6113,
      "ĠJakie": 6114,
      "dzonych": 6115,
      "Ġnajdro": 6116,
      "Ġtwarzach": 6117,
      "ĠpowtarzaÅĤ": 6118,
      "ĠWolne": 6119,
      "ĠPrzeszÅĤo": 6120,
      "ĠtudzieÅ¼": 6121,
      "dnim": 6122,
      "ĠÅĤac": 6123,
      "ĠÅĤaski": 6124,
      "ĠByli": 6125,
      "ĠByÅĤem": 6126,
      "Ġtamtego": 6127,
      "dziane": 6128,
      "ĠÅĤe": 6129,
      "Ġnosi": 6130,
      "Ġnogami": 6131,
      "ĠWiem": 6132,
      "Ġsilne": 6133,
      "Ġsilny": 6134,
      "fini": 6135,
      "Ġkrzyczy": 6136,
      "ĠTaki": 6137,
      "Ġswobo": 6138,
      "onymi": 6139,
      "ĠpiÄĻciu": 6140,
      "Ġpotraw": 6141,
      "ĠsÅĤugi": 6142,
      "ĠokrÄħ": 6143,
      "Ġoknem": 6144,
      "Ġele": 6145,
      "Ġewidentnie": 6146,
      "Ġstrate": 6147,
      "ĠstraciÅĤ": 6148,
      "onem": 6149,
      "Ġchwila": 6150,
      "niÄĻta": 6151,
      "ĠWil": 6152,
      "ĠWiadomo": 6153,
      "ĠbiegÅĤ": 6154,
      "Ġbiegu": 6155,
      "rzÄħt": 6156,
      "Ġprawej": 6157,
      "Ġdum": 6158,
      "ĠduÅ¼e": 6159,
      "ĠÅĽwieÅ¼y": 6160,
      "ĠczujÄħc": 6161,
      "ĠRozu": 6162,
      "ĠÅĽmiejÄħc": 6163,
      "ĠÅĽwiade": 6164,
      "ĠJuliÄħ": 6165,
      "ĠoparÅĤ": 6166,
      "ĠrÃ³wnoÅĽci": 6167,
      "Ġskom": 6168,
      "ĠKapi": 6169,
      "ĠKazaÅĤ": 6170,
      "ĠzaklÄĻ": 6171,
      "Ġniezli": 6172,
      "Ġniezmien": 6173,
      "Ġrewolu": 6174,
      "ĠSoplicy": 6175,
      "ĠSoplicÄĻ": 6176,
      "ĠrÃ³Å¼ni": 6177,
      "ĠmÃ³wiÅĤa": 6178,
      "ĠzÅĤota": 6179,
      "tarÅĤ": 6180,
      "Ġszabli": 6181,
      "ĠJedno": 6182,
      "Ġtrawie": 6183,
      "ĠsamotnoÅĽci": 6184,
      "ĠmyÅĽlÄħ": 6185,
      "Ġstrzelec": 6186,
      "Ġpokolenie": 6187,
      "ĠPatrzy": 6188,
      "Ġgrani": 6189,
      "ĠgranicÄĻ": 6190,
      "ĠsprawiaÅĤ": 6191,
      "ĠwczeÅĽnie": 6192,
      "pomniaÅĤ": 6193,
      "ĠczarnÄħ": 6194,
      "Ġloja": 6195,
      "ĠsÅĤyszy": 6196,
      "ĠsÅĤyszÄħc": 6197,
      "ĠzgodziÅĤ": 6198,
      "tycznÄħ": 6199,
      "tycznym": 6200,
      "tycznego": 6201,
      "Ġzgra": 6202,
      "glÄħdaÅĤa": 6203,
      "ĠwyrazÃ³w": 6204,
      "Ġogromnych": 6205,
      "Ġogromnym": 6206,
      "ĠciemnoÅĽci": 6207,
      "chodziÅĤa": 6208,
      "ĠgawÄĻ": 6209,
      "Ġzuch": 6210,
      "rÃ³bowaÅĤ": 6211,
      "ĠpeÅĤne": 6212,
      "ĠpeÅĤno": 6213,
      "ĠnastÄĻpne": 6214,
      "ĠRejenta": 6215,
      "ĠRejentem": 6216,
      "Ġsens": 6217,
      "Ġsensu": 6218,
      "ndar": 6219,
      "ĠpiÄĻÄĩdziesiÄħt": 6220,
      "ĠrozmÃ³w": 6221,
      "ĠDziwne": 6222,
      "Ġblady": 6223,
      "Ġblasza": 6224,
      "Ġblask": 6225,
      "Ġulice": 6226,
      "pera": 6227,
      "Ġnazwy": 6228,
      "ĠuÅ¼yÄĩ": 6229,
      "Ġpolowania": 6230,
      "Ġprzyjaciel": 6231,
      "ĠKusego": 6232,
      "ĠMoskal": 6233,
      "ĠzwierzÄħt": 6234,
      "ĠPolski": 6235,
      "ĠLudzie": 6236,
      "ĠwrÃ³ciÄĩ": 6237,
      "Ġumiera": 6238,
      "ĠNajwy": 6239,
      "ĠzwykÅĤy": 6240,
      "braÅĤa": 6241,
      "ĠwpadÅĤa": 6242,
      "Ġzmar": 6243,
      "ĠkrÄĻciÅĤ": 6244,
      "Ġojca": 6245,
      "ĠkrzyknÄĻÅĤa": 6246,
      "Ġpleba": 6247,
      "Ġuciec": 6248,
      "ĠMinisterstwie": 6249,
      "ĠDobrzyÅĦskich": 6250,
      "cyjny": 6251,
      "cyjne": 6252,
      "mawiaÄĩ": 6253,
      "ĠsÅĤoÅĦcu": 6254,
      "ĠsÅĤoÅĦcem": 6255,
      "ĠdÅºwi": 6256,
      "Ġwspa": 6257,
      "Ġwscho": 6258,
      "ĠprowadziÅĤa": 6259,
      "Ġkontroli": 6260,
      "ĠwaÅ¼ne": 6261,
      "dÅºwiedÅº": 6262,
      "Ġpytanie": 6263,
      "Ġzwyczajem": 6264,
      "Ġosobi": 6265,
      "ĠjÄĻzyka": 6266,
      "ĠÃ³wdzie": 6267,
      "ĠwstrÄĻ": 6268,
      "Ġczasz": 6269,
      "ĠbiaÅĤych": 6270,
      "ĠistniaÅĤy": 6271,
      "ĠDenas": 6272,
      "Ġliczba": 6273,
      "Ġszlachcica": 6274,
      "ĠmÄĻÅ¼czyznÄħ": 6275,
      "ĠMusisz": 6276,
      "Ġznisz": 6277,
      "Ġmasy": 6278,
      "Ġkonieczne": 6279,
      "ĠkÅĤÃ³tni": 6280,
      "Ġzielonej": 6281,
      "Ġzbrodni": 6282,
      "ĠAzji": 6283,
      "ĠzaczynaÅĤ": 6284,
      "ĠSpojrzaÅĤ": 6285,
      "Ġwojsku": 6286,
      "Ġprawdziwe": 6287,
      "Ġzadanie": 6288,
      "ĠwyobraÅº": 6289,
      "Ġlepsze": 6290,
      "ĠstraÅ¼nicy": 6291,
      "ĠstraÅ¼nikÃ³w": 6292,
      "ĠSkoÅĤu": 6293,
      "Ġprzyjdzie": 6294,
      "ĠnajwyÅ¼ej": 6295,
      "ĠÅĽwiadomie": 6296,
      "ĠrzÄħdzÄħc": 6297,
      "ĠfaÅĤszer": 6298,
      "Ġdwudziestego": 6299,
      "ĠdÅĤoÅĦmi": 6300,
      "Ġabsur": 6301,
      "ĠÅĤÄħki": 6302,
      "ĠlÅĽni": 6303,
      "Ġbernardyn": 6304,
      "inÄĻÅĤo": 6305,
      "Ġwierzchu": 6306,
      "ĠtrzymajÄħc": 6307,
      "Ġszereg": 6308,
      "Ġszeregi": 6309,
      "Ġtrwogi": 6310,
      "ĠzastanawiaÅĤ": 6311,
      "Ġchleb": 6312,
      "ĠgÅĤoÅĽny": 6313,
      "Ġotwarcie": 6314,
      "Ġmartwi": 6315,
      "Ġogrodzie": 6316,
      "seksual": 6317,
      "ĠprzypomnieÄĩ": 6318,
      "ĠDepartamencie": 6319,
      "JeÅĽli": 6320,
      "ĠCharrington": 6321,
      "ĠdziewiÄĻÄĩ": 6322,
      "Ġptaki": 6323,
      "ĠOstatni": 6324,
      "Ġchwyta": 6325,
      "ĠLektury": 6326,
      "Ġczerwone": 6327,
      "ĠwiÄĻkszoÅĽci": 6328,
      "dlaczego": 6329,
      "Ġsmak": 6330,
      "Ġniewol": 6331,
      "ĠgromadÄĻ": 6332,
      "Ġprzyczyny": 6333,
      "Ġorganiza": 6334,
      "Ġcharakter": 6335,
      "ĠrozpoznaÄĩ": 6336,
      "Ġaresztowania": 6337,
      "ĠwysiÅĤku": 6338,
      "ĠprzeczytaÅĤ": 6339,
      "ĠprzysÅĤowie": 6340,
      "ĠhasÅĤo": 6341,
      "Ġczekolady": 6342,
      "Ġinteligent": 6343,
      "ĠLondynu": 6344,
      "Ġobiad": 6345,
      "ĠÅĽmiaÅĤo": 6346,
      "Ġrozmawiali": 6347,
      "ĠobowiÄħz": 6348,
      "ĠwielmoÅ¼ny": 6349,
      "ĠczapkÄĻ": 6350,
      "Wiwat": 6351,
      "Ġschodach": 6352,
      "ĠwieÅĽnia": 6353,
      "ĠDÅĤugo": 6354,
      "ĠSzczÄĻÅĽciem": 6355,
      "ĠzarÄĻczy": 6356,
      "ĠsprzÄĻt": 6357,
      "Ġszturm": 6358,
      "Ġodgad": 6359,
      "ĠNiektÃ³re": 6360,
      "ĠÅĽwietle": 6361,
      "Ġpomimo": 6362,
      "ĠchartÃ³w": 6363,
      "Ġfanta": 6364,
      "Ġkonfli": 6365,
      "ĠSokoÅĤa": 6366,
      "Ġprzestrzeni": 6367,
      "ĠNowomowa": 6368,
      "ĠtoÅ¼sam": 6369,
      "ĠKlemensa": 6370,
      "ĠBernardyn": 6371,
      "Ġdelika": 6372,
      "ĠRzeczy": 6373,
      "ĠwspaniaÅĤy": 6374,
      "Ġdemonstra": 6375,
      "ĠdwÃ³jmyÅĽle": 6376,
      "ĠwstÄĻgi": 6377,
      "ĠwyobraziÄĩ": 6378,
      "ĠkÄħcie": 6379,
      "ĠDenassÃ³w": 6380,
      "*;": 6381,
      ",*": 6382,
      "--": 6383,
      "//": 6384,
      "://": 6385,
      "CZ": 6386,
      "Co": 6387,
      "MÃ³j": 6388,
      "ara": 6389,
      "atr": 6390,
      "bow": 6391,
      "bek": 6392,
      "cent": 6393,
      "dnego": 6394,
      "dowaÅĤa": 6395,
      "elne": 6396,
      "fal": 6397,
      "gnÄĻÅĤa": 6398,
      "iÅĤo": 6399,
      "kÅĤo": 6400,
      "kaÅĤy": 6401,
      "krÄħ": 6402,
      "knÄħÄĩ": 6403,
      "knÄĻÅĤa": 6404,
      "lv": 6405,
      "lak": 6406,
      "laÅĤa": 6407,
      "laÅĤo": 6408,
      "lgi": 6409,
      "maÅĤa": 6410,
      "ncie": 6411,
      "nnÄħ": 6412,
      "nnych": 6413,
      "pki": 6414,
      "raÅĤy": 6415,
      "rowo": 6416,
      "sbu": 6417,
      "ttp": 6418,
      "us": 6419,
      "wce": 6420,
      "ÄĨ": 6421,
      "Ġary": 6422,
      "Ġprywa": 6423,
      "ĠpadÅĤ": 6424,
      "Ġsfa": 6425,
      "ĠsÄĻdzi": 6426,
      "ĠwrÄĻ": 6427,
      "Ġwtem": 6428,
      "ĠwrÃ³Å¼": 6429,
      "Ġwsk": 6430,
      "ĠwstaÅĤ": 6431,
      "ĠwÃ³wczas": 6432,
      "Ġnor": 6433,
      "ĠnowÄħ": 6434,
      "ĠnÃ³Å¼": 6435,
      "Ġzle": 6436,
      "Ġzdy": 6437,
      "Ġzowie": 6438,
      "Ġzrywa": 6439,
      "Ġzwierci": 6440,
      "Å¼an": 6441,
      "Å¼ona": 6442,
      "Å¼on": 6443,
      "chÃ³d": 6444,
      "Ġtwar": 6445,
      "Ġtkwi": 6446,
      "Ã³ry": 6447,
      "Ã³Åº": 6448,
      "stowaÅĤ": 6449,
      "szam": 6450,
      "szku": 6451,
      "Ġmni": 6452,
      "Ġmary": 6453,
      "ranie": 6454,
      "ĠoÅĤ": 6455,
      "ĠoÅ¼e": 6456,
      "Ġodzie": 6457,
      "Ġoce": 6458,
      "ĠoÅ¼y": 6459,
      "Ġosza": 6460,
      "Ġoszcze": 6461,
      "Ġohy": 6462,
      "dzaÅĤy": 6463,
      "niaÅĤy": 6464,
      "nione": 6465,
      "nieniem": 6466,
      "Ġponi": 6467,
      "Ġporze": 6468,
      "Ġpobie": 6469,
      "Ġpopi": 6470,
      "Ġposa": 6471,
      "ĠposÅĤ": 6472,
      "ĠpoÅĤowie": 6473,
      "Ġpobli": 6474,
      "ĠpoÅĤÄħ": 6475,
      "Ġpopraw": 6476,
      "ĠpoglÄħd": 6477,
      "ĠpoglÄħdaÅĤ": 6478,
      "Ġporozu": 6479,
      "Ġnast": 6480,
      "Ġnawie": 6481,
      "Ġnasi": 6482,
      "Ġnarzu": 6483,
      "ĠnastÄħpi": 6484,
      "rosÅĤa": 6485,
      "Ġbrz": 6486,
      "lia": 6487,
      "lili": 6488,
      "liwa": 6489,
      "likwi": 6490,
      "godzi": 6491,
      "gody": 6492,
      "ciÃ³ÅĤ": 6493,
      "Ġnied": 6494,
      "Ġniep": 6495,
      "Ġniesko": 6496,
      "Ġniedaw": 6497,
      "Ġnieregu": 6498,
      "leniem": 6499,
      "najÄħc": 6500,
      "arte": 6501,
      "ÅĤomie": 6502,
      "rzyli": 6503,
      "Ġzain": 6504,
      "ĠzaÅ¼y": 6505,
      "ĠzastÄĻp": 6506,
      "Ġzastrze": 6507,
      "Ġzawar": 6508,
      "Ġzamyka": 6509,
      "ĠzaczÄħÄĩ": 6510,
      "Ġzazdro": 6511,
      "ĠWtenczas": 6512,
      "ĠWrÃ³ciÅĤ": 6513,
      "ĠdodaÅĤa": 6514,
      "ĠjegrÃ³w": 6515,
      "Ġgwi": 6516,
      "ĠgrÄĻ": 6517,
      "kanie": 6518,
      "kaÅ¼e": 6519,
      "ĠPiÄĻ": 6520,
      "ĠPiÄĻk": 6521,
      "mistrzy": 6522,
      "Ġunie": 6523,
      "Ġuwo": 6524,
      "ĠustÄĻp": 6525,
      "Ġunika": 6526,
      "ĠurzÄħd": 6527,
      "ĠukÅĤad": 6528,
      "ĠustÄħpi": 6529,
      "Ġuszach": 6530,
      "koÅĽÄĩ": 6531,
      "kozi": 6532,
      "dziaÅĤo": 6533,
      "dziwiÅĤ": 6534,
      "Äħcym": 6535,
      "Ġwyle": 6536,
      "Ġwywie": 6537,
      "Ġwytrzy": 6538,
      "Ġwypro": 6539,
      "ĠwydaÅĤ": 6540,
      "Ġwyprost": 6541,
      "Ġwyszep": 6542,
      "ciego": 6543,
      "lacja": 6544,
      "tana": 6545,
      "tacja": 6546,
      "Ġprzes": 6547,
      "Ġprzeczu": 6548,
      "Ġprzepra": 6549,
      "Ġcen": 6550,
      "Ġcym": 6551,
      "ĠNar": 6552,
      "dziem": 6553,
      "czeli": 6554,
      "ĠtoczÄħ": 6555,
      "ĠtoteÅ¼": 6556,
      "Ġkoro": 6557,
      "Ġkorzy": 6558,
      "Ġkoja": 6559,
      "Ġkoszu": 6560,
      "ĠstÄħ": 6561,
      "Ġstrwo": 6562,
      "Ġbywa": 6563,
      "ĠTwo": 6564,
      "ĠTru": 6565,
      "ĠTego": 6566,
      "wody": 6567,
      "womyÅĽl": 6568,
      "tyseksual": 6569,
      "Ġszpi": 6570,
      "Ġszal": 6571,
      "Ġsztyw": 6572,
      "ĠSi": 6573,
      "ĠSak": 6574,
      "ĠStry": 6575,
      "ama": 6576,
      "recz": 6577,
      "Ġodwie": 6578,
      "ĠodszedÅĤ": 6579,
      "ĠZnik": 6580,
      "kier": 6581,
      "ÅĦstwie": 6582,
      "Ġrodu": 6583,
      "ĠrobiÅĤ": 6584,
      "ĠtydzieÅĦ": 6585,
      "ejdzie": 6586,
      "ejza": 6587,
      "Ġprzyby": 6588,
      "Ġprzytrzy": 6589,
      "Ġprzykry": 6590,
      "Ġnios": 6591,
      "ĠMniej": 6592,
      "ĠMart": 6593,
      "stoÅĽÄĩ": 6594,
      "Ġmon": 6595,
      "Ġmoich": 6596,
      "ĠAr": 6597,
      "inaÅĤ": 6598,
      "ceni": 6599,
      "jeÅĽÄĩ": 6600,
      "ĠKrÃ³": 6601,
      "ĠKrÄĻ": 6602,
      "ĠKrÃ³t": 6603,
      "ĠKÄĻdy": 6604,
      "biÄħ": 6605,
      "Ġpanem": 6606,
      "Ġwiek": 6607,
      "Ġwiecie": 6608,
      "ĠwieÅĽÄĩ": 6609,
      "Ġwiejs": 6610,
      "ĠwiekÃ³w": 6611,
      "ĠCaÅĤy": 6612,
      "ĠBona": 6613,
      "ĠBÃ³l": 6614,
      "Ġmini": 6615,
      "szenia": 6616,
      "ĠpodÅĤu": 6617,
      "Ġpodniesi": 6618,
      "Ġpodoba": 6619,
      "wyta": 6620,
      "myÅĽlo": 6621,
      "Ġgorz": 6622,
      "ĠDaremnie": 6623,
      "ĠPoko": 6624,
      "ĠPozo": 6625,
      "ĠPopatrz": 6626,
      "Ġcofa": 6627,
      "ĠNiedÅºwiedÅº": 6628,
      "Ġrozry": 6629,
      "ĠrozlegÅĤ": 6630,
      "ĠrozmyÅĽla": 6631,
      "jaÄĩ": 6632,
      "jany": 6633,
      "jazd": 6634,
      "turÄĻ": 6635,
      "torÃ³w": 6636,
      "ĠWinstonem": 6637,
      "Åºdzie": 6638,
      "Ġwich": 6639,
      "Ġwita": 6640,
      "Ġwino": 6641,
      "ĠwidzÄĻ": 6642,
      "pieniu": 6643,
      "Ġczysty": 6644,
      "Ġczyste": 6645,
      "Ġjedli": 6646,
      "ĠwolÄĻ": 6647,
      "ĠNatychmiast": 6648,
      "Ġobra": 6649,
      "ĠobÅĤÄħka": 6650,
      "lonÄħ": 6651,
      "Ġkapli": 6652,
      "pana": 6653,
      "ĠmajÄħc": 6654,
      "Ġdziew": 6655,
      "mujÄħc": 6656,
      "mujÄħ": 6657,
      "mor": 6658,
      "moÅĽÄĩ": 6659,
      "ĠspÃ³j": 6660,
      "Ġfe": 6661,
      "ĠGÅĤo": 6662,
      "ĠstajÄħ": 6663,
      "ĠstawaÅĤ": 6664,
      "Ġstandar": 6665,
      "ĠproÅĽ": 6666,
      "Ġprote": 6667,
      "Ġprosta": 6668,
      "Ġproblem": 6669,
      "Ġlektu": 6670,
      "Ġrap": 6671,
      "Ġracji": 6672,
      "Ġsporu": 6673,
      "Ġciszy": 6674,
      "bor": 6675,
      "chali": 6676,
      "ĠLa": 6677,
      "ĠÅ¼al": 6678,
      "szano": 6679,
      "Ġsamych": 6680,
      "ĠmÃ³zg": 6681,
      "jÄĻÅĤa": 6682,
      "Ġpowierzch": 6683,
      "Ġlasem": 6684,
      "ĠsiedzÄħ": 6685,
      "ĠdziaÅĤ": 6686,
      "ĠZasta": 6687,
      "uszki": 6688,
      "ĠogÅĤa": 6689,
      "ĠHe": 6690,
      "gÅĤÄĻ": 6691,
      "styczny": 6692,
      "Ġwzru": 6693,
      "Ġwzniesi": 6694,
      "ĠwznoszÄħc": 6695,
      "Ġpia": 6696,
      "Ġpiwa": 6697,
      "Ġpirami": 6698,
      "Ġlice": 6699,
      "ĠliÅĽÄĩ": 6700,
      "ĠwÅĤaÅĽci": 6701,
      "ĠUsÅĤy": 6702,
      "czonÄħ": 6703,
      "czonego": 6704,
      "ĠsÅĤowni": 6705,
      "ĠsÅĤowem": 6706,
      "Ġpozna": 6707,
      "ĠWystar": 6708,
      "skach": 6709,
      "skajÄħc": 6710,
      "Ġrupie": 6711,
      "Ġrusza": 6712,
      "ĠrumieÅĦ": 6713,
      "trzÄħ": 6714,
      "gieÅĤ": 6715,
      "Ġpowraca": 6716,
      "Ġpowtarza": 6717,
      "ĠPrzeciw": 6718,
      "Ġtamtych": 6719,
      "Ġtamtej": 6720,
      "dziach": 6721,
      "ĠÅĤowi": 6722,
      "ĠÅĤÄħce": 6723,
      "ĠÅĤowach": 6724,
      "Ġwedle": 6725,
      "siÄħÅĽÄĩ": 6726,
      "Ġnodze": 6727,
      "ĠnogÄħ": 6728,
      "ĠnosiÅĤ": 6729,
      "Ġpiersia": 6730,
      "Ġpierwej": 6731,
      "Ġsia": 6732,
      "ĠDoko": 6733,
      "ĠkrzyÅ¼": 6734,
      "ĠTakÅ¼e": 6735,
      "Ġswoi": 6736,
      "Ġstronach": 6737,
      "bud": 6738,
      "buje": 6739,
      "ĠsÅĤuÅ¼Äħ": 6740,
      "Ġzdr": 6741,
      "ĠzdaÅĤo": 6742,
      "ĠbÄĻdziecie": 6743,
      "eczki": 6744,
      "Ġeli": 6745,
      "Ġbur": 6746,
      "Ġbuci": 6747,
      "ĠkoÅĦczy": 6748,
      "ĠkoÅĦcÃ³w": 6749,
      "ĠdÅĤuga": 6750,
      "ĠBoÅ¼e": 6751,
      "Ġpewna": 6752,
      "Ġpewno": 6753,
      "ĠjakoÅĽ": 6754,
      "ĠÅĽwiatu": 6755,
      "Ġdawnego": 6756,
      "cjach": 6757,
      "Ġzdaje": 6758,
      "ĠzdawaÅĤy": 6759,
      "Ġbieg": 6760,
      "ĠCzar": 6761,
      "ĠmÃ³gÅĤbym": 6762,
      "Ġcesar": 6763,
      "Ġdumania": 6764,
      "Ġryce": 6765,
      "ĠMogli": 6766,
      "ĠczuÄĩ": 6767,
      "ĠzapamiÄĻ": 6768,
      "ĠdwakroÄĩ": 6769,
      "ĠÅĽmiechu": 6770,
      "ĠSzczu": 6771,
      "Ġopusz": 6772,
      "ĠrÃ³wne": 6773,
      "ĠrÃ³wnoÅĽÄĩ": 6774,
      "Ġskon": 6775,
      "ĠKtÃ³rÄħ": 6776,
      "Ġzrobili": 6777,
      "Ġrej": 6778,
      "ĠbawiÅĤ": 6779,
      "ĠZosta": 6780,
      "ĠTygod": 6781,
      "ĠkropiÄĩ": 6782,
      "ĠmÃ³wili": 6783,
      "leekran": 6784,
      "nowiÅĤ": 6785,
      "taria": 6786,
      "Ġszara": 6787,
      "ĠustaliÄĩ": 6788,
      "ciÄħÅĤ": 6789,
      "ĠwÅĤoÅĽcian": 6790,
      "Ġtraf": 6791,
      "Ġtrakt": 6792,
      "ĠciÄħgnie": 6793,
      "Ġdefini": 6794,
      "prawdzie": 6795,
      "Ġgruby": 6796,
      "Ġtrium": 6797,
      "Ġmechani": 6798,
      "Ġgrozi": 6799,
      "Ġsprawi": 6800,
      "Ġsprawa": 6801,
      "ĠÅļpie": 6802,
      "ĠÅļrÃ³d": 6803,
      "ĠÅļwiat": 6804,
      "ĠRozmawia": 6805,
      "ĠTelimenÄħ": 6806,
      "Ġlos": 6807,
      "Ġzgoda": 6808,
      "Ġdwoje": 6809,
      "ĠsprawÄħ": 6810,
      "ĠEkono": 6811,
      "Ġostatecznie": 6812,
      "Ġdysku": 6813,
      "Ġdyscypli": 6814,
      "Ġwyrazem": 6815,
      "ĠwyraziÄĩ": 6816,
      "ĠFak": 6817,
      "Ġciemne": 6818,
      "ĠwÄħsa": 6819,
      "ĠtÅĤumie": 6820,
      "Ġsachary": 6821,
      "ĠstanowiÅĤa": 6822,
      "Ġfigu": 6823,
      "ĠszczÄĻÅĽcia": 6824,
      "Ġteleekranem": 6825,
      "ĠzachowaÄĩ": 6826,
      "Ġjasno": 6827,
      "Ġjasnych": 6828,
      "Ġjaskra": 6829,
      "ĠRejtan": 6830,
      "ĠdziewczynÄħ": 6831,
      "Ġklam": 6832,
      "ĠMyÅĽlo": 6833,
      "Ġramiony": 6834,
      "Ġramion": 6835,
      "ĠGoÅĽcie": 6836,
      "ĠsÅĤawy": 6837,
      "ĠsÅĤabo": 6838,
      "ĠwiÄĻkszÄħ": 6839,
      "Ġkolejnych": 6840,
      "ĠRykowa": 6841,
      "kowano": 6842,
      "Ġwszech": 6843,
      "ĠDobrzynie": 6844,
      "ĠdomÃ³w": 6845,
      "Ġminuty": 6846,
      "ĠpokrÄĻ": 6847,
      "ĠstrumieÅĦ": 6848,
      "ĠKul": 6849,
      "ĠKusy": 6850,
      "Ġdrugich": 6851,
      "Ġzdrady": 6852,
      "Ġludzkiej": 6853,
      "Ġpasa": 6854,
      "ĠgÄĻsi": 6855,
      "ĠpowiadaÅĤ": 6856,
      "Ġkochany": 6857,
      "Ġcylind": 6858,
      "Ġstarych": 6859,
      "Ġzwany": 6860,
      "Ġtowarzysze": 6861,
      "ĠStarzec": 6862,
      "ĠMuzy": 6863,
      "ĠrzeczywiÅĽcie": 6864,
      "ĠwyksztaÅĤ": 6865,
      "Ġobrazu": 6866,
      "Ġgrzecznie": 6867,
      "eszÅĤa": 6868,
      "ĠPrawdzi": 6869,
      "Ġzobaczy": 6870,
      "ĠzwracaÅĤ": 6871,
      "ĠoznaczaÅĤo": 6872,
      "Ġkolan": 6873,
      "ĠAsesora": 6874,
      "ĠszczegÃ³ÅĤ": 6875,
      "Ġprowadzi": 6876,
      "Ġniepoko": 6877,
      "Ġniepotrzeb": 6878,
      "Ġuroczy": 6879,
      "Ġdziwny": 6880,
      "ĠosobÄħ": 6881,
      "ĠdÅĤugimi": 6882,
      "Å¼onym": 6883,
      "ĠporzÄħdek": 6884,
      "Ġzwyczaju": 6885,
      "rzmiaÅĤy": 6886,
      "Ġnadzieja": 6887,
      "Ġtemat": 6888,
      "ĠkÄħtem": 6889,
      "ĠpracowaÄĩ": 6890,
      "wionÄħ": 6891,
      "ĠotworzyÅĤy": 6892,
      "ĠpojÄĻcie": 6893,
      "ĠnienawiÅĽci": 6894,
      "ĠkawaÅĤki": 6895,
      "ĠskoÅĦczyÄĩ": 6896,
      "ĠSoplicowa": 6897,
      "Ġsekundy": 6898,
      "ĠwspÃ³l": 6899,
      "ĠdÅĤoniÄħ": 6900,
      "ĠChciaÅĤem": 6901,
      "ĠczekajÄħ": 6902,
      "ĠkÅĤÃ³t": 6903,
      "Ġczole": 6904,
      "Ġmilitar": 6905,
      "ĠmyÅĽlopolicja": 6906,
      "Ġzbroj": 6907,
      "ĠmaÅĤÅ¼on": 6908,
      "ĠbÃ³lem": 6909,
      "Ġniebezpieczne": 6910,
      "ĠgÅĤÃ³wnie": 6911,
      "Ġpomocy": 6912,
      "ĠjakÄħÅĽ": 6913,
      "Ġtortur": 6914,
      "ĠMarcina": 6915,
      "Ġsklepem": 6916,
      "Ġkuchen": 6917,
      "Ġstopnia": 6918,
      "ĠpotÄĻÅ¼ny": 6919,
      "ĠzmieniÅĤa": 6920,
      "Ġpartyjnej": 6921,
      "ĠWschodniej": 6922,
      "ĠpaÅĦskie": 6923,
      "ĠpierwszÄħ": 6924,
      "Ġsiost": 6925,
      "Ġsiostra": 6926,
      "krÄĻciÅĤ": 6927,
      "ĠprzypominaÅĤ": 6928,
      "ĠprzypominaÅĤa": 6929,
      "lektury": 6930,
      "ĠScyzorykiem": 6931,
      "ĠfaÅĤszy": 6932,
      "Ġskarb": 6933,
      "Ġtabak": 6934,
      "Ġwiatrem": 6935,
      "ĠwÄĻz": 6936,
      "Ġgula": 6937,
      "Ġkolorze": 6938,
      "ĠpojawiÅĤa": 6939,
      "ĠpojawiÅĤy": 6940,
      "Ġzmianie": 6941,
      "Ġzmiany": 6942,
      "Ġuzasadnie": 6943,
      "Ġwypadku": 6944,
      "ĠmogÅĤoby": 6945,
      "ĠtrwogÄħ": 6946,
      "Ġpolitycznych": 6947,
      "Ġzastana": 6948,
      "ĠmyÅĽlenia": 6949,
      "ĠmÅĤodzieÅ¼y": 6950,
      "ĠurzÄĻdu": 6951,
      "ĠLondyn": 6952,
      "Ġplus": 6953,
      "czerwo": 6954,
      "Ġchmury": 6955,
      "ĠwÄħtpienia": 6956,
      "ĠMyÅĽliÅĤ": 6957,
      "cjon": 6958,
      "Ġochro": 6959,
      "Ġochmistrzy": 6960,
      "Ġniespodzie": 6961,
      "Ġniespodzia": 6962,
      "Ġutrzymy": 6963,
      "Ġrozpaczy": 6964,
      "ĠChrzciciela": 6965,
      "ĠkÅĤopo": 6966,
      "Ġnieod": 6967,
      "Ġkorytarzu": 6968,
      "Ġkorytarzem": 6969,
      "ĠÅĽlad": 6970,
      "Ġskroni": 6971,
      "Ġpowinni": 6972,
      "ĠLitwy": 6973,
      "Ġpotrzebne": 6974,
      "wÅĤaszcza": 6975,
      "Ġwpatru": 6976,
      "Ġwstydu": 6977,
      "ĠostroÅ¼nie": 6978,
      "ĠreguÅĤy": 6979,
      "Ġkwestia": 6980,
      "Ġpozycji": 6981,
      "Ġponadto": 6982,
      "ĠwyraÅºnie": 6983,
      "Ġprzerwy": 6984,
      "ĠzdjÄĻcie": 6985,
      "ĠdÅºwiÄĻki": 6986,
      "ĠwyÅ¼sza": 6987,
      "ĠÅĤatwoÅĽciÄħ": 6988,
      "ĠzwykÅĤe": 6989,
      "Ġlitewskich": 6990,
      "ĠtrawÄĻ": 6991,
      "ĠduszÄĻ": 6992,
      "ĠAntyseksual": 6993,
      "ĠdokumentÃ³w": 6994,
      "dwÃ³jmyÅĽlenie": 6995,
      "ĠdotarÅĤo": 6996,
      "ĠZiemia": 6997,
      "ĠÅ»aden": 6998,
      "Ġcharaktery": 6999,
      "Ġ20": 7000,
      "ĠzjawiÅĤ": 7001,
      "ĠzginÄħÅĤ": 7002,
      "ĠdostrzegÅĤ": 7003,
      "ĠpracujÄħ": 7004,
      "Ġprodukcji": 7005,
      "Ġnajlepiej": 7006,
      "Ġpapierosa": 7007,
      "Ġnowina": 7008,
      "Ġotacza": 7009,
      "ĠzaÅĽcianku": 7010,
      "obraÅ¼a": 7011,
      "brzmie": 7012,
      "Ġpopulacji": 7013,
      "Ġzajazd": 7014,
      "ĠPÃ³ÅĤkozi": 7015,
      "Ġobserw": 7016,
      "Ġfartuchu": 7017,
      "ĠpiÃ³ro": 7018,
      "Ġoczywiste": 7019,
      "Ġfragment": 7020,
      "Ġpoczci": 7021,
      "ĠzawieraÅĤo": 7022,
      "ĠStary": 7023,
      "Ġnikogo": 7024,
      "Ġtechni": 7025,
      "matycznej": 7026,
      "Ġmaszyn": 7027,
      "ĠstoÅĤÃ³wce": 7028,
      "Ġkontaktu": 7029,
      "ĠSzpiegÃ³w": 7030,
      "ĠpozostaÅĤych": 7031,
      "Ġeksplo": 7032,
      "Ġmaterial": 7033,
      "Ġoprac": 7034,
      "ĠbiaÅĤego": 7035,
      "ĠWydawaÅĤo": 7036,
      "Ġgromada": 7037,
      "ĠobojÄĻtnie": 7038,
      "ĠporÃ³wna": 7039,
      "Ġprzyzwycza": 7040,
      "ĠMinut": 7041,
      "Ġobyczaje": 7042,
      "ĠWarszawy": 7043,
      "ĠosiÄħg": 7044,
      "ĠWziÄħÅĤ": 7045,
      "ĠOgilv": 7046,
      "Ġprzymiot": 7047,
      "straszniejsze": 7048,
      "Ġmikrofon": 7049,
      "Ġobcych": 7050,
      "Ġniezmiernie": 7051,
      "Ġcywiliza": 7052,
      "ĠzorientowaÅĤ": 7053,
      "ĠgaÅĤÄħz": 7054,
      "ĠZupeÅĤnie": 7055,
      "ĠteraÅºniejszo": 7056,
      "ĠRÃ³wnie": 7057,
      "Ġprostytu": 7058,
      "Ġkombinezonu": 7059,
      "ĠRÄĻbajÅĤo": 7060,
      "Prawda": 7061,
      "ĠKniaziewicz": 7062,
      "ĠÅĤeb": 7063,
      "ĠwspaniaÅĤ": 7064,
      "ĠtoÅ¼samo": 7065,
      "Ġniedawno": 7066,
      "Ġnieregular": 7067,
      "Ġkaplicy": 7068,
      "ĠOgilvy": 7069,
      "!âĢĿ,": 7070,
      ");": 7071,
      "30": 7072,
      "EM": 7073,
      "ECZ": 7074,
      "Pro": 7075,
      "Prze": 7076,
      "Ra": 7077,
      "RECZ": 7078,
      "aron": 7079,
      "bnie": 7080,
      "cko": 7081,
      "dak": 7082,
      "dnik": 7083,
      "fer": 7084,
      "gla": 7085,
      "hu": 7086,
      "ist": 7087,
      "isto": 7088,
      "kwa": 7089,
      "kowo": 7090,
      "ktem": 7091,
      "kcia": 7092,
      "ksiÄħ": 7093,
      "kowski": 7094,
      "lÄħda": 7095,
      "nni": 7096,
      "nna": 7097,
      "nowie": 7098,
      "ntem": 7099,
      "nkÄħ": 7100,
      "oka": 7101,
      "ory": 7102,
      "onym": 7103,
      "rpu": 7104,
      "sÃ³ÅĤ": 7105,
      "snÄħwszy": 7106,
      "snÄĻÅĤo": 7107,
      "tkÃ³w": 7108,
      "tknÄħÅĤ": 7109,
      "wna": 7110,
      "zin": 7111,
      "znÄĻ": 7112,
      "zdu": 7113,
      "zdem": 7114,
      "Ġowe": 7115,
      "ÅĤka": 7116,
      "Ġpen": 7117,
      "Ġplo": 7118,
      "ĠpadÅĤa": 7119,
      "Ġpneu": 7120,
      "Ġpejza": 7121,
      "Ġscen": 7122,
      "Ġwb": 7123,
      "Ġwrzu": 7124,
      "ĠwÃ³d": 7125,
      "ĠwrÃ³b": 7126,
      "ĠwÃ³z": 7127,
      "Ġzbie": 7128,
      "Ġznu": 7129,
      "Ġznika": 7130,
      "ĠzmysÅĤ": 7131,
      "ĠzÅĤego": 7132,
      "ĠzrÄĻcznie": 7133,
      "rzona": 7134,
      "czniej": 7135,
      "czkami": 7136,
      "Å¼dy": 7137,
      "Å¼owa": 7138,
      "Å¼noÅĽci": 7139,
      "Å¼liwe": 7140,
      "chrz": 7141,
      "chowy": 7142,
      "Ġtrz": 7143,
      "Ġdb": 7144,
      "Ġdnie": 7145,
      "ĠdrÄĻ": 7146,
      "Ġdek": 7147,
      "Ġdamy": 7148,
      "ĠdÅ¼okej": 7149,
      "ÅĽre": 7150,
      "ÅĽniÄĻ": 7151,
      "Ã³dÅĤ": 7152,
      "Ã³wiÅĤ": 7153,
      "Ã³dÅº": 7154,
      "Ã³ze": 7155,
      "owskim": 7156,
      "szÄħd": 7157,
      "szÄħcych": 7158,
      "racji": 7159,
      "Ġkw": 7160,
      "ĠkÃ³ÅĤ": 7161,
      "Ġol": 7162,
      "Ġoli": 7163,
      "Ġosty": 7164,
      "Ġotrzy": 7165,
      "ĠoszczÄĻ": 7166,
      "Ġokazy": 7167,
      "ĠoÅĽwiad": 7168,
      "ĠoÅĽwiet": 7169,
      "Ġpory": 7170,
      "Ġpomy": 7171,
      "Ġpocho": 7172,
      "ĠpocaÅĤ": 7173,
      "Ġnar": 7174,
      "Ġnaje": 7175,
      "Ġnawy": 7176,
      "Ġnapi": 7177,
      "Ġnakry": 7178,
      "ĠnagÅĤy": 7179,
      "ĠidÄħc": 7180,
      "Ġigno": 7181,
      "liwÄħ": 7182,
      "akaÅĤ": 7183,
      "ĠsiÄĻgnÄħÅĤ": 7184,
      "gom": 7185,
      "goda": 7186,
      "ciaÅĤo": 7187,
      "Ġniepro": 7188,
      "Ġnieuch": 7189,
      "ĠnieÅĽwiado": 7190,
      "Ġniekiedy": 7191,
      "ĠnieÅĽmi": 7192,
      "lecia": 7193,
      "naj": 7194,
      "nam": 7195,
      "naÅĽcie": 7196,
      "ner": 7197,
      "argowi": 7198,
      "rzynÄĻ": 7199,
      "Ġzaa": 7200,
      "Ġzami": 7201,
      "Ġzabie": 7202,
      "Ġzadu": 7203,
      "Ġzask": 7204,
      "ĠzabiÅĤ": 7205,
      "Ġzapisa": 7206,
      "ĠzastÄħpi": 7207,
      "ĠzajÄħca": 7208,
      "ĠzaszÅĤa": 7209,
      "Ġzadzwo": 7210,
      "ĠWÅĤo": 7211,
      "ĠWsta": 7212,
      "ĠWspo": 7213,
      "ĠWal": 7214,
      "ĠWciÄħÅ¼": 7215,
      "ĠWIELKI": 7216,
      "ÅĤaszcza": 7217,
      "Å¼eniu": 7218,
      "Ġdoby": 7219,
      "wiwszy": 7220,
      "ĠjeÅĦcÃ³w": 7221,
      "wale": 7222,
      "waga": 7223,
      "Ġgma": 7224,
      "ĠPO": 7225,
      "ĠPsy": 7226,
      "ĠPÃ³j": 7227,
      "ĠPrÃ³Å¼": 7228,
      "ĠPio": 7229,
      "miÅĤo": 7230,
      "miony": 7231,
      "ĠuÅĽ": 7232,
      "Ġucze": 7233,
      "Ġuzy": 7234,
      "Ġupa": 7235,
      "Ġusiad": 7236,
      "Ġuchem": 7237,
      "ĠupÅĤy": 7238,
      "ĠumyÅĽlnie": 7239,
      "Ġuspoko": 7240,
      "dzicie": 7241,
      "Äħcego": 7242,
      "Ġwyb": 7243,
      "Ġwyr": 7244,
      "Ġwyni": 7245,
      "ĠwyÅĤa": 7246,
      "Ġwyczy": 7247,
      "Ġwypo": 7248,
      "Ġwysta": 7249,
      "Ġwyba": 7250,
      "Ġwypu": 7251,
      "ĠwysÅĤa": 7252,
      "Ġwychodzi": 7253,
      "Ġwyszli": 7254,
      "cielu": 7255,
      "latu": 7256,
      "tajem": 7257,
      "tanem": 7258,
      "rym": 7259,
      "rygnÄħÅĤ": 7260,
      "Ġprzecie": 7261,
      "Ġprzebie": 7262,
      "Ġprzebi": 7263,
      "Ġprzecha": 7264,
      "ĠprzechodziÅĤ": 7265,
      "ĠprzekazaÄĩ": 7266,
      "Ġprzeciwie": 7267,
      "ĠÅ¼ela": 7268,
      "ĠNu": 7269,
      "czeniem": 7270,
      "ĠkoÅĤy": 7271,
      "ĠkostkÄħ": 7272,
      "szymi": 7273,
      "ÅĽciÅĤa": 7274,
      "ĠstrzaÅĤy": 7275,
      "ĠTr": 7276,
      "woÅĽciÄħ": 7277,
      "tysty": 7278,
      "tynu": 7279,
      "ĠszÅĤo": 7280,
      "ĠszÅĤy": 7281,
      "Ġszmer": 7282,
      "niajÄħ": 7283,
      "niajÄħce": 7284,
      "ĠStaÅĤa": 7285,
      "rujÄħ": 7286,
      "ruÅ¼yÅĤ": 7287,
      "Ġodczy": 7288,
      "Ġodwo": 7289,
      "ĠodstÄĻp": 7290,
      "Ġodniesie": 7291,
      "kujÄħ": 7292,
      "adwa": 7293,
      "ĠZbiÃ³r": 7294,
      "ĠZwÅĤaszcza": 7295,
      "pon": 7296,
      "ÅĦcy": 7297,
      "ÅĦska": 7298,
      "ĠJas": 7299,
      "ĠJone": 7300,
      "ĠJÃ³ze": 7301,
      "Ġtyto": 7302,
      "ĠOni": 7303,
      "ĠOfi": 7304,
      "ĠOtÃ³Å¼": 7305,
      "siÅĤo": 7306,
      "Ġczemu": 7307,
      "Ġczwar": 7308,
      "ĠprzyÅĤa": 7309,
      "ĠprzyszÅĤa": 7310,
      "Ġprzytom": 7311,
      "ĠprzyglÄħdaÅĤ": 7312,
      "Ġchi": 7313,
      "ĠchwaÅĤy": 7314,
      "ĠniÅ¼ej": 7315,
      "ĠMÃ³j": 7316,
      "aska": 7317,
      "ascy": 7318,
      "bienie": 7319,
      "Ġmoi": 7320,
      "Ġmopanku": 7321,
      "ĠmogÅĤem": 7322,
      "ĠAu": 7323,
      "ĠAaron": 7324,
      "tela": 7325,
      "teres": 7326,
      "tewka": 7327,
      "stan": 7328,
      "ĠÅĽmia": 7329,
      "ĠKÅĤa": 7330,
      "biny": 7331,
      "ĠIdÄħc": 7332,
      "Ġpany": 7333,
      "ĠpaszczÄĻ": 7334,
      "Ġpazno": 7335,
      "Ġwiecznie": 7336,
      "ĠCaÅĤ": 7337,
      "ĠCaÅĤe": 7338,
      "ĠBÅĤy": 7339,
      "ĠmiÅĤy": 7340,
      "szech": 7341,
      "szeliÅĽcie": 7342,
      "ĠpodskoczyÅĤ": 7343,
      "Ġtakt": 7344,
      "mym": 7345,
      "ĠgoÅĽcia": 7346,
      "ÅĽÄĩka": 7347,
      "ĠDarmo": 7348,
      "ĠPochy": 7349,
      "ĠPoÅĤoÅ¼yÅĤ": 7350,
      "many": 7351,
      "Ġcof": 7352,
      "ĠNiemal": 7353,
      "Ġroze": 7354,
      "Ġrozta": 7355,
      "Ġrozpie": 7356,
      "Ġroztrz": 7357,
      "ĠrozciÄħg": 7358,
      "Ġrozstrzy": 7359,
      "ĠrozkazaÅĤ": 7360,
      "jami": 7361,
      "tora": 7362,
      "tory": 7363,
      "Ġwisz": 7364,
      "Ġwiwa": 7365,
      "ĠwidziaÅĤa": 7366,
      "ĠRym": 7367,
      "zycji": 7368,
      "piesznie": 7369,
      "cajÄħc": 7370,
      "Ġczyny": 7371,
      "Ġczysto": 7372,
      "ĠczytaÄĩ": 7373,
      "Ġwodz": 7374,
      "ĠwoÅĦ": 7375,
      "ĠkawÄĻ": 7376,
      "ĠkazaÅĤ": 7377,
      "giÄħ": 7378,
      "Ġmani": 7379,
      "ĠdziewiÄħ": 7380,
      "Ġspowie": 7381,
      "Ġspuszcza": 7382,
      "Ġdaty": 7383,
      "Ġfraz": 7384,
      "ĠGrze": 7385,
      "Ġstan": 7386,
      "Ġstara": 7387,
      "Ġstacji": 7388,
      "Ġprolach": 7389,
      "Ġproste": 7390,
      "Ġpromieni": 7391,
      "ĠpromieÅĦ": 7392,
      "ĠleÅĽ": 7393,
      "Ġlesie": 7394,
      "Ġledwo": 7395,
      "Ġrano": 7396,
      "ĠraczyÅĤ": 7397,
      "Ġcios": 7398,
      "wiajÄħ": 7399,
      "Ġinter": 7400,
      "zano": 7401,
      "san": 7402,
      "Ġskraw": 7403,
      "Ġskrom": 7404,
      "ĠskÅĤoniÅĤ": 7405,
      "ĠJene": 7406,
      "czajÄħc": 7407,
      "ĠrzeÅº": 7408,
      "ĠmÃ³z": 7409,
      "Ġznacznie": 7410,
      "ĠpowieÅĽÄĩ": 7411,
      "anu": 7412,
      "anga": 7413,
      "owaÅĤem": 7414,
      "Ġhar": 7415,
      "Ġhttp": 7416,
      "Ġsiero": 7417,
      "Ġkurz": 7418,
      "ĠkupiÅĤ": 7419,
      "Ġdziki": 7420,
      "Ġdziwo": 7421,
      "ĠZaba": 7422,
      "suwa": 7423,
      "ĠoglÄħda": 7424,
      "Ġsocja": 7425,
      "Ġpies": 7426,
      "Ġpiecho": 7427,
      "ĠpieÅĽni": 7428,
      "Ġwach": 7429,
      "ĠwiÄĻzie": 7430,
      "Ġwzmian": 7431,
      "ĠciepÅĤy": 7432,
      "Ġpis": 7433,
      "Ġpisze": 7434,
      "ĠpijÄħ": 7435,
      "ĠpiÃ³r": 7436,
      "Ġpioru": 7437,
      "Ġlica": 7438,
      "ĠlitoÅĽÄĩ": 7439,
      "czuÅĤ": 7440,
      "ĠbiÅĤo": 7441,
      "Ġbitwie": 7442,
      "ĠUde": 7443,
      "ĠUwaÅ¼": 7444,
      "ĠChwyta": 7445,
      "Ġnadob": 7446,
      "Ġtara": 7447,
      "Ġtabli": 7448,
      "ĠpozbyÄĩ": 7449,
      "Ġruty": 7450,
      "Ġnajo": 7451,
      "ĠÅ¼ebyÅĽ": 7452,
      "kÅĤÄħ": 7453,
      "ĠpowstaÅĤ": 7454,
      "ĠpowiÄĻk": 7455,
      "Ġtutaj": 7456,
      "Ġdrudzy": 7457,
      "dnich": 7458,
      "kÅĤadaÄĩ": 7459,
      "kÅĤadem": 7460,
      "ĠsÄħdy": 7461,
      "ĠÅĤadu": 7462,
      "ĠByÅĤy": 7463,
      "rzaÄĩ": 7464,
      "rzami": 7465,
      "Ġczela": 7466,
      "Ġweszli": 7467,
      "ĠwedÅĤug": 7468,
      "ĠnosiÄĩ": 7469,
      "Ġpierwo": 7470,
      "ĠsiadÅĤ": 7471,
      "padÅĤy": 7472,
      "ĠDomu": 7473,
      "ĠDotar": 7474,
      "Ġkrzyku": 7475,
      "ĠtrzymaÄĩ": 7476,
      "ĠtrzykroÄĩ": 7477,
      "Ġkontra": 7478,
      "ĠTeleekran": 7479,
      "Ġwielkiego": 7480,
      "Ġpusty": 7481,
      "Ġpuste": 7482,
      "Ġpunkt": 7483,
      "ĠsÅĤup": 7484,
      "ĠzdaÅĤ": 7485,
      "ĠokrÄĻ": 7486,
      "ĠoczyÅĽciÄĩ": 7487,
      "pliwie": 7488,
      "Ġechem": 7489,
      "ĠbutÃ³w": 7490,
      "Ġbuntu": 7491,
      "ĠdÅĤuÅ¼": 7492,
      "ĠdÅĤugÄħ": 7493,
      "Ġmiejscach": 7494,
      "spoli": 7495,
      "ĠOdez": 7496,
      "mery": 7497,
      "rowanie": 7498,
      "ĠPrzypomniaÅĤ": 7499,
      "ĠszeÅĽciu": 7500,
      "Ġgdzieniegdzie": 7501,
      "ĠdawaÅĤo": 7502,
      "Ġbiesiad": 7503,
      "Ġbieliz": 7504,
      "ĠJutro": 7505,
      "ĠprawÄħ": 7506,
      "ĠlubiÄĻ": 7507,
      "conej": 7508,
      "Ġduchy": 7509,
      "ĠÅĽwieÅ¼e": 7510,
      "Ġrynsz": 7511,
      "ĠMoja": 7512,
      "Ġsuge": 7513,
      "Ġbraku": 7514,
      "Ġczuj": 7515,
      "Ġczuje": 7516,
      "Ġsercem": 7517,
      "Ġserwis": 7518,
      "ĠÅĽwiÄħ": 7519,
      "Ġwolny": 7520,
      "ĠJulio": 7521,
      "tkach": 7522,
      "tkami": 7523,
      "ĠrÃ³wna": 7524,
      "tersbu": 7525,
      "Ġzakry": 7526,
      "ĠzostawiÄĩ": 7527,
      "Ġbawi": 7528,
      "ĠbawiÄĩ": 7529,
      "Ġstarej": 7530,
      "Ġstarusz": 7531,
      "ĠKoro": 7532,
      "ĠKolej": 7533,
      "ĠrÃ³Å¼a": 7534,
      "ĠrÃ³Å¼nica": 7535,
      "Ġkrop": 7536,
      "Ġsyna": 7537,
      "sÅĤugi": 7538,
      "ĠzÅĤoÅĽÄĩ": 7539,
      "ĠzÅĤoÅ¼one": 7540,
      "Ġszale": 7541,
      "ĠBracie": 7542,
      "stwÄĻ": 7543,
      "Ġustawi": 7544,
      "Ġwydania": 7545,
      "ĠwydarzyÄĩ": 7546,
      "ĠwÅĤoÅ¼yÅĤ": 7547,
      "ĠczÄĻÅĽciej": 7548,
      "ĠmyÅĽlÄħc": 7549,
      "tychczas": 7550,
      "Ġdeszczu": 7551,
      "Ġgdybym": 7552,
      "twiej": 7553,
      "prawÄĻ": 7554,
      "Ġbroda": 7555,
      "ĠbroniÄĩ": 7556,
      "ĠtrwaÅĤ": 7557,
      "ĠtrwaÅĤy": 7558,
      "Ġaktem": 7559,
      "Ġgrobie": 7560,
      "ĠsprawiÅĤ": 7561,
      "ĠÅļci": 7562,
      "ĠkrÃ³li": 7563,
      "ĠkrÃ³tki": 7564,
      "ĠkrÃ³lew": 7565,
      "Ġczarnym": 7566,
      "ĠzgodziÄĩ": 7567,
      "Ġdworem": 7568,
      "Ġpolityczne": 7569,
      "ĠWielkie": 7570,
      "Ġdyspo": 7571,
      "ĠÅĽrodkiem": 7572,
      "Ġkrajach": 7573,
      "Ġogromnej": 7574,
      "Ġciemny": 7575,
      "ĠÅĤotr": 7576,
      "ĠtwojÄħ": 7577,
      "Ġtwoim": 7578,
      "siady": 7579,
      "Ġobozie": 7580,
      "ĠstanowiÅĤ": 7581,
      "ĠstanowiÄħ": 7582,
      "ĠgÅĤÄĻbiej": 7583,
      "Ġfili": 7584,
      "Ġfilo": 7585,
      "Ġjedyne": 7586,
      "Ġjedynym": 7587,
      "Ġgatu": 7588,
      "Ġpostawy": 7589,
      "Ġpodobny": 7590,
      "Ġpodobnego": 7591,
      "ĠÅĽmierciÄħ": 7592,
      "ĠpeÅĤnÄħ": 7593,
      "ĠpeÅĤnym": 7594,
      "ĠnastÄĻpnego": 7595,
      "ĠdziewczynÄĻ": 7596,
      "Ġcudzo": 7597,
      "ĠkÅĤaniaÅĤ": 7598,
      "ĠsÅĤawny": 7599,
      "Ġskutecznie": 7600,
      "ĠwiÄĻksze": 7601,
      "ĠwiÄĻkszym": 7602,
      "Ġkolejny": 7603,
      "ĠrzuciÄĩ": 7604,
      "Ġzdoby": 7605,
      "ĠkarÄĻ": 7606,
      "ĠksiÄĻdz": 7607,
      "ĠProle": 7608,
      "ĠsztukÄĻ": 7609,
      "ĠpiÄĻÄĩdziesiÄħtych": 7610,
      "kowany": 7611,
      "Ġwszerz": 7612,
      "ĠgÅĤupie": 7613,
      "Ġistoty": 7614,
      "Ġblad": 7615,
      "Ġblasku": 7616,
      "ĠulicÄĻ": 7617,
      "pel": 7618,
      "Ġnazbyt": 7619,
      "ĠÅ¼yciem": 7620,
      "Ġwyprowa": 7621,
      "Ġstruny": 7622,
      "Ġprzyjaciela": 7623,
      "Ġprzyjaciele": 7624,
      "ĠprzyjaciÃ³ÅĤ": 7625,
      "ĠMoskalÃ³w": 7626,
      "ĠbÄĻdÄħc": 7627,
      "Ġmocne": 7628,
      "ĠchÅĤopiÄĻ": 7629,
      "ĠpÅĤyn": 7630,
      "ĠpÅĤywa": 7631,
      "Ġpasie": 7632,
      "ĠStojÄħ": 7633,
      "Ġpowiat": 7634,
      "Ġzwierza": 7635,
      "Ġfaktycznie": 7636,
      "Ġzwykli": 7637,
      "ĠÅĽciÅĽle": 7638,
      "ĠÅĽcisnÄħÅĤ": 7639,
      "niejszego": 7640,
      "faÄĩ": 7641,
      "Ġwiatru": 7642,
      "Ġzwane": 7643,
      "ĠkrÄĻci": 7644,
      "ĠkrÄĻcÄħc": 7645,
      "zeku": 7646,
      "tywne": 7647,
      "ĠrodzinÄĻ": 7648,
      "Ġplecach": 7649,
      "Ġpleban": 7650,
      "Ġstrzelby": 7651,
      "eszcie": 7652,
      "ĠPrawÄħ": 7653,
      "ĠuciekÅĤ": 7654,
      "ĠszkarÅĤa": 7655,
      "ĠDzieci": 7656,
      "ĠdziaÅĤaÅĦ": 7657,
      "Ġbrudne": 7658,
      "Ġgniewa": 7659,
      "ĠznajdowaÅĤo": 7660,
      "Ġtrudne": 7661,
      "ĠpozostajÄħ": 7662,
      "ĠzwÅĤaszcza": 7663,
      "Ġlekka": 7664,
      "dliwoÅĽci": 7665,
      "ĠBir": 7666,
      "ĠprowadziÄĩ": 7667,
      "ĠzapomnieÄĩ": 7668,
      "Ġdziwne": 7669,
      "ĠÅĽpiew": 7670,
      "ĠÅĽpiewaÅĤ": 7671,
      "Ġpytania": 7672,
      "ĠpytaÅĦ": 7673,
      "Ġostatnich": 7674,
      "Ġgotowa": 7675,
      "ĠKtÃ³rych": 7676,
      "ĠÅ¼oÅĤÄħd": 7677,
      "ĠSamo": 7678,
      "ĠmÃ³wie": 7679,
      "ĠmÃ³wcy": 7680,
      "ĠwyraÅ¼a": 7681,
      "ĠZnam": 7682,
      "Ġchcecie": 7683,
      "Ġwojenne": 7684,
      "ĠzbÃ³j": 7685,
      "Ġzbrod": 7686,
      "Ġidee": 7687,
      "ĠuczuÅĤ": 7688,
      "ĠuczuÄĩ": 7689,
      "Ġuczucie": 7690,
      "Ġmiasto": 7691,
      "ĠHrabiemu": 7692,
      "ĠbroniÄħ": 7693,
      "Ġpomieszczenie": 7694,
      "Ġzniszczo": 7695,
      "ĠzbliÅ¼a": 7696,
      "ĠzbliÅ¼aÅĤ": 7697,
      "ĠzaczÄĻÅĤy": 7698,
      "ĠkoniecznoÅĽÄĩ": 7699,
      "ĠZdawaÅĤ": 7700,
      "Ġkarabin": 7701,
      "Ġciekawy": 7702,
      "Ġszklany": 7703,
      "Ġmiliony": 7704,
      "Ġrzadka": 7705,
      "Ġpoczucie": 7706,
      "ĠumrzeÄĩ": 7707,
      "Ġszczury": 7708,
      "ĠSÅĤyszaÅĤ": 7709,
      "Ġprzypadku": 7710,
      "Ġprzypadek": 7711,
      "ĠAzja": 7712,
      "ĠchodziÅĤo": 7713,
      "ĠmÄĻÅ¼a": 7714,
      "Ġtortury": 7715,
      "Ġsprzed": 7716,
      "Ġsklepi": 7717,
      "ĠzmieniÅĤo": 7718,
      "ĠÅ¼oÅĤnierz": 7719,
      "ĠWschodnia": 7720,
      "ĠwyglÄħdaÅĤo": 7721,
      "Ġpierwszego": 7722,
      "ĠokreÅĽli": 7723,
      "ĠszepnÄħÅĤ": 7724,
      "krÄĻca": 7725,
      "ĠoburÄħcz": 7726,
      "ĠnajwyraÅºniej": 7727,
      "Ġangsoc": 7728,
      "Ġzimny": 7729,
      "ĠmaÅĤym": 7730,
      "Ġgwiazd": 7731,
      "ĠodkryÅĤ": 7732,
      "piÄħÅĤ": 7733,
      "Ġcierpienia": 7734,
      "Ġdwudziestu": 7735,
      "ĠniewyobraÅ¼a": 7736,
      "Ġdodatk": 7737,
      "Ġdodatku": 7738,
      "ĠprzewidzieÄĩ": 7739,
      "Ġszkole": 7740,
      "ĠBardziej": 7741,
      "ĠhaÅĤas": 7742,
      "ĠPatrzcie": 7743,
      "ĠkamieÅĦ": 7744,
      "cencji": 7745,
      "kwizy": 7746,
      "ĠspaÄĩ": 7747,
      "ĠzboÅ¼e": 7748,
      "ĠzboÅ¼a": 7749,
      "Ġkrwawe": 7750,
      "arÃ³wno": 7751,
      "Ġuczci": 7752,
      "ĠucztÄĻ": 7753,
      "ĠwyciÄħgnÄħÅĤ": 7754,
      "ĠprzeraÅ¼ajÄħce": 7755,
      "ĠprzyznaÄĩ": 7756,
      "Ġdzieckiem": 7757,
      "ĠwaszeÄĩ": 7758,
      "Ġszerokie": 7759,
      "ĠzÄĻbÃ³w": 7760,
      "ĠMieszka": 7761,
      "Ġzajmu": 7762,
      "Ġbezpiecznie": 7763,
      "ĠPamiÄĻtasz": 7764,
      "ĠSÅĤowem": 7765,
      "Ġwierszy": 7766,
      "ĠdalbÃ³g": 7767,
      "Ġegzem": 7768,
      "Ġegzeku": 7769,
      "ĠSzero": 7770,
      "Ġzniesie": 7771,
      "ĠpoprawiÅĤ": 7772,
      "ĠPÅĤuta": 7773,
      "ĠwydobyÅĤ": 7774,
      "Ġstosu": 7775,
      "Ġwilk": 7776,
      "ĠpisaÄĩ": 7777,
      "Ġdrobne": 7778,
      "ĠtrÄħbki": 7779,
      "ĠzagÅĤu": 7780,
      "ĠwracaÄĩ": 7781,
      "ĠkrÃ³tko": 7782,
      "wÅĤaÅĽci": 7783,
      "Ġschyla": 7784,
      "Ġranny": 7785,
      "ĠwyrzuciÄĩ": 7786,
      "ĠNapoleona": 7787,
      "ĠobÅĤawy": 7788,
      "ĠspoÅĤecznej": 7789,
      "ĠogÅĤoszenie": 7790,
      "ĠochotÄĻ": 7791,
      "ĠniektÃ³re": 7792,
      "Ġwioski": 7793,
      "Ġdobrodzie": 7794,
      "Ġseksualny": 7795,
      "Ġherety": 7796,
      "Ġpojedyncze": 7797,
      "ĠBrzytewka": 7798,
      "ĠDrugi": 7799,
      "ĠDrugÄħ": 7800,
      "Ġpowszechnie": 7801,
      "Ġpotrawy": 7802,
      "ĠpuÅĤk": 7803,
      "ĠDawno": 7804,
      "ĠtreÅĽci": 7805,
      "ĠkartkÄĻ": 7806,
      "Ġpopsu": 7807,
      "Ġwybuch": 7808,
      "ĠwiÄĻÅºniowie": 7809,
      "ĠwpÅĤywem": 7810,
      "Ġojczyzny": 7811,
      "ĠgaÅĤÄĻzie": 7812,
      "Ġautoma": 7813,
      "ĠuwaÅ¼aÅĤ": 7814,
      "Ġproletaria": 7815,
      "Ġinstruk": 7816,
      "ĠzakÅĤada": 7817,
      "Ġliteratury": 7818,
      "ĠLondynie": 7819,
      "mÃ³wiÄĩ": 7820,
      "Ġemocje": 7821,
      "ĠpÃ³jÅĽÄĩ": 7822,
      "Ġzdziwiony": 7823,
      "Ġpodziem": 7824,
      "ĠkoÅĤnie": 7825,
      "Ġkonopi": 7826,
      "Ġkonopie": 7827,
      "ĠprzyjemnoÅĽci": 7828,
      "ĠsÄħsiadÃ³w": 7829,
      "ĠÅĤatwe": 7830,
      "ĠzwierzÄĻta": 7831,
      "ĠkoÅĽciotru": 7832,
      "Ġtrzask": 7833,
      "Ġotwiera": 7834,
      "Ġwyprawy": 7835,
      "Ġfrontu": 7836,
      "Ġrakiety": 7837,
      "ĠpowstrzymaÄĩ": 7838,
      "Ġkontusza": 7839,
      "Ġgazety": 7840,
      "ĠzdrajcÃ³w": 7841,
      "ĠgwaÅĤtow": 7842,
      "ĠgwaÅĤtownie": 7843,
      "zbrodnio": 7844,
      "Ġzrealiz": 7845,
      "Ġnikomu": 7846,
      "Ġpraktyce": 7847,
      "ĠmieszkaÅĤ": 7848,
      "Ġbitwy": 7849,
      "ĠbitwÄĻ": 7850,
      "Ġkierunku": 7851,
      "Ġagre": 7852,
      "ĠszpadÄĻ": 7853,
      "Ġpatrol": 7854,
      "ĠPomiÄĻdzy": 7855,
      "Ġmundur": 7856,
      "ĠNaleÅ¼aÅĤo": 7857,
      "osyÄĩ": 7858,
      "ĠgÅĤosopis": 7859,
      "Ġznajdziesz": 7860,
      "ĠmyÅĽliwcÃ³w": 7861,
      "Ġdrzwiach": 7862,
      "Ġdrzwiami": 7863,
      "ĠkarabelÄĻ": 7864,
      "ĠwyobraÅ¼aÅĤ": 7865,
      "Ġhelikopter": 7866,
      "ĠduÅ¼o": 7867,
      "dziesiÄĻciu": 7868,
      "ĠmiesiÄħca": 7869,
      "Ġsposoby": 7870,
      "ĠrÄĻkojeÅĽÄĩ": 7871,
      "fikacji": 7872,
      "ĠumiejÄĻtnoÅĽÄĩ": 7873,
      "Ġtabakiery": 7874,
      "ĠStrzelcy": 7875,
      "Ġtygodniu": 7876,
      "Ġpacierz": 7877,
      "ĠBartÅĤomie": 7878,
      "Ġpunktu": 7879,
      "Ġbutelki": 7880,
      "Ġfolwarku": 7881,
      "ĠzwiÄħzane": 7882,
      "ĠporozmawiaÄĩ": 7883,
      "Ġwieszanie": 7884,
      "Ġkawiarni": 7885,
      "Ġbohater": 7886,
      "ĠwiÄĻÅºnia": 7887,
      "ĠprÃ³bujÄħc": 7888,
      "ĠRutheford": 7889,
      "ĠwÅĽciek": 7890,
      "Ġintensy": 7891,
      "nowÅĤosa": 7892,
      "ĠKobieta": 7893,
      "ĠszczegÃ³ÅĤy": 7894,
      "Ġsupermocarstw": 7895,
      "dobromyÅĽlful": 7896,
      "ĠBRATEM": 7897,
      "ÅģA": 7898,
      "ĠzaÅĤat": 7899,
      "ĠmnÃ³stwo": 7900,
      "Ġorygina": 7901,
      "ĠnieprawomyÅĽl": 7902,
      "Ġoddech": 7903,
      "ĠÅ¼onÄĻ": 7904,
      "ĠPrzeszÅĤoÅĽÄĩ": 7905,
      "ĠÅĽwiadectwo": 7906,
      "Ġskompli": 7907,
      "ĠzarÄĻczyny": 7908,
      "Ġgwizd": 7909,
      "ĠNareszcie": 7910,
      "ĠbuciorÃ³w": 7911,
      "Ġochmistrzyni": 7912,
      "ĠwpatrujÄħc": 7913,
      "ĠAntyseksualnej": 7914,
      "Å¼owanymi": 7915,
      "Ġnieuchron": 7916,
      "ĠWIELKIM": 7917,
      "ĠPrÃ³Å¼no": 7918,
      "ĠPiotr": 7919,
      "Ġegzemp": 7920,
      "!*": 7921,
      "Ach": 7922,
      "Ale": 7923,
      "CJ": 7924,
      "GNO": 7925,
      "IÅģA": 7926,
      "JN": 7927,
      "JuÅ¼": 7928,
      "KÃĵ": 7929,
      "Ni": 7930,
      "NCJ": 7931,
      "OJN": 7932,
      "Przy": 7933,
      "Te": 7934,
      "ag": 7935,
      "aÄĩ": 7936,
      "bak": 7937,
      "bne": 7938,
      "braw": 7939,
      "caÅĤa": 7940,
      "caÅĤy": 7941,
      "di": 7942,
      "dowy": 7943,
      "dnej": 7944,
      "dowanie": 7945,
      "dowany": 7946,
      "frej": 7947,
      "gniÄĻ": 7948,
      "gnÄĻli": 7949,
      "ham": 7950,
      "iÅĤa": 7951,
      "jnÄħ": 7952,
      "jaÅĤa": 7953,
      "jony": 7954,
      "knÄħ": 7955,
      "kru": 7956,
      "kowe": 7957,
      "kowych": 7958,
      "kowaÅĤo": 7959,
      "lie": 7960,
      "lski": 7961,
      "mp": 7962,
      "mowaÄĩ": 7963,
      "nnej": 7964,
      "nkiem": 7965,
      "nnoÅĽÄĩ": 7966,
      "nowany": 7967,
      "oo": 7968,
      "onego": 7969,
      "pÄħ": 7970,
      "pry": 7971,
      "pre": 7972,
      "pÃ³ki": 7973,
      "rnie": 7974,
      "rowaÅĤa": 7975,
      "rÅ¼aÅĤ": 7976,
      "sne": 7977,
      "smu": 7978,
      "spanie": 7979,
      "twi": 7980,
      "twy": 7981,
      "trÄħ": 7982,
      "towe": 7983,
      "towania": 7984,
      "twÃ³r": 7985,
      "tÅĤuma": 7986,
      "uka": 7987,
      "wnicy": 7988,
      "wÃ³dz": 7989,
      "wartÄħ": 7990,
      "zÅĤ": 7991,
      "zaÅĤo": 7992,
      "ziÄĻki": 7993,
      "Ìĩ": 7994,
      "Ġem": 7995,
      "Ġowi": 7996,
      "Ġowej": 7997,
      "iem": 7998,
      "ĠpÅĤÃ³": 7999,
      "Ġpuszcza": 8000,
      "Ġsad": 8001,
      "Ġscha": 8002,
      "Ġsos": 8003,
      "ĠsfaÅĤ": 8004,
      "ÄĻk": 8005,
      "Ġwrza": 8006,
      "ĠwÅĤÄħ": 8007,
      "ĠwnÄĻtrz": 8008,
      "ĠwstÄħpiÅĤ": 8009,
      "Ġnowego": 8010,
      "ĠzÅĤy": 8011,
      "Ġzba": 8012,
      "ĠzwaÅĤ": 8013,
      "ĠzÅĤÄħ": 8014,
      "ĠzÅĤe": 8015,
      "Ġzmian": 8016,
      "ĠzresztÄħ": 8017,
      "rzcie": 8018,
      "rzony": 8019,
      "cznika": 8020,
      "czha": 8021,
      "czniku": 8022,
      "Å¼Äħda": 8023,
      "Å¼Äħcy": 8024,
      "aÅĤÃ³w": 8025,
      "Ġtka": 8026,
      "Ġtwe": 8027,
      "ĠtrzÄĻ": 8028,
      "ĠtwÄħ": 8029,
      "Ġdna": 8030,
      "Ġdno": 8031,
      "Ġdemo": 8032,
      "ĠdÄħsa": 8033,
      "sti": 8034,
      "stÄĻ": 8035,
      "stni": 8036,
      "owna": 8037,
      "owca": 8038,
      "owemu": 8039,
      "szczyÅĤ": 8040,
      "szczem": 8041,
      "ĠmÅĤy": 8042,
      "Ġmenta": 8043,
      "Ġomy": 8044,
      "ĠokÅĤad": 8045,
      "ĠoÅĽmie": 8046,
      "niÅĤa": 8047,
      "niÅĤy": 8048,
      "niona": 8049,
      "Ġpou": 8050,
      "Ġpost": 8051,
      "ĠpoÅĤa": 8052,
      "Ġpopro": 8053,
      "Ġposiad": 8054,
      "Ġposzu": 8055,
      "ĠporwaÅĤ": 8056,
      "Ġporywa": 8057,
      "ĠpopÅĤy": 8058,
      "ĠpochodziÅĤ": 8059,
      "ĠpopeÅĤni": 8060,
      "ĠpobiegÅĤ": 8061,
      "Ġpokazu": 8062,
      "ĠpoÅĦczo": 8063,
      "ĠpopatrzyÅĤ": 8064,
      "Ġnasza": 8065,
      "ĠnagÅĤ": 8066,
      "ĠnarzÄĻ": 8067,
      "Ġnareszcie": 8068,
      "ĠnapeÅĤniÅĤ": 8069,
      "ĠnaÅĽlad": 8070,
      "ĠbÄħdÅº": 8071,
      "ĠbrodÄĻ": 8072,
      "ĠbÅĤÄħd": 8073,
      "ĠidÄħ": 8074,
      "Ġironi": 8075,
      "rzej": 8076,
      "gosÅĤa": 8077,
      "Ġniew": 8078,
      "Ġniedzie": 8079,
      "Ġniemy": 8080,
      "ĠnieÅĽmie": 8081,
      "Ġniechaj": 8082,
      "Ġniestety": 8083,
      "ĠniewÅĤaÅĽci": 8084,
      "lep": 8085,
      "nacie": 8086,
      "arb": 8087,
      "are": 8088,
      "arnie": 8089,
      "ÅĤoÅ¼y": 8090,
      "rzyk": 8091,
      "Ġzara": 8092,
      "Ġzaci": 8093,
      "Ġzawa": 8094,
      "Ġzala": 8095,
      "Ġzacze": 8096,
      "Ġzaso": 8097,
      "Ġzatar": 8098,
      "Ġzapomi": 8099,
      "Ġzabezpie": 8100,
      "Ġzamieni": 8101,
      "Ġzamil": 8102,
      "Ġzaanga": 8103,
      "ĠWrÃ³": 8104,
      "ĠWszedÅĤ": 8105,
      "ĠWpada": 8106,
      "ĠWkoÅĤo": 8107,
      "ĠWnet": 8108,
      "ĠWszÄĻdzie": 8109,
      "ĠWczeÅĽniej": 8110,
      "ĠWOJN": 8111,
      "Ġdocie": 8112,
      "ĠdoÅĦ": 8113,
      "Ġdozna": 8114,
      "ĠdosiÄĻ": 8115,
      "ĠdokÅĤad": 8116,
      "Ġdostar": 8117,
      "Ġdotychczas": 8118,
      "ema": 8119,
      "wija": 8120,
      "walaÅĤ": 8121,
      "ĠgÄħ": 8122,
      "Ġgin": 8123,
      "Ġgum": 8124,
      "Ġgrzmi": 8125,
      "Ġgmin": 8126,
      "kali": 8127,
      "ĠPas": 8128,
      "ĠPary": 8129,
      "ĠPlan": 8130,
      "mina": 8131,
      "miar": 8132,
      "mite": 8133,
      "mione": 8134,
      "mistrz": 8135,
      "Ġuka": 8136,
      "Ġubi": 8137,
      "Ġuja": 8138,
      "Ġutwo": 8139,
      "Ġuprzy": 8140,
      "Ġumil": 8141,
      "ĠuÅĽwiado": 8142,
      "ĠubiÃ³r": 8143,
      "koda": 8144,
      "kiwaÅĤ": 8145,
      "Ġwyry": 8146,
      "ĠwypeÅĤ": 8147,
      "ĠwyÅĤoni": 8148,
      "ĠwyglÄħ": 8149,
      "ladÅĤa": 8150,
      "tanie": 8151,
      "nonim": 8152,
      "ĠprzeÅĤ": 8153,
      "Ġprzeszy": 8154,
      "ĠprzeciÄĻ": 8155,
      "ĠprzewrÃ³": 8156,
      "ĠprzestaÅĤ": 8157,
      "Ġprzechodzi": 8158,
      "ĠprzechodzÄħc": 8159,
      "Ġprzeszko": 8160,
      "ĠprzeÅĽlad": 8161,
      "Ġprzemiany": 8162,
      "ĠprzemÃ³wie": 8163,
      "ĠcÃ³rki": 8164,
      "dale": 8165,
      "dajÄħ": 8166,
      "Ġastro": 8167,
      "Ġatom": 8168,
      "Ġawan": 8169,
      "ĠaÅĽÄĩka": 8170,
      "ĠjakÅ¼e": 8171,
      "Ġtom": 8172,
      "Ġtole": 8173,
      "Ġtony": 8174,
      "Ġtotali": 8175,
      "owaty": 8176,
      "owaÅĦ": 8177,
      "owanego": 8178,
      "Ġkol": 8179,
      "Ġkoni": 8180,
      "Ġkota": 8181,
      "Ġkobi": 8182,
      "Ġkopi": 8183,
      "Ġkopa": 8184,
      "Ġkozi": 8185,
      "Ġkogu": 8186,
      "Ġstrz": 8187,
      "Ġbystry": 8188,
      "ĠTÄĻ": 8189,
      "ĠTowarzy": 8190,
      "ĠTargowi": 8191,
      "wolne": 8192,
      "tymi": 8193,
      "Ġszwa": 8194,
      "ĠStro": 8195,
      "ĠSang": 8196,
      "ĠSIÅģA": 8197,
      "rujÄħc": 8198,
      "ruje": 8199,
      "rurki": 8200,
      "amar": 8201,
      "Ġodrzu": 8202,
      "ĠodtÄħd": 8203,
      "ĠodlegÅĤ": 8204,
      "ĠZad": 8205,
      "ĠZnÃ³w": 8206,
      "ĠZwrÃ³ciÅĤ": 8207,
      "ĠZmieni": 8208,
      "ĠZdra": 8209,
      "ĠZrazu": 8210,
      "poÅĽre": 8211,
      "ÅĦcie": 8212,
      "ÅĦku": 8213,
      "ÅĦce": 8214,
      "ÅĦcem": 8215,
      "encja": 8216,
      "Ġroba": 8217,
      "Ġrogi": 8218,
      "Ġromans": 8219,
      "ejÅĽÄĩ": 8220,
      "ĠObie": 8221,
      "ĠOsie": 8222,
      "ĠOgro": 8223,
      "Ġczwo": 8224,
      "Ġprzyl": 8225,
      "Ġprzyp": 8226,
      "ĠprzyniÃ³sÅĤ": 8227,
      "Ġprzynosi": 8228,
      "ĠprzyÅĤoÅ¼yÅĤ": 8229,
      "ĠprzyjÄħÄĩ": 8230,
      "Ġprzytwier": 8231,
      "Ġchmie": 8232,
      "Ġchor": 8233,
      "ĠchowaÅĤ": 8234,
      "Ġcharta": 8235,
      "Ġnisko": 8236,
      "ĠMusz": 8237,
      "stos": 8238,
      "stokra": 8239,
      "biec": 8240,
      "ĠmoÅĽci": 8241,
      "Ġmospanie": 8242,
      "telny": 8243,
      "ces": 8244,
      "stami": 8245,
      "ĠÅĽpi": 8246,
      "jenia": 8247,
      "ĠKry": 8248,
      "ĠKÅĤÃ³": 8249,
      "bisz": 8250,
      "bina": 8251,
      "biÄħc": 8252,
      "biaÅĤy": 8253,
      "ĠIGNO": 8254,
      "Ġpada": 8255,
      "Ġpalec": 8256,
      "Ġpastwi": 8257,
      "Ġwielo": 8258,
      "Ġwiedzy": 8259,
      "ĠwierzyÅĤ": 8260,
      "ĠwiedziaÅĤa": 8261,
      "ĠwiedzÄĻ": 8262,
      "ĠCiÄĻ": 8263,
      "ĠBÄĻ": 8264,
      "ĠBli": 8265,
      "ĠBÄħdÅº": 8266,
      "Ġminy": 8267,
      "Ġmiga": 8268,
      "Ġpodp": 8269,
      "Ġpodwo": 8270,
      "ĠpodwÃ³j": 8271,
      "Ġpodkre": 8272,
      "Ġpodlega": 8273,
      "Ġpodaru": 8274,
      "ĠpodniosÅĤa": 8275,
      "wyciÅĤ": 8276,
      "ĠgorÄħ": 8277,
      "ĠgoÅĤÄħ": 8278,
      "ĠDu": 8279,
      "ĠDzwo": 8280,
      "ĠDosyÄĩ": 8281,
      "ĠDziÄĻki": 8282,
      "cyi": 8283,
      "Ġtele": 8284,
      "ĠteczkÄĻ": 8285,
      "ĠPor": 8286,
      "ĠPostrze": 8287,
      "ĠPoznaÅĤ": 8288,
      "ĠPomaraÅĦcze": 8289,
      "manie": 8290,
      "mana": 8291,
      "mami": 8292,
      "ĠNiez": 8293,
      "ĠNiewy": 8294,
      "ĠNiestety": 8295,
      "Ġrozsze": 8296,
      "Ġrozsy": 8297,
      "ĠrozrÃ³Å¼": 8298,
      "Ġroztar": 8299,
      "Ġrozpro": 8300,
      "pili": 8301,
      "Ġwizy": 8302,
      "ĠwiszÄħc": 8303,
      "ĠwiarÄĻ": 8304,
      "Ġmuch": 8305,
      "Ġmura": 8306,
      "baÄĩ": 8307,
      "zyden": 8308,
      "pieraÅĤ": 8309,
      "Ġczysta": 8310,
      "ĠczystÄħ": 8311,
      "ĠwodÄħ": 8312,
      "ĠwokoÅĤo": 8313,
      "ĠNaprawdÄĻ": 8314,
      "gara": 8315,
      "Ġobwie": 8316,
      "Ġobraca": 8317,
      "log": 8318,
      "lon": 8319,
      "Ġkale": 8320,
      "Ġkano": 8321,
      "owiad": 8322,
      "niejszÄħ": 8323,
      "niejszym": 8324,
      "Ġmaj": 8325,
      "Ġmane": 8326,
      "Ġmasze": 8327,
      "Ġmaczu": 8328,
      "Ġmalar": 8329,
      "ĠmachnÄħÅĤ": 8330,
      "ĠpracÄħ": 8331,
      "ĠpragnÄħÅĤ": 8332,
      "mos": 8333,
      "ĠspÅĤo": 8334,
      "ĠspÅĤy": 8335,
      "ĠspadÅĤa": 8336,
      "Ġflin": 8337,
      "Ġludu": 8338,
      "Ġludziach": 8339,
      "ĠGi": 8340,
      "ĠGro": 8341,
      "ĠGor": 8342,
      "Ġstaj": 8343,
      "Ġstada": 8344,
      "Ġstatysty": 8345,
      "ĠprosiÅĤ": 8346,
      "Ġproble": 8347,
      "Ġleci": 8348,
      "Ġmierze": 8349,
      "Ġraczy": 8350,
      "Ġrada": 8351,
      "Ġspotyka": 8352,
      "Ġcicha": 8353,
      "chany": 8354,
      "Ġindy": 8355,
      "Ġinkwizy": 8356,
      "ĠgÅĤÄħb": 8357,
      "ĠÅ¼art": 8358,
      "ĠÅ¼wawo": 8359,
      "ĠskrÃ³": 8360,
      "czaszy": 8361,
      "Ġrzeczach": 8362,
      "dujÄħc": 8363,
      "dujemy": 8364,
      "Ġboi": 8365,
      "Ġboki": 8366,
      "ĠmÃ³c": 8367,
      "Ġzesta": 8368,
      "dobie": 8369,
      "doba": 8370,
      "Ġznalaz": 8371,
      "Ġznaczeniu": 8372,
      "ĠznaczeÅĦ": 8373,
      "ordy": 8374,
      "organi": 8375,
      "anowicie": 8376,
      "Ġsiedli": 8377,
      "Ġsiedzieli": 8378,
      "Ġkup": 8379,
      "ĠZatem": 8380,
      "ĠZatrzy": 8381,
      "Ġogary": 8382,
      "Ġogrod": 8383,
      "ĠrÄĻkach": 8384,
      "ĠÅ¼yw": 8385,
      "ĠÅ¼yli": 8386,
      "Ġwaszej": 8387,
      "Ġwaha": 8388,
      "stymi": 8389,
      "stycznie": 8390,
      "styczne": 8391,
      "ĠchodziÄĩ": 8392,
      "Ġchoroby": 8393,
      "Ġcholer": 8394,
      "ĠwzglÄħd": 8395,
      "Ġwzgar": 8396,
      "Ġalej": 8397,
      "Ġciele": 8398,
      "Ġpil": 8399,
      "ĠpiÅĤ": 8400,
      "ĠpiÄħ": 8401,
      "ĠliÅĽci": 8402,
      "Ġliku": 8403,
      "Ġlisty": 8404,
      "ĠliczyÅĤ": 8405,
      "ĠliÅĽcia": 8406,
      "Ġlicznych": 8407,
      "ĠwÅĤad": 8408,
      "Ġbicie": 8409,
      "menÄĻ": 8410,
      "ĠUsiadÅĤ": 8411,
      "ĠUmil": 8412,
      "ĠUwaÅ¼a": 8413,
      "czom": 8414,
      "ĠChÅĤo": 8415,
      "ciach": 8416,
      "Ġtacy": 8417,
      "Ġtajnie": 8418,
      "Ġtalii": 8419,
      "ĠWyz": 8420,
      "ĠWyko": 8421,
      "ĠWyraz": 8422,
      "skajÄħ": 8423,
      "ĠrurÄĻ": 8424,
      "Ġrucho": 8425,
      "Ġruchach": 8426,
      "Ġnajp": 8427,
      "Ġnajbli": 8428,
      "ĠpowÃ³d": 8429,
      "lÄĻkÅĤa": 8430,
      "ĠgÅĤodu": 8431,
      "ĠgÅĤoÅĽniej": 8432,
      "nowaÅĤo": 8433,
      "Ġtur": 8434,
      "zujÄħc": 8435,
      "dniaÅĤ": 8436,
      "ĠmoÅ¼ecie": 8437,
      "kÅĤadu": 8438,
      "ĠÅĤawce": 8439,
      "ĠMichaÅĤ": 8440,
      "Ġnosta": 8441,
      "Ġnogach": 8442,
      "stÄĻpu": 8443,
      "ĠsiadaÅĤ": 8444,
      "padaÅĤ": 8445,
      "padli": 8446,
      "ĠDomi": 8447,
      "ĠDoÅĽÄĩ": 8448,
      "ĠDobyÅĤ": 8449,
      "ĠDopÃ³ki": 8450,
      "Ġkonspi": 8451,
      "ĠTaka": 8452,
      "jemu": 8453,
      "czyÅĤem": 8454,
      "ĠpuÅĽciÅĤ": 8455,
      "ĠsÅĤuch": 8456,
      "ĠsÅĤuga": 8457,
      "ĠsÅĤudzy": 8458,
      "ĠsÅĤuÅ¼yÄĩ": 8459,
      "Ġzdrowi": 8460,
      "Ġety": 8461,
      "Ġszlache": 8462,
      "skre": 8463,
      "ĠkoÅĦcem": 8464,
      "ĠPodha": 8465,
      "ĠmogÄħc": 8466,
      "ziÅĤ": 8467,
      "ĠmÅĤodu": 8468,
      "ĠmÅĤodo": 8469,
      "ĠMajorze": 8470,
      "ĠÅ¼adnym": 8471,
      "rowane": 8472,
      "Ġpewny": 8473,
      "czÄħcym": 8474,
      "Ġjakoby": 8475,
      "Ġkij": 8476,
      "ĠkiwajÄħc": 8477,
      "pula": 8478,
      "miana": 8479,
      "Ġchwilami": 8480,
      "ĠWidzi": 8481,
      "ĠWilnie": 8482,
      "ĠWith": 8483,
      "ĠWiatr": 8484,
      "Ġdawnym": 8485,
      "Ġdawnej": 8486,
      "strzela": 8487,
      "ĠzdajÄħ": 8488,
      "ĠzdawaÅĤa": 8489,
      "ĠzdarzyÅĤo": 8490,
      "ĠzdarzaÅĤo": 8491,
      "ĠHrabiÄħ": 8492,
      "Ġbieda": 8493,
      "ĠbiegÄħ": 8494,
      "ĠJacka": 8495,
      "ĠCzym": 8496,
      "ĠdobÄĻ": 8497,
      "ĠCze": 8498,
      "ĠCzego": 8499,
      "ĠCzemu": 8500,
      "Ġcesa": 8501,
      "ĠCoraz": 8502,
      "Ġduma": 8503,
      "dzÄħce": 8504,
      "ĠÅĽwieÅ¼o": 8505,
      "Ġrynku": 8506,
      "ĠMogÄĻ": 8507,
      "Ġsumie": 8508,
      "Ġbrata": 8509,
      "ĠbramÄĻ": 8510,
      "Ġjakiego": 8511,
      "Ġzamczy": 8512,
      "ĠzapaÅĤ": 8513,
      "Ġzapro": 8514,
      "ĠzapÅĤa": 8515,
      "Ġzapasy": 8516,
      "ĠRok": 8517,
      "ĠpamiÄĻtaÄĩ": 8518,
      "ĠznajdÄħ": 8519,
      "ĠwolÄħ": 8520,
      "ĠTadeuszu": 8521,
      "ĠopÄĻ": 8522,
      "Ġopowie": 8523,
      "ĠopÃ³r": 8524,
      "Ġopowiada": 8525,
      "ĠopowiadaÅĤ": 8526,
      "ĠKaro": 8527,
      "ĠKaÅ¼e": 8528,
      "ĠzmieszaÅĤ": 8529,
      "ĠzakÅĤad": 8530,
      "Ġniezad": 8531,
      "ĠzostanÄħ": 8532,
      "ĠzostawiÅĤ": 8533,
      "Ġbali": 8534,
      "przestrze": 8535,
      "ĠmyÅĽliwi": 8536,
      "ĠmyÅĽliwych": 8537,
      "Ġsyla": 8538,
      "Ġsynow": 8539,
      "ĠzÅĤotem": 8540,
      "Ġszach": 8541,
      "Ġszyi": 8542,
      "ĠBratem": 8543,
      "Ġustanku": 8544,
      "ĠmusiaÅĤy": 8545,
      "ĠwracaÅĤ": 8546,
      "ĠLitwa": 8547,
      "ĠwÅĤosami": 8548,
      "Ġmomentach": 8549,
      "ĠciÄħgnÄħÄĩ": 8550,
      "Ġdeszcz": 8551,
      "ĠstrzelaÄĩ": 8552,
      "prawda": 8553,
      "Ġkobiecy": 8554,
      "Ġarma": 8555,
      "Ġjednostki": 8556,
      "ĠgramÃ³w": 8557,
      "Ġgranat": 8558,
      "ĠTelimenÄĻ": 8559,
      "Ġaksami": 8560,
      "Ġakcep": 8561,
      "ĠgroÅ¼Äħc": 8562,
      "Ġsprawia": 8563,
      "ĠÅļmier": 8564,
      "ĠÅĽwiatÅĤem": 8565,
      "ĠRozlegÅĤ": 8566,
      "Ġpowody": 8567,
      "Ġwargi": 8568,
      "ĠchÅĤopi": 8569,
      "ĠpyÅĤ": 8570,
      "Ġtrudem": 8571,
      "Ġzgodzie": 8572,
      "promi": 8573,
      "Ġzgrzy": 8574,
      "Ġpolicz": 8575,
      "Ġpoliczkach": 8576,
      "Ġrzeczownik": 8577,
      "ĠEuro": 8578,
      "Ġdygni": 8579,
      "ĠÅĽrodki": 8580,
      "Ġogromnego": 8581,
      "ĠwÄħÅ¼": 8582,
      "ĠwÄħskiej": 8583,
      "ĠÅĤosko": 8584,
      "Ġwalce": 8585,
      "ĠstanowiÄĩ": 8586,
      "ĠgÅĤÄĻb": 8587,
      "zofi": 8588,
      "Ġgaju": 8589,
      "Ġteleekranie": 8590,
      "Ġteleekrany": 8591,
      "ĠpiÄĻknÄħ": 8592,
      "ĠpiÄĻknej": 8593,
      "Ġpostaci": 8594,
      "ĠPanny": 8595,
      "Ġgodzina": 8596,
      "ĠgodzinÄĻ": 8597,
      "Ġzachowy": 8598,
      "ĠDawaÅĤ": 8599,
      "Ġdziewczynie": 8600,
      "Ġklatki": 8601,
      "Ġcuch": 8602,
      "Ġcudzy": 8603,
      "Ġkomnaty": 8604,
      "Ġkompromi": 8605,
      "ĠodpowiedÅº": 8606,
      "rzonym": 8607,
      "ĠkÅĤania": 8608,
      "ĠsÅĤab": 8609,
      "ĠsÅĤaw": 8610,
      "akaÄĩ": 8611,
      "ĠwiÄĻkszej": 8612,
      "ĠwiÄĻkszego": 8613,
      "Ġkolejnego": 8614,
      "ĠmilczÄħc": 8615,
      "Ġmilczenia": 8616,
      "ĠrzuciÅĤa": 8617,
      "Ġnowomowa": 8618,
      "ĠzdolnoÅĽÄĩ": 8619,
      "ĠzdobyÄĩ": 8620,
      "Ġmniejsza": 8621,
      "ĠksiÄĻcia": 8622,
      "ÅĤoniwszy": 8623,
      "ĠchybiÅĤ": 8624,
      "Ġsztucznie": 8625,
      "Ġrobili": 8626,
      "ĠrobiÅĤo": 8627,
      "Ġintere": 8628,
      "Ġrozmowa": 8629,
      "ĠksztaÅĤty": 8630,
      "ĠjÄĻk": 8631,
      "Ġprzeciwnika": 8632,
      "Ġwypowiada": 8633,
      "Ġstrumieniem": 8634,
      "ĠprzyjaÅºni": 8635,
      "Ġfali": 8636,
      "ĠskrzyÅ¼owanymi": 8637,
      "ĠMoskale": 8638,
      "ĠbÄĻb": 8639,
      "Ġludzka": 8640,
      "ĠludzkÄħ": 8641,
      "Ġpasy": 8642,
      "ĠgÄĻste": 8643,
      "mysÅĤem": 8644,
      "Ġdniach": 8645,
      "ĠPolszcze": 8646,
      "ĠPolska": 8647,
      "ĠwrÃ³Å¼y": 8648,
      "Ġobiektyw": 8649,
      "ĠÅĽciskaÅĤ": 8650,
      "Ġnauczy": 8651,
      "Ġnauki": 8652,
      "ĠgardÅĤa": 8653,
      "ĠgardÅĤo": 8654,
      "Ġkochanka": 8655,
      "Ġdziedzica": 8656,
      "ĠdziedziÅĦcu": 8657,
      "Ġwiara": 8658,
      "Ġtowarzyszy": 8659,
      "Ġtowarzyszu": 8660,
      "ĠpojawiÅĤ": 8661,
      "ĠniechÄĻ": 8662,
      "ĠObec": 8663,
      "zeÅĦku": 8664,
      "ĠÅºrÃ³d": 8665,
      "Ġojciec": 8666,
      "Ġwykra": 8667,
      "ĠwykrÄĻ": 8668,
      "ĠplecÃ³w": 8669,
      "wujÄħc": 8670,
      "ĠskÅĤadaÅĤ": 8671,
      "ĠDobrzyÅĦskiego": 8672,
      "ĠznajdowaÅĤy": 8673,
      "ĠtrudnoÅĽci": 8674,
      "Ġpozostaje": 8675,
      "jomu": 8676,
      "Ġoznaj": 8677,
      "Ġlekkie": 8678,
      "ĠzwyciÄĻz": 8679,
      "Ġwspiera": 8680,
      "Ġkolanie": 8681,
      "Ġkolanach": 8682,
      "ĠprowadziÅĤ": 8683,
      "ĠkrzeÅĽle": 8684,
      "ĠkrzesÅĤo": 8685,
      "Ġliterami": 8686,
      "ĠgÅĤÄĻbokie": 8687,
      "Ġznaki": 8688,
      "Ġdostanie": 8689,
      "Ġwykony": 8690,
      "Ġwykorzy": 8691,
      "Ġwykorzysta": 8692,
      "ĠKtoÅĽ": 8693,
      "Ġformy": 8694,
      "larÃ³w": 8695,
      "ĠnadziejÄħ": 8696,
      "Ġuderza": 8697,
      "ĠuderzyÅĤa": 8698,
      "ĠwymagaÅĤo": 8699,
      "Ġpanien": 8700,
      "ĠzewszÄħd": 8701,
      "ĠÅ»ydzi": 8702,
      "ĠTrzeci": 8703,
      "ĠRadziwiÅĤ": 8704,
      "Ġwielkimi": 8705,
      "!âĢ¦Â»": 8706,
      "ĠpowaÅ¼ne": 8707,
      "ĠzasÅĤo": 8708,
      "ĠpodÅĤogi": 8709,
      "ĠpÄĻka": 8710,
      "ĠRezyden": 8711,
      "ĠskÃ³ra": 8712,
      "ĠliczbÄĻ": 8713,
      "Ġstolika": 8714,
      "ĠciÄĻÅ¼arÃ³w": 8715,
      "ĠskaczÄħc": 8716,
      "ĠzbÅĤÄħ": 8717,
      "Ġkryjomu": 8718,
      "ĠnienawidziÅĤ": 8719,
      "ĠdokonaÅĤ": 8720,
      "Ġubrany": 8721,
      "ĠÅĽledzi": 8722,
      "Ġmianem": 8723,
      "ĠZdarzaÅĤo": 8724,
      "ĠmajÄħtek": 8725,
      "ĠpamiÄĻtasz": 8726,
      "ĠPowiedziaÅĤ": 8727,
      "ĠBieÅ¼y": 8728,
      "ĠChciaÅĤbym": 8729,
      "Ġwrzaski": 8730,
      "Ġbrzegi": 8731,
      "ĠusÅĤyszy": 8732,
      "ĠusÅĤyszeÄĩ": 8733,
      "Ġspojrzenia": 8734,
      "Ġspojrzawszy": 8735,
      "Ġzielonych": 8736,
      "ĠmÅĤodych": 8737,
      "Ġokolica": 8738,
      "dÅĤugo": 8739,
      "Ġzbrojny": 8740,
      "ĠmaÅĤego": 8741,
      "ĠniebezpieczeÅĦ": 8742,
      "ĠniebezpieczeÅĦstwo": 8743,
      "Ġzabawy": 8744,
      "wajÄħcej": 8745,
      "Ġumrze": 8746,
      "Ġoddali": 8747,
      "ĠznajdujÄħ": 8748,
      "ĠKtÃ³rego": 8749,
      "Ġpomoc": 8750,
      "mienne": 8751,
      "Ġstopniowo": 8752,
      "ĠpotÄĻÅ¼nych": 8753,
      "ĠmoÅ¼liwoÅĽÄĩ": 8754,
      "Ġkrewny": 8755,
      "ĠhistoriÄĻ": 8756,
      "ĠÅ¼oÅĤnierzy": 8757,
      "pÄĻd": 8758,
      "ĠdrÅ¼Äħc": 8759,
      "nadto": 8760,
      "ĠPrac": 8761,
      "ĠwyglÄħdaÅĤy": 8762,
      "ĠpaÅĦskich": 8763,
      "Ġlepszy": 8764,
      "Ġpierwsi": 8765,
      "Ġsiostrze": 8766,
      "ĠstraÅ¼nik": 8767,
      "ĠzamkniÄĻtymi": 8768,
      "ĠprÃ³bowaÅĤa": 8769,
      "Ġopiera": 8770,
      "ĠkÅĤamstw": 8771,
      "ĠperÅĤy": 8772,
      "Ġniebieskie": 8773,
      "Ġgwiaz": 8774,
      "ĠuÅĽmiech": 8775,
      "ĠScyzoryku": 8776,
      "ĠIleÅ¼": 8777,
      "ĠIlekroÄĩ": 8778,
      "Ġkurki": 8779,
      "Ġcierpi": 8780,
      "Ġtabaki": 8781,
      "ĠniewyraÅº": 8782,
      "ĠÅĽwiÄĻtego": 8783,
      "ĠKrzyk": 8784,
      "Ġkapitan": 8785,
      "ĠÅģo": 8786,
      "ĠhaÅĤasu": 8787,
      "ĠPatrzÄħc": 8788,
      "Ġprzod": 8789,
      "ĠkwiatÃ³w": 8790,
      "Ġginie": 8791,
      "ĠPewnego": 8792,
      "ĠwyciÄħgnÄħÄĩ": 8793,
      "Ġszeroko": 8794,
      "Ġpolitycznej": 8795,
      "ĠÅĤysi": 8796,
      "szczono": 8797,
      "jeÅ¼dÅ¼aÅĤ": 8798,
      "ĠwiosnÄħ": 8799,
      "Ġdzienniku": 8800,
      "Ġrozumiesz": 8801,
      "Ġotwarte": 8802,
      "Ġptastwo": 8803,
      "Ġdamom": 8804,
      "ĠpochwaÅĤ": 8805,
      "ĠpochwaÅĤy": 8806,
      "Ġniewidzia": 8807,
      "Ġprzedmioty": 8808,
      "ĠsÅĤyszaÅĤem": 8809,
      "ĠKropidÅĤo": 8810,
      "Ġplusk": 8811,
      "Ġkwad": 8812,
      "ĠpochyliÅĤ": 8813,
      "Ġchmura": 8814,
      "ĠdalÃ©j": 8815,
      "ĠszeÅĽÄĩdziesiÄħtych": 8816,
      "ĠbÅĤyszczÄħcy": 8817,
      "ĠbÅĤyszczÄħca": 8818,
      "chnienia": 8819,
      "Ġniespoko": 8820,
      "ĠutrzymaÄĩ": 8821,
      "ĠwywoÅĤa": 8822,
      "Ġstosun": 8823,
      "ĠszczÄĻÅĽliwe": 8824,
      "ĠschowaÅĤ": 8825,
      "ĠtrÄħby": 8826,
      "Ġsznurowa": 8827,
      "ĠÅĽladu": 8828,
      "Ġpowinno": 8829,
      "Ġpowstanie": 8830,
      "ĠsÄħsiedzie": 8831,
      "ĠkrÃ³tkie": 8832,
      "Ġwinny": 8833,
      "ĠkrÄħÅ¼y": 8834,
      "Ġwynalaz": 8835,
      "ĠZrozu": 8836,
      "ĠspoÅĤeczeÅĦ": 8837,
      "Ġregular": 8838,
      "ĠFrancuzi": 8839,
      "Ġkieliszek": 8840,
      "Ġkwestii": 8841,
      "ĠozwaÅĤ": 8842,
      "ĠpozycjÄĻ": 8843,
      "Ġwidokiem": 8844,
      "ĠobejrzaÅĤ": 8845,
      "ĠruchÃ³w": 8846,
      "ĠzdjÄĻcia": 8847,
      "ĠpoÅĤowa": 8848,
      "ĠpoÅĤowy": 8849,
      "ĠbrzmiaÅĤy": 8850,
      "ĠurzÄħdzenia": 8851,
      "ĠMÄĻÅ¼czyÅºni": 8852,
      "ĠrozmawiaÅĤ": 8853,
      "Ġpotwornie": 8854,
      "Ġbudynek": 8855,
      "Ġowad": 8856,
      "ĠpoÅĤudni": 8857,
      "Ġdoskonale": 8858,
      "ĠgrzybÃ³w": 8859,
      "ĠukÅĤo": 8860,
      "ĠZasada": 8861,
      "ĠBrzytwa": 8862,
      "myÅĽliÅĤ": 8863,
      "Ġkaszlu": 8864,
      "Ġsposobem": 8865,
      "ĠwziÄĻÅĤa": 8866,
      "ĠpuÅĤku": 8867,
      "Ġinstynktownie": 8868,
      "Timesie": 8869,
      "Ġwejrzenie": 8870,
      "ĠtreÅĽÄĩ": 8871,
      "ĠdÅĤoniach": 8872,
      "ĠdotarÅĤ": 8873,
      "ĠwygraÅĤ": 8874,
      "Ġataku": 8875,
      "ĠZiemi": 8876,
      "ĠmaleÅĦki": 8877,
      "ĠÅ»adne": 8878,
      "Ġokrucie": 8879,
      "Ġwarunki": 8880,
      "Ġorganizacji": 8881,
      "Ġplakat": 8882,
      "Ġplakaty": 8883,
      "ĠprÄħd": 8884,
      "Ġneo": 8885,
      "Ġzjawi": 8886,
      "Ġzgadza": 8887,
      "Ġtarg": 8888,
      "Ġnieruchomo": 8889,
      "Ġzadowo": 8890,
      "ĠdostrzegaÅĤ": 8891,
      "Ġwychowanie": 8892,
      "Ġwycieczki": 8893,
      "ĠwyjaÅĽ": 8894,
      "ĠCelem": 8895,
      "ĠobÅĤok": 8896,
      "Ġspokojnie": 8897,
      "ĠhasÅĤa": 8898,
      "Ġortodoksyj": 8899,
      "RANCJ": 8900,
      "Ġemocji": 8901,
      "ĠprzetrwaÄĩ": 8902,
      "ĠstwierdziÅĤ": 8903,
      "Ġodwro": 8904,
      "ĠspodziewaÅĤ": 8905,
      "Ġograniczona": 8906,
      "Ġsurdu": 8907,
      "ĠkoÅĽcioÅĤem": 8908,
      "Ġpiosenki": 8909,
      "ĠwszakÅ¼e": 8910,
      "Ġzezna": 8911,
      "Ġpopular": 8912,
      "ĠwytÅĤuma": 8913,
      "ĠÅĽrednia": 8914,
      "Ġmiodu": 8915,
      "Ġsuperpa": 8916,
      "ĠnajwyÅ¼sze": 8917,
      "ĠwzglÄĻdÃ³w": 8918,
      "ĠzwiÄħzek": 8919,
      "aÅĤama": 8920,
      "ĠdrÄħÅ¼ki": 8921,
      "ĠpoÅ¼egnaÄĩ": 8922,
      "Ġunicest": 8923,
      "Ġunicestwi": 8924,
      "Ġtekst": 8925,
      "Ġtekstu": 8926,
      "ĠwisiaÅĤ": 8927,
      "Ġbiurku": 8928,
      "Ġstruktury": 8929,
      "ĠkontrolowaÄĩ": 8930,
      "ĠZnajdowaÅĤ": 8931,
      "Ġabsolutnie": 8932,
      "Ġowoc": 8933,
      "Ġkopni": 8934,
      "ĠwesoÅĤo": 8935,
      "ĠKoÅĽciusz": 8936,
      "ĠgÅĤupota": 8937,
      "Ġfunkcjon": 8938,
      "Ġzechcesz": 8939,
      "Ġkwita": 8940,
      "Ġzachodzie": 8941,
      "Ġwyboru": 8942,
      "Ġprzebudzeniu": 8943,
      "dziesiÄĻcio": 8944,
      "ĠAfryki": 8945,
      "ĠJakiÅĽ": 8946,
      "Ġepoki": 8947,
      "Ġewaporowany": 8948,
      "ĠnaprawiÄĩ": 8949,
      "ĠprzywÃ³d": 8950,
      "Ġwinien": 8951,
      "Ġobrzydli": 8952,
      "Ġfrancusku": 8953,
      "ĠsamobÃ³jstwo": 8954,
      "Ġarmii": 8955,
      "grafii": 8956,
      "ĠgÅĤupstwa": 8957,
      "ĠkryjÃ³wki": 8958,
      "Ġobywate": 8959,
      "Ġwniosku": 8960,
      "Ġnaczynia": 8961,
      "ladnÄħÅĤ": 8962,
      "ĠszÃ³stym": 8963,
      "ĠOwszem": 8964,
      "ĠwojewÃ³dz": 8965,
      "ĠskÅĤonnoÅĽÄĩ": 8966,
      "Ġprawdopodobnie": 8967,
      "ĠzapytaÅĤa": 8968,
      "ĠpoÅĽpieszaÅĤ": 8969,
      "ĠÅĽledztwo": 8970,
      "Ġportret": 8971,
      "ĠniezaleÅ¼nie": 8972,
      "ĠwnÄĻtrze": 8973,
      "Ġzanied": 8974,
      "Ġszlocha": 8975,
      "Ġodruchowo": 8976,
      "Ġzepsu": 8977,
      "ĠMickiewicz": 8978,
      "ĠsugerowaÅĤo": 8979,
      "ĠskÅĤadaÅĤy": 8980,
      "ĠwspÃ³ÅĤczes": 8981,
      "cjonalnie": 8982,
      "Ġtransparenty": 8983,
      "kluczone": 8984,
      "Ġtasak": 8985,
      "ĠpolegaÅĤo": 8986,
      "ĠcaÅĤoÅĽci": 8987,
      "ĠodlegÅĤoÅĽci": 8988,
      "ĠOtworzyÅĤ": 8989,
      "ĠpieÅĽÅĦ": 8990,
      "Ġdumny": 8991,
      "ĠNajwyraÅºniej": 8992,
      "Ġplebana": 8993,
      "Ġwschodu": 8994,
      "ĠczaszkÄĻ": 8995,
      "ĠzniszczyÄĩ": 8996,
      "ĠwyobraÅºni": 8997,
      "ĠSkoÅĤuba": 8998,
      "Ġarystokra": 8999,
      "Ġzwierciad": 9000,
      "ĠoÅ¼eniÅĤ": 9001,
      "ĠpobliÅ¼u": 9002,
      "Ġzainteres": 9003,
      "ĠPiÄĻÄĩ": 9004,
      "ĠuniemoÅ¼li": 9005,
      "Ġcymb": 9006,
      "ĠTrudno": 9007,
      "ĠKrÃ³tkie": 9008,
      "ĠBonap": 9009,
      "ĠPokoju": 9010,
      "ĠZastanawiaÅĤ": 9011,
      "ĠUsÅĤyszaÅĤ": 9012,
      "Ġpiersiach": 9013,
      "ĠTygodnia": 9014,
      "ĠKultury": 9015,
      "Ġgulaszu": 9016,
      "Ġniespodziewanie": 9017,
      "Ġplotki": 9018,
      "Ġgmachu": 9019,
      "ĠPOKÃĵ": 9020,
      "Ġuczestni": 9021,
      "Ġrozpierzch": 9022,
      "ĠmÃ³zgu": 9023,
      "Ġhttps": 9024,
      "ĠÅĽwiÄħty": 9025,
      "tersbur": 9026,
      "ĠkrÃ³liki": 9027,
      "Ġfilozofi": 9028,
      "Ġautomatycznie": 9029,
      "Ġproletariatu": 9030,
      "brawszy": 9031,
      "ĠnieÅĽmier": 9032,
      "Ġzasoby": 9033,
      "ĠWOJNA": 9034,
      "wolnelektury": 9035,
      "ĠOsiedl": 9036,
      "ĠIGNORANCJ": 9037,
      "ĠPOKÃĵJ": 9038,
      "ĠIGNORANCJA": 9039,
      "!!": 9040,
      "!âĢĿ": 9041,
      "12": 9042,
      "50": 9043,
      "CÃ³Å¼": 9044,
      "Dzi": 9045,
      "Gdy": 9046,
      "HejÅ¼e": 9047,
      "Oj": 9048,
      "RÃ³z": 9049,
      "Ty": 9050,
      "Wo": 9051,
      "Wszy": 9052,
      "WOL": 9053,
      "ady": 9054,
      "cam": 9055,
      "ccy": 9056,
      "dwa": 9057,
      "dko": 9058,
      "dnoÅĽci": 9059,
      "dowano": 9060,
      "fo": 9061,
      "fum": 9062,
      "flek": 9063,
      "grzy": 9064,
      "gru": 9065,
      "gÃ³r": 9066,
      "iÃ³w": 9067,
      "jka": 9068,
      "jca": 9069,
      "jga": 9070,
      "jon": 9071,
      "kta": 9072,
      "ksa": 9073,
      "ksu": 9074,
      "kowÄħ": 9075,
      "kowanie": 9076,
      "ksztaÅĤ": 9077,
      "knÄĻÅĤy": 9078,
      "lce": 9079,
[...]
