{
  "version": "1.0",
  "truncation": null,
  "padding": null,
  "added_tokens": [
    {
      "id": 0,
      "content": "<|unk|>",
      "single_word": false,
      "lstrip": false,
      "rstrip": false,
      "normalized": false,
      "special": true
    },
    {
      "id": 1,
      "content": "<|eof|>",
      "single_word": false,
      "lstrip": false,
      "rstrip": false,
      "normalized": false,
      "special": true
    }
  ],
  "normalizer": null,
  "pre_tokenizer": {
    "type": "BertPreTokenizer"
  },
  "post_processor": null,
  "decoder": null,
  "model": {
    "type": "BPE",
    "dropout": null,
    "unk_token": "<|unk|>",
    "continuing_subword_prefix": null,
    "end_of_word_suffix": null,
    "fuse_unk": false,
    "byte_fallback": false,
    "ignore_merges": false,
    "vocab": {
      "<|unk|>": 0,
      "<|eof|>": 1,
      "!": 2,
      "(": 3,
      ")": 4,
      ",": 5,
      "-": 6,
      ".": 7,
      "0": 8,
      "1": 9,
      "2": 10,
      "3": 11,
      "4": 12,
      "5": 13,
      "6": 14,
      "7": 15,
      "8": 16,
      "9": 17,
      ":": 18,
      ";": 19,
      "?": 20,
      "A": 21,
      "B": 22,
      "C": 23,
      "D": 24,
      "E": 25,
      "F": 26,
      "G": 27,
      "H": 28,
      "I": 29,
      "J": 30,
      "K": 31,
      "L": 32,
      "M": 33,
      "N": 34,
      "O": 35,
      "P": 36,
      "R": 37,
      "S": 38,
      "T": 39,
      "U": 40,
      "V": 41,
      "W": 42,
      "X": 43,
      "Y": 44,
      "Z": 45,
      "[": 46,
      "]": 47,
      "a": 48,
      "b": 49,
      "c": 50,
      "d": 51,
      "e": 52,
      "f": 53,
      "g": 54,
      "h": 55,
      "i": 56,
      "j": 57,
      "k": 58,
      "l": 59,
      "m": 60,
      "n": 61,
      "o": 62,
      "p": 63,
      "r": 64,
      "s": 65,
      "t": 66,
      "u": 67,
      "v": 68,
      "w": 69,
      "x": 70,
      "y": 71,
      "z": 72,
      "«": 73,
      "»": 74,
      "Ó": 75,
      "ó": 76,
      "ą": 77,
      "ć": 78,
      "Ę": 79,
      "ę": 80,
      "Ł": 81,
      "ł": 82,
      "Ń": 83,
      "ń": 84,
      "Ś": 85,
      "ś": 86,
      "ź": 87,
      "Ż": 88,
      "ż": 89,
      "—": 90,
      "’": 91,
      "ie": 92,
      "rz": 93,
      "nie": 94,
      "na": 95,
      "sz": 96,
      "cz": 97,
      "ch": 98,
      "po": 99,
      "ię": 100,
      "st": 101,
      "ał": 102,
      "dz": 103,
      "ni": 104,
      "rze": 105,
      "ro": 106,
      "za": 107,
      "go": 108,
      "wa": 109,
      "się": 110,
      "do": 111,
      "ci": 112,
      "ra": 113,
      "li": 114,
      "ko": 115,
      "je": 116,
      "an": 117,
      "em": 118,
      "wi": 119,
      "le": 120,
      "rzy": 121,
      "wy": 122,
      "ło": 123,
      "by": 124,
      "dy": 125,
      "mi": 126,
      "wo": 127,
      "że": 128,
      "ka": 129,
      "wie": 130,
      "ąc": 131,
      "ny": 132,
      "dzi": 133,
      "ki": 134,
      "prze": 135,
      "ta": 136,
      "szy": 137,
      "ła": 138,
      "da": 139,
      "ne": 140,
      "ja": 141,
      "to": 142,
      "kie": 143,
      "no": 144,
      "dzie": 145,
      "cie": 146,
      "od": 147,
      "ów": 148,
      "ry": 149,
      "czy": 150,
      "mo": 151,
      "te": 152,
      "ty": 153,
      "la": 154,
      "jąc": 155,
      "mie": 156,
      "pa": 157,
      "ob": 158,
      "nia": 159,
      "ną": 160,
      "ści": 161,
      "ku": 162,
      "przy": 163,
      "si": 164,
      "cze": 165,
      "ol": 166,
      "Na": 167,
      "sa": 168,
      "sze": 169,
      "Rol": 170,
      "tó": 171,
      "Rolan": 172,
      "sta": 173,
      "ły": 174,
      "ma": 175,
      "ru": 176,
      "pie": 177,
      "któ": 178,
      "ce": 179,
      "my": 180,
      "wszy": 181,
      "wał": 182,
      "roz": 183,
      "rę": 184,
      "mu": 185,
      "ndy": 186,
      "bi": 187,
      "ży": 188,
      "re": 189,
      "naj": 190,
      "we": 191,
      "ga": 192,
      "bie": 193,
      "ró": 194,
      "cza": 195,
      "tan": 196,
      "jak": 197,
      "cy": 198,
      "ale": 199,
      "pi": 200,
      "bo": 201,
      "Indy": 202,
      "Roland": 203,
      "gł": 204,
      "sk": 205,
      "pu": 206,
      "ba": 207,
      "co": 208,
      "gdy": 209,
      "niej": 210,
      "jego": 211,
      "ją": 212,
      "spo": 213,
      "ała": 214,
      "pe": 215,
      "ść": 216,
      "pod": 217,
      "nę": 218,
      "ich": 219,
      "wię": 220,
      "raz": 221,
      "sza": 222,
      "ca": 223,
      "mó": 224,
      "tu": 225,
      "jed": 226,
      "nik": 227,
      "łu": 228,
      "nego": 229,
      "Natan": 230,
      "cha": 231,
      "sie": 232,
      "czę": 233,
      "tem": 234,
      "be": 235,
      "gi": 236,
      "pra": 237,
      "ony": 238,
      "al": 239,
      "cho": 240,
      "lu": 241,
      "mię": 242,
      "zna": 243,
      "ały": 244,
      "nął": 245,
      "ze": 246,
      "gło": 247,
      "kiem": 248,
      "pro": 249,
      "Nie": 250,
      "rza": 251,
      "ego": 252,
      "ało": 253,
      "tak": 254,
      "ska": 255,
      "ost": 256,
      "de": 257,
      "wz": 258,
      "niem": 259,
      "sob": 260,
      "jest": 261,
      "du": 262,
      "wia": 263,
      "cię": 264,
      "Ral": 265,
      "Ralf": 266,
      "dział": 267,
      "powie": 268,
      "su": 269,
      "Indya": 270,
      "krzy": 271,
      "przez": 272,
      "rzek": 273,
      "bę": 274,
      "który": 275,
      "bez": 276,
      "nych": 277,
      "zawo": 278,
      "nej": 279,
      "kich": 280,
      "ju": 281,
      "js": 282,
      "strze": 283,
      "tę": 284,
      "ża": 285,
      "sto": 286,
      "ej": 287,
      "dla": 288,
      "żeby": 289,
      "jej": 290,
      "dł": 291,
      "swo": 292,
      "szcze": 293,
      "Po": 294,
      "nad": 295,
      "lko": 296,
      "zy": 297,
      "łał": 298,
      "nym": 299,
      "myś": 300,
      "rą": 301,
      "rzekł": 302,
      "cia": 303,
      "Edy": 304,
      "og": 305,
      "wó": 306,
      "jący": 307,
      "tylko": 308,
      "Indyan": 309,
      "kę": 310,
      "sko": 311,
      "dro": 312,
      "mnie": 313,
      "cią": 314,
      "był": 315,
      "które": 316,
      "osa": 317,
      "tana": 318,
      "wił": 319,
      "trzy": 320,
      "rzu": 321,
      "czu": 322,
      "ścią": 323,
      "bro": 324,
      "pó": 325,
      "ąd": 326,
      "wać": 327,
      "cił": 328,
      "tego": 329,
      "tych": 330,
      "gę": 331,
      "gro": 332,
      "Rolanda": 333,
      "trze": 334,
      "stro": 335,
      "iż": 336,
      "ażeby": 337,
      "niu": 338,
      "two": 339,
      "śmie": 340,
      "szczę": 341,
      "warzy": 342,
      "en": 343,
      "er": 344,
      "nem": 345,
      "żeli": 346,
      "bra": 347,
      "ję": 348,
      "ką": 349,
      "lo": 350,
      "przed": 351,
      "kro": 352,
      "lę": 353,
      "mor": 354,
      "sy": 355,
      "ano": 356,
      "wszyst": 357,
      "prowa": 358,
      "wą": 359,
      "ście": 360,
      "chwi": 361,
      "stra": 362,
      "zawołał": 363,
      "bu": 364,
      "nak": 365,
      "konie": 366,
      "czą": 367,
      "peł": 368,
      "rwo": 369,
      "szczy": 370,
      "eś": 371,
      "mia": 372,
      "zie": 373,
      "jeszcze": 374,
      "im": 375,
      "ący": 376,
      "sobie": 377,
      "tej": 378,
      "kim": 379,
      "więc": 380,
      "już": 381,
      "wal": 382,
      "zdo": 383,
      "jednak": 384,
      "Osa": 385,
      "ha": 386,
      "mę": 387,
      "nim": 388,
      "było": 389,
      "miał": 390,
      "Je": 391,
      "Te": 392,
      "ten": 393,
      "dał": 394,
      "kry": 395,
      "pę": 396,
      "dź": 397,
      "or": 398,
      "wali": 399,
      "To": 400,
      "dził": 401,
      "cał": 402,
      "poz": 403,
      "dob": 404,
      "kapi": 405,
      "bar": 406,
      "osta": 407,
      "wró": 408,
      "pier": 409,
      "gó": 410,
      "wni": 411,
      "mniej": 412,
      "on": 413,
      "sło": 414,
      "łowie": 415,
      "kier": 416,
      "wej": 417,
      "gów": 418,
      "wę": 419,
      "wnik": 420,
      "zu": 421,
      "dzy": 422,
      "Natana": 423,
      "słu": 424,
      "ona": 425,
      "sły": 426,
      "łko": 427,
      "miejs": 428,
      "cu": 429,
      "wem": 430,
      "Za": 431,
      "py": 432,
      "tru": 433,
      "lecz": 434,
      "towarzy": 435,
      "in": 436,
      "wc": 437,
      "kil": 438,
      "pew": 439,
      "ani": 440,
      "dni": 441,
      "pię": 442,
      "rzał": 443,
      "ność": 444,
      "sam": 445,
      "any": 446,
      "siost": 447,
      "jo": 448,
      "sem": 449,
      "ńst": 450,
      "krzyk": 451,
      "Bra": 452,
      "śli": 453,
      "dzo": 454,
      "mógł": 455,
      "gie": 456,
      "kwa": 457,
      "znaj": 458,
      "nas": 459,
      "człowie": 460,
      "kiego": 461,
      "wła": 462,
      "kona": 463,
      "będzie": 464,
      "dząc": 465,
      "bli": 466,
      "dę": 467,
      "zi": 468,
      "dale": 469,
      "kró": 470,
      "poch": 471,
      "koń": 472,
      "przyja": 473,
      "bezpie": 474,
      "ków": 475,
      "nu": 476,
      "rów": 477,
      "sł": 478,
      "wst": 479,
      "wych": 480,
      "pułko": 481,
      "śmier": 482,
      "Do": 483,
      "drze": 484,
      "nię": 485,
      "ności": 486,
      "puści": 487,
      "gdyby": 488,
      "krót": 489,
      "dłu": 490,
      "konia": 491,
      "odpowie": 492,
      "wego": 493,
      "strzel": 494,
      "gą": 495,
      "niego": 496,
      "pad": 497,
      "Indyani": 498,
      "tam": 499,
      "może": 500,
      "mordo": 501,
      "We": 502,
      "wu": 503,
      "wsze": 504,
      "dzikich": 505,
      "kiedy": 506,
      "Indyanie": 507,
      "Ja": 508,
      "indy": 509,
      "czo": 510,
      "dzić": 511,
      "bił": 512,
      "Osagów": 513,
      "Tel": 514,
      "ców": 515,
      "kra": 516,
      "rem": 517,
      "uj": 518,
      "ód": 519,
      "śla": 520,
      "wol": 521,
      "najmniej": 522,
      "dze": 523,
      "wym": 524,
      "szych": 525,
      "szego": 526,
      "spoko": 527,
      "sku": 528,
      "twa": 529,
      "nieszczę": 530,
      "pole": 531,
      "nich": 532,
      "kiej": 533,
      "koniec": 534,
      "tra": 535,
      "stę": 536,
      "wała": 537,
      "skó": 538,
      "Pu": 539,
      "gu": 540,
      "ser": 541,
      "śnie": 542,
      "jeżeli": 543,
      "wojo": 544,
      "dać": 545,
      "tym": 546,
      "szedł": 547,
      "mój": 548,
      "Czy": 549,
      "mło": 550,
      "oko": 551,
      "prz": 552,
      "potem": 553,
      "dza": 554,
      "nio": 555,
      "leż": 556,
      "non": 557,
      "czyć": 558,
      "między": 559,
      "Wenon": 560,
      "gdzie": 561,
      "są": 562,
      "sła": 563,
      "óż": 564,
      "wią": 565,
      "bym": 566,
      "czył": 567,
      "sia": 568,
      "czerwo": 569,
      "żył": 570,
      "więk": 571,
      "pół": 572,
      "dą": 573,
      "dru": 574,
      "kr": 575,
      "żo": 576,
      "nami": 577,
      "waj": 578,
      "wiel": 579,
      "gdyż": 580,
      "zda": 581,
      "ój": 582,
      "stano": 583,
      "kobie": 584,
      "wiem": 585,
      "nąć": 586,
      "mówił": 587,
      "myśli": 588,
      "Edyta": 589,
      "jących": 590,
      "miast": 591,
      "indyjs": 592,
      "anie": 593,
      "czem": 594,
      "chy": 595,
      "nić": 596,
      "ciu": 597,
      "być": 598,
      "gar": 599,
      "prawie": 600,
      "którego": 601,
      "wcale": 602,
      "Cu": 603,
      "br": 604,
      "mał": 605,
      "łą": 606,
      "cznie": 607,
      "czar": 608,
      "onych": 609,
      "krótce": 610,
      "Telie": 611,
      "Du": 612,
      "tą": 613,
      "szu": 614,
      "chu": 615,
      "tanie": 616,
      "ręce": 617,
      "czas": 618,
      "chwili": 619,
      "czął": 620,
      "tał": 621,
      "myśl": 622,
      "ogni": 623,
      "brze": 624,
      "fi": 625,
      "lą": 626,
      "świa": 627,
      "pomo": 628,
      "nią": 629,
      "była": 630,
      "odpowiedział": 631,
      "ucie": 632,
      "przeci": 633,
      "przera": 634,
      "miesz": 635,
      "biały": 636,
      "ród": 637,
      "kilka": 638,
      "dnie": 639,
      "pomiędzy": 640,
      "stą": 641,
      "ałem": 642,
      "woli": 643,
      "wało": 644,
      "róż": 645,
      "ników": 646,
      "Ralfa": 647,
      "dwie": 648,
      "tnie": 649,
      "śmy": 650,
      "mog": 651,
      "padł": 652,
      "czeńst": 653,
      "gle": 654,
      "ok": 655,
      "pły": 656,
      "so": 657,
      "trz": 658,
      "uwa": 659,
      "nawe": 660,
      "podob": 661,
      "wyda": 662,
      "szyb": 663,
      "ciem": 664,
      "chaty": 665,
      "siekie": 666,
      "której": 667,
      "ących": 668,
      "bezpieczeńst": 669,
      "nawet": 670,
      "Ka": 671,
      "Pi": 672,
      "ski": 673,
      "wro": 674,
      "zar": 675,
      "anki": 676,
      "bied": 677,
      "Puszczy": 678,
      "sha": 679,
      "szcz": 680,
      "chę": 681,
      "pozna": 682,
      "ste": 683,
      "sty": 684,
      "nic": 685,
      "zabi": 686,
      "zapy": 687,
      "dziej": 688,
      "jącego": 689,
      "głę": 690,
      "spokoj": 691,
      "Pianki": 692,
      "Piankisha": 693,
      "Ale": 694,
      "Bo": 695,
      "Przy": 696,
      "dwó": 697,
      "gał": 698,
      "rł": 699,
      "trza": 700,
      "świe": 701,
      "obu": 702,
      "sil": 703,
      "jeden": 704,
      "siebie": 705,
      "lub": 706,
      "trzyma": 707,
      "pełnie": 708,
      "bardzo": 709,
      "przód": 710,
      "Prze": 711,
      "kło": 712,
      "szą": 713,
      "chci": 714,
      "stu": 715,
      "wany": 716,
      "odwa": 717,
      "mówi": 718,
      "ziemi": 719,
      "kwakier": 720,
      "Bru": 721,
      "bla": 722,
      "opo": 723,
      "xle": 724,
      "nił": 725,
      "rzeki": 726,
      "zamordo": 727,
      "kami": 728,
      "odrzekł": 729,
      "praw": 730,
      "Braxle": 731,
      "pochwy": 732,
      "przyjacie": 733,
      "aniel": 734,
      "dwóch": 735,
      "Bruce": 736,
      "Braxley": 737,
      "trwo": 738,
      "niez": 739,
      "stwo": 740,
      "dok": 741,
      "kać": 742,
      "noc": 743,
      "moż": 744,
      "teraz": 745,
      "musi": 746,
      "rzuci": 747,
      "pułkowni": 748,
      "tk": 749,
      "szem": 750,
      "poło": 751,
      "stał": 752,
      "koni": 753,
      "jem": 754,
      "aną": 755,
      "nością": 756,
      "star": 757,
      "jestem": 758,
      "strasz": 759,
      "kapitan": 760,
      "Indyanina": 761,
      "wojownik": 762,
      "przeciw": 763,
      "Wy": 764,
      "jcie": 765,
      "om": 766,
      "um": 767,
      "ws": 768,
      "wło": 769,
      "zło": 770,
      "śród": 771,
      "chce": 772,
      "poko": 773,
      "posta": 774,
      "jeń": 775,
      "dzicy": 776,
      "dzieć": 777,
      "rozpa": 778,
      "spodzie": 779,
      "ciaż": 780,
      "krop": 781,
      "słowa": 782,
      "zupełnie": 783,
      "Doe": 784,
      "szybko": 785,
      "isto": 786,
      "wkrótce": 787,
      "zwy": 788,
      "ół": 789,
      "śro": 790,
      "rzą": 791,
      "robi": 792,
      "godzi": 793,
      "lił": 794,
      "szym": 795,
      "mienie": 796,
      "szej": 797,
      "bowiem": 798,
      "nęła": 799,
      "głosem": 800,
      "der": 801,
      "rzucił": 802,
      "groma": 803,
      "wszystko": 804,
      "Jeżeli": 805,
      "For": 806,
      "Gdy": 807,
      "Sta": 808,
      "Ty": 809,
      "gnął": 810,
      "lem": 811,
      "swych": 812,
      "wra": 813,
      "ór": 814,
      "nam": 815,
      "nadzie": 816,
      "wania": 817,
      "dając": 818,
      "dzieci": 819,
      "oba": 820,
      "szep": 821,
      "rękę": 822,
      "chociaż": 823,
      "entu": 824,
      "wróci": 825,
      "dalej": 826,
      "Forre": 827,
      "aż": 828,
      "bły": 829,
      "ck": 830,
      "dem": 831,
      "dwaj": 832,
      "oka": 833,
      "rp": 834,
      "tka": 835,
      "ukry": 836,
      "niebezpieczeńst": 837,
      "mimo": 838,
      "dzia": 839,
      "przekona": 840,
      "mier": 841,
      "sił": 842,
      "resz": 843,
      "wód": 844,
      "strony": 845,
      "gnie": 846,
      "okrop": 847,
      "pło": 848,
      "tro": 849,
      "try": 850,
      "żony": 851,
      "chem": 852,
      "strz": 853,
      "zapew": 854,
      "wanie": 855,
      "wając": 856,
      "dowi": 857,
      "byś": 858,
      "kara": 859,
      "czej": 860,
      "którzy": 861,
      "ostro": 862,
      "Edyty": 863,
      "tychmiast": 864,
      "prowadzi": 865,
      "kapitana": 866,
      "krzyknął": 867,
      "stąpi": 868,
      "Czar": 869,
      "Le": 870,
      "Wi": 871,
      "gru": 872,
      "spie": 873,
      "tki": 874,
      "zwie": 875,
      "szcza": 876,
      "potrze": 877,
      "zaczął": 878,
      "ode": 879,
      "wały": 880,
      "roztrza": 881,
      "życie": 882,
      "czasu": 883,
      "razie": 884,
      "bardziej": 885,
      "miejsca": 886,
      "świad": 887,
      "można": 888,
      "Stack": 889,
      "By": 890,
      "Wie": 891,
      "kto": 892,
      "krza": 893,
      "swej": 894,
      "tąd": 895,
      "twarzy": 896,
      "wsi": 897,
      "wrza": 898,
      "zł": 899,
      "óg": 900,
      "ósł": 901,
      "cio": 902,
      "rado": 903,
      "kol": 904,
      "jakie": 905,
      "głu": 906,
      "sobą": 907,
      "osad": 908,
      "zdoła": 909,
      "męż": 910,
      "Tom": 911,
      "kilku": 912,
      "puścił": 913,
      "zapytał": 914,
      "środ": 915,
      "Stackpole": 916,
      "Sę": 917,
      "nku": 918,
      "pry": 919,
      "nieco": 920,
      "natychmiast": 921,
      "niósł": 922,
      "rodzi": 923,
      "wam": 924,
      "koło": 925,
      "każ": 926,
      "dziew": 927,
      "cej": 928,
      "rępo": 929,
      "żyje": 930,
      "rew": 931,
      "Niech": 932,
      "których": 933,
      "osady": 934,
      "dobrze": 935,
      "Bracie": 936,
      "nieszczęśli": 937,
      "białych": 938,
      "aby": 939,
      "dli": 940,
      "kła": 941,
      "nóż": 942,
      "oczy": 943,
      "pła": 944,
      "tch": 945,
      "ude": 946,
      "nagle": 947,
      "stry": 948,
      "dzę": 949,
      "zale": 950,
      "wami": 951,
      "dostrze": 952,
      "rami": 953,
      "mil": 954,
      "szyć": 955,
      "mam": 956,
      "którą": 957,
      "cięż": 958,
      "jącym": 959,
      "broni": 960,
      "pozosta": 961,
      "włas": 962,
      "pułkownik": 963,
      "śmierci": 964,
      "wojowników": 965,
      "Lecz": 966,
      "Ce": 967,
      "Ta": 968,
      "ali": 969,
      "bój": 970,
      "cem": 971,
      "scy": 972,
      "zem": 973,
      "znik": 974,
      "napo": 975,
      "pow": 976,
      "zaś": 977,
      "ran": 978,
      "widząc": 979,
      "wyra": 980,
      "żenia": 981,
      "ące": 982,
      "dziwie": 983,
      "taj": 984,
      "jaki": 985,
      "ciebie": 986,
      "jakby": 987,
      "puszczy": 988,
      "więcej": 989,
      "szak": 990,
      "głos": 991,
      "wój": 992,
      "ziemię": 993,
      "strzelby": 994,
      "stęp": 995,
      "Cukier": 996,
      "szepnął": 997,
      "Co": 998,
      "cę": 999,
      "księ": 1000,
      "oni": 1001,
      "wcią": 1002,
      "wście": 1003,
      "zbro": 1004,
      "zbli": 1005,
      "chał": 1006,
      "pom": 1007,
      "strzał": 1008,
      "was": 1009,
      "dosta": 1010,
      "dodał": 1011,
      "ane": 1012,
      "wio": 1013,
      "rzył": 1014,
      "żenie": 1015,
      "wier": 1016,
      "ącego": 1017,
      "szył": 1018,
      "dal": 1019,
      "nocy": 1020,
      "jące": 1021,
      "mieni": 1022,
      "stary": 1023,
      "która": 1024,
      "najwięk": 1025,
      "ską": 1026,
      "coraz": 1027,
      "jednego": 1028,
      "głowę": 1029,
      "czupry": 1030,
      "wszystkie": 1031,
      "wszystkich": 1032,
      "piersi": 1033,
      "pięk": 1034,
      "wstrzy": 1035,
      "stanowi": 1036,
      "Dzi": 1037,
      "dr": 1038,
      "ge": 1039,
      "me": 1040,
      "okrzyk": 1041,
      "swego": 1042,
      "tni": 1043,
      "uro": 1044,
      "wska": 1045,
      "zd": 1046,
      "żem": 1047,
      "rzę": 1048,
      "powi": 1049,
      "stwa": 1050,
      "były": 1051,
      "żej": 1052,
      "przewo": 1053,
      "też": 1054,
      "mienia": 1055,
      "obro": 1056,
      "skał": 1057,
      "sposob": 1058,
      "wzro": 1059,
      "wiada": 1060,
      "będę": 1061,
      "Edytę": 1062,
      "wrócił": 1063,
      "człowiek": 1064,
      "Wenonga": 1065,
      "pomoc": 1066,
      "Piankishaw": 1067,
      "chciał": 1068,
      "wraca": 1069,
      "IA": 1070,
      "Od": 1071,
      "brzy": 1072,
      "ota": 1073,
      "pnia": 1074,
      "sch": 1075,
      "sów": 1076,
      "spa": 1077,
      "uczy": 1078,
      "umie": 1079,
      "zał": 1080,
      "żni": 1081,
      "napa": 1082,
      "naprzód": 1083,
      "szę": 1084,
      "dzię": 1085,
      "waż": 1086,
      "jako": 1087,
      "bieg": 1088,
      "szar": 1089,
      "jesteś": 1090,
      "działem": 1091,
      "swoje": 1092,
      "drogi": 1093,
      "groź": 1094,
      "morder": 1095,
      "zdoby": 1096,
      "miejsce": 1097,
      "siostrę": 1098,
      "właśnie": 1099,
      "Bóg": 1100,
      "DZ": 1101,
      "Dż": 1102,
      "OZ": 1103,
      "ROZ": 1104,
      "bą": 1105,
      "gwał": 1106,
      "ią": 1107,
      "oj": 1108,
      "pró": 1109,
      "rwa": 1110,
      "tów": 1111,
      "zosta": 1112,
      "niezawo": 1113,
      "nakoniec": 1114,
      "czał": 1115,
      "chło": 1116,
      "potę": 1117,
      "goto": 1118,
      "dowo": 1119,
      "domu": 1120,
      "dopó": 1121,
      "lito": 1122,
      "liśmy": 1123,
      "wić": 1124,
      "nymi": 1125,
      "przesz": 1126,
      "tow": 1127,
      "dziel": 1128,
      "czyła": 1129,
      "pal": 1130,
      "ścia": 1131,
      "stam": 1132,
      "masz": 1133,
      "ręką": 1134,
      "życia": 1135,
      "rek": 1136,
      "czasem": 1137,
      "ostał": 1138,
      "wzią": 1139,
      "Indyanami": 1140,
      "równie": 1141,
      "Indyanin": 1142,
      "wszel": 1143,
      "drugi": 1144,
      "krwa": 1145,
      "czarno": 1146,
      "ostroż": 1147,
      "wciąż": 1148,
      "IAŁ": 1149,
      "DZIAŁ": 1150,
      "ROZDZIAŁ": 1151,
      "niezawodnie": 1152,
      "Bro": 1153,
      "dwu": 1154,
      "gra": 1155,
      "hu": 1156,
      "id": 1157,
      "krew": 1158,
      "oca": 1159,
      "ofi": 1160,
      "rwał": 1161,
      "usi": 1162,
      "ób": 1163,
      "robił": 1164,
      "zanim": 1165,
      "gor": 1166,
      "wana": 1167,
      "dowie": 1168,
      "licz": 1169,
      "widok": 1170,
      "legł": 1171,
      "wodza": 1172,
      "dziki": 1173,
      "dzikiego": 1174,
      "łatwo": 1175,
      "daw": 1176,
      "nosa": 1177,
      "przyczy": 1178,
      "Nakoniec": 1179,
      "piero": 1180,
      "skrępo": 1181,
      "nęli": 1182,
      "razem": 1183,
      "bene": 1184,
      "duje": 1185,
      "którym": 1186,
      "rąk": 1187,
      "broń": 1188,
      "stronę": 1189,
      "szczęśli": 1190,
      "walki": 1191,
      "człowieka": 1192,
      "około": 1193,
      "kobiet": 1194,
      "mieszka": 1195,
      "Kapi": 1196,
      "niezmier": 1197,
      "kolwie": 1198,
      "osadników": 1199,
      "gwałtow": 1200,
      "Kentu": 1201,
      "Ry": 1202,
      "bbene": 1203,
      "dła": 1204,
      "ibbene": 1205,
      "lnie": 1206,
      "nne": 1207,
      "owi": 1208,
      "oby": 1209,
      "smu": 1210,
      "zn": 1211,
      "zgi": 1212,
      "nieprzyjacie": 1213,
      "nara": 1214,
      "szał": 1215,
      "zaczę": 1216,
      "zatrzy": 1217,
      "war": 1218,
      "ratu": 1219,
      "lić": 1220,
      "lenia": 1221,
      "wypra": 1222,
      "przek": 1223,
      "odź": 1224,
      "mień": 1225,
      "obe": 1226,
      "obo": 1227,
      "łych": 1228,
      "gami": 1229,
      "biegł": 1230,
      "podróż": 1231,
      "chodzi": 1232,
      "ludz": 1233,
      "krzyki": 1234,
      "swoją": 1235,
      "drogę": 1236,
      "gęst": 1237,
      "krotnie": 1238,
      "walczyć": 1239,
      "siostry": 1240,
      "kwakra": 1241,
      "twarz": 1242,
      "Wenongi": 1243,
      "Duch": 1244,
      "pomocy": 1245,
      "pułkownika": 1246,
      "Dżibbene": 1247,
      "czarnoksię": 1248,
      "ofia": 1249,
      "kolwiek": 1250,
      "Dżibbenenosa": 1251,
      "Daniel": 1252,
      "Wszy": 1253,
      "ek": 1254,
      "one": 1255,
      "prę": 1256,
      "sób": 1257,
      "napeł": 1258,
      "pomimo": 1259,
      "ster": 1260,
      "rom": 1261,
      "god": 1262,
      "wane": 1263,
      "dopiero": 1264,
      "raczej": 1265,
      "kom": 1266,
      "lepie": 1267,
      "wydo": 1268,
      "byli": 1269,
      "kaj": 1270,
      "moje": 1271,
      "moją": 1272,
      "tek": 1273,
      "tedy": 1274,
      "Natanie": 1275,
      "żyć": 1276,
      "nęło": 1277,
      "wzgó": 1278,
      "ciąg": 1279,
      "nemu": 1280,
      "kobiety": 1281,
      "mogli": 1282,
      "Kentuk": 1283,
      "Ra": 1284,
      "Sło": 1285,
      "krę": 1286,
      "ono": 1287,
      "pan": 1288,
      "zwoli": 1289,
      "śpie": 1290,
      "żą": 1291,
      "niesi": 1292,
      "nale": 1293,
      "czki": 1294,
      "nigdy": 1295,
      "zaro": 1296,
      "dotąd": 1297,
      "liwie": 1298,
      "kolo": 1299,
      "lek": 1300,
      "woje": 1301,
      "nek": 1302,
      "cież": 1303,
      "cierp": 1304,
      "patrz": 1305,
      "obej": 1306,
      "kury": 1307,
      "wszyscy": 1308,
      "puszcza": 1309,
      "niejsze": 1310,
      "spoj": 1311,
      "jedno": 1312,
      "onym": 1313,
      "wzię": 1314,
      "żając": 1315,
      "swobo": 1316,
      "swoich": 1317,
      "osadni": 1318,
      "póź": 1319,
      "trud": 1320,
      "pięciu": 1321,
      "znajdo": 1322,
      "będziesz": 1323,
      "serca": 1324,
      "wojowni": 1325,
      "Ducha": 1326,
      "głębo": 1327,
      "pochwycił": 1328,
      "chcesz": 1329,
      "zwycię": 1330,
      "zapewne": 1331,
      "roztrzaska": 1332,
      "wściekło": 1333,
      "przewodni": 1334,
      "Dla": 1335,
      "dło": 1336,
      "skiej": 1337,
      "tku": 1338,
      "zg": 1339,
      "zwa": 1340,
      "łem": 1341,
      "niena": 1342,
      "nach": 1343,
      "naszych": 1344,
      "postano": 1345,
      "stem": 1346,
      "niał": 1347,
      "zamia": 1348,
      "ciół": 1349,
      "koła": 1350,
      "jeź": 1351,
      "widzi": 1352,
      "miało": 1353,
      "przestra": 1354,
      "tom": 1355,
      "kieru": 1356,
      "dzień": 1357,
      "mogę": 1358,
      "czego": 1359,
      "czenia": 1360,
      "olbrzy": 1361,
      "Rolandowi": 1362,
      "mar": 1363,
      "bole": 1364,
      "głów": 1365,
      "niejszy": 1366,
      "nikt": 1367,
      "rzawszy": 1368,
      "ognia": 1369,
      "skoczył": 1370,
      "grom": 1371,
      "kroków": 1372,
      "chwila": 1373,
      "całą": 1374,
      "górę": 1375,
      "miejscu": 1376,
      "przyjaciół": 1377,
      "długo": 1378,
      "skór": 1379,
      "siada": 1380,
      "brał": 1381,
      "jeńca": 1382,
      "nadzieję": 1383,
      "strzały": 1384,
      "dopóki": 1385,
      "Ryszar": 1386,
      "Kentuky": 1387,
      "Col": 1388,
      "Pa": 1389,
      "Wszak": 1390,
      "cała": 1391,
      "dała": 1392,
      "dało": 1393,
      "grz": 1394,
      "iz": 1395,
      "kł": 1396,
      "opuści": 1397,
      "plem": 1398,
      "snął": 1399,
      "tłu": 1400,
      "uda": 1401,
      "usłu": 1402,
      "zbu": 1403,
      "zwali": 1404,
      "łała": 1405,
      "niż": 1406,
      "cicho": 1407,
      "jecha": 1408,
      "anę": 1409,
      "widział": 1410,
      "wieś": 1411,
      "dziw": 1412,
      "jakim": 1413,
      "kierek": 1414,
      "nosi": 1415,
      "oddział": 1416,
      "moc": 1417,
      "moja": 1418,
      "testam": 1419,
      "lat": 1420,
      "lach": 1421,
      "lasu": 1422,
      "mają": 1423,
      "rozpo": 1424,
      "czasz": 1425,
      "chacie": 1426,
      "ludzi": 1427,
      "den": 1428,
      "żar": 1429,
      "droga": 1430,
      "bracie": 1431,
      "prowadził": 1432,
      "słysze": 1433,
      "giel": 1434,
      "śmierć": 1435,
      "ujrzał": 1436,
      "ślady": 1437,
      "drugie": 1438,
      "krwi": 1439,
      "Cukierek": 1440,
      "okru": 1441,
      "silnie": 1442,
      "współ": 1443,
      "istocie": 1444,
      "Forreste": 1445,
      "zaledwie": 1446,
      "wstrzyma": 1447,
      "Brodu": 1448,
      "cierpli": 1449,
      "Colbr": 1450,
      "Gór": 1451,
      "Pod": 1452,
      "Ser": 1453,
      "Tu": 1454,
      "cąc": 1455,
      "kał": 1456,
      "pano": 1457,
      "twie": 1458,
      "uka": 1459,
      "uczu": 1460,
      "wśród": 1461,
      "zrobi": 1462,
      "ień": 1463,
      "nastu": 1464,
      "szczu": 1465,
      "czte": 1466,
      "stało": 1467,
      "rzecz": 1468,
      "rzenia": 1469,
      "zamie": 1470,
      "zamiast": 1471,
      "rato": 1472,
      "koch": 1473,
      "jechał": 1474,
      "lep": 1475,
      "lesie": 1476,
      "wyż": 1477,
      "wypad": 1478,
      "dych": 1479,
      "kach": 1480,
      "dzieli": 1481,
      "dziedzi": 1482,
      "paro": 1483,
      "obok": 1484,
      "przypa": 1485,
      "przynajmniej": 1486,
      "stanie": 1487,
      "rusze": 1488,
      "którem": 1489,
      "gad": 1490,
      "jaką": 1491,
      "spoczy": 1492,
      "sposób": 1493,
      "nęły": 1494,
      "tutaj": 1495,
      "nadto": 1496,
      "ogień": 1497,
      "wódz": 1498,
      "ądź": 1499,
      "pierwszy": 1500,
      "bliz": 1501,
      "bezpiecz": 1502,
      "drzewa": 1503,
      "czerwone": 1504,
      "spokojnie": 1505,
      "przeciwko": 1506,
      "Forrester": 1507,
      "środku": 1508,
      "dostrzegł": 1509,
      "Tak": 1510,
      "Kapitan": 1511,
      "czarnoksiężni": 1512,
      "postanowił": 1513,
      "Colbrid": 1514,
      "Ku": 1515,
      "Ma": 1516,
      "Wkrótce": 1517,
      "bła": 1518,
      "drz": 1519,
      "ia": 1520,
      "krze": 1521,
      "mną": 1522,
      "mało": 1523,
      "mniem": 1524,
      "pem": 1525,
      "tr": 1526,
      "twej": 1527,
      "usły": 1528,
      "wpły": 1529,
      "zę": 1530,
      "łó": 1531,
      "ńców": 1532,
      "żał": 1533,
      "żny": 1534,
      "niec": 1535,
      "niewia": 1536,
      "szony": 1537,
      "szczą": 1538,
      "czci": 1539,
      "pogo": 1540,
      "staną": 1541,
      "dzą": 1542,
      "nimi": 1543,
      "zab": 1544,
      "zabił": 1545,
      "wanych": 1546,
      "walecz": 1547,
      "doli": 1548,
      "dokoła": 1549,
      "cić": 1550,
      "kon": 1551,
      "wości": 1552,
      "wien": 1553,
      "wierz": 1554,
      "dzili": 1555,
      "działa": 1556,
      "przej": 1557,
      "takim": 1558,
      "jakiego": 1559,
      "nogi": 1560,
      "cieka": 1561,
      "tecz": 1562,
      "tyle": 1563,
      "pana": 1564,
      "nąwszy": 1565,
      "przyj": 1566,
      "bić": 1567,
      "biera": 1568,
      "skra": 1569,
      "pewien": 1570,
      "głową": 1571,
      "dek": 1572,
      "zdołał": 1573,
      "towarzyszy": 1574,
      "towarzysza": 1575,
      "daleko": 1576,
      "wstrę": 1577,
      "drzew": 1578,
      "czone": 1579,
      "leżał": 1580,
      "różno": 1581,
      "Kamie": 1582,
      "poznał": 1583,
      "trzymać": 1584,
      "przekonał": 1585,
      "potrzeb": 1586,
      "mężczy": 1587,
      "dziewczę": 1588,
      "powtó": 1589,
      "nieprzyjaciela": 1590,
      "gęstwi": 1591,
      "Dżibbenenosah": 1592,
      "Ch": 1593,
      "Gdzie": 1594,
      "II": 1595,
      "Kwa": 1596,
      "Ni": 1597,
      "Trze": 1598,
      "cały": 1599,
      "dnia": 1600,
      "et": 1601,
      "gli": 1602,
      "gry": 1603,
      "nki": 1604,
      "ogar": 1605,
      "pla": 1606,
      "psi": 1607,
      "skie": 1608,
      "tkiem": 1609,
      "ust": 1610,
      "uśmie": 1611,
      "uwol": 1612,
      "wpraw": 1613,
      "zno": 1614,
      "zwrócił": 1615,
      "zrobił": 1616,
      "ąb": 1617,
      "łe": 1618,
      "łę": 1619,
      "śle": 1620,
      "niech": 1621,
      "niepo": 1622,
      "niebo": 1623,
      "niewol": 1624,
      "czony": 1625,
      "pog": 1626,
      "poprze": 1627,
      "pokry": 1628,
      "począł": 1629,
      "nicy": 1630,
      "rzeć": 1631,
      "doświad": 1632,
      "wysta": 1633,
      "wością": 1634,
      "wiesz": 1635,
      "przeby": 1636,
      "nowo": 1637,
      "czyna": 1638,
      "lazł": 1639,
      "jącej": 1640,
      "mieniem": 1641,
      "parę": 1642,
      "pamię": 1643,
      "przyby": 1644,
      "szero": 1645,
      "cenia": 1646,
      "żyła": 1647,
      "gając": 1648,
      "coś": 1649,
      "nędz": 1650,
      "tuż": 1651,
      "chaj": 1652,
      "choć": 1653,
      "znale": 1654,
      "także": 1655,
      "dej": 1656,
      "stopnia": 1657,
      "drodze": 1658,
      "osadzie": 1659,
      "trzech": 1660,
      "trzeba": 1661,
      "prowadzić": 1662,
      "Teli": 1663,
      "kapitanie": 1664,
      "zując": 1665,
      "strzelbę": 1666,
      "możesz": 1667,
      "trafi": 1668,
      "skóry": 1669,
      "serce": 1670,
      "wiąza": 1671,
      "siekierą": 1672,
      "Braxleya": 1673,
      "Tym": 1674,
      "dziawszy": 1675,
      "tchó": 1676,
      "wyraź": 1677,
      "dziwieniem": 1678,
      "sposobem": 1679,
      "uczynił": 1680,
      "litości": 1681,
      "huk": 1682,
      "Wszyst": 1683,
      "lepiej": 1684,
      "kuryku": 1685,
      "Forrestera": 1686,
      "Colbridge": 1687,
      "Kwakier": 1688,
      "Kie": 1689,
      "Mi": 1690,
      "No": 1691,
      "cą": 1692,
      "dwa": 1693,
      "dra": 1694,
      "jów": 1695,
      "oto": 1696,
      "próżno": 1697,
      "rna": 1698,
      "sę": 1699,
      "skiem": 1700,
      "wpadł": 1701,
      "zrę": 1702,
      "zgu": 1703,
      "nienia": 1704,
      "niepodob": 1705,
      "naz": 1706,
      "szli": 1707,
      "czka": 1708,
      "chwy": 1709,
      "poza": 1710,
      "poczem": 1711,
      "stąd": 1712,
      "zapa": 1713,
      "gowi": 1714,
      "dostał": 1715,
      "dozwoli": 1716,
      "ciwszy": 1717,
      "liwy": 1718,
      "anej": 1719,
      "angiel": 1720,
      "wig": 1721,
      "wyru": 1722,
      "wycza": 1723,
      "łoży": 1724,
      "miło": 1725,
      "wiedz": 1726,
      "tach": 1727,
      "szyli": 1728,
      "jaś": 1729,
      "jącą": 1730,
      "przytom": 1731,
      "czeka": 1732,
      "czeniu": 1733,
      "sach": 1734,
      "samo": 1735,
      "Rolandzie": 1736,
      "stare": 1737,
      "ręku": 1738,
      "gato": 1739,
      "pia": 1740,
      "niejszych": 1741,
      "spotka": 1742,
      "chatę": 1743,
      "chodząc": 1744,
      "znasz": 1745,
      "skal": 1746,
      "powiedziawszy": 1747,
      "rzekę": 1748,
      "zawołała": 1749,
      "swoim": 1750,
      "skoń": 1751,
      "stron": 1752,
      "twoje": 1753,
      "brata": 1754,
      "chwilę": 1755,
      "pędził": 1756,
      "dźwie": 1757,
      "innych": 1758,
      "wców": 1759,
      "aniżeli": 1760,
      "giem": 1761,
      "człowiekiem": 1762,
      "Jak": 1763,
      "szukać": 1764,
      "brzegu": 1765,
      "Boże": 1766,
      "gałę": 1767,
      "zamordować": 1768,
      "musiał": 1769,
      "starał": 1770,
      "jciec": 1771,
      "umf": 1772,
      "okazy": 1773,
      "reszcie": 1774,
      "tryumf": 1775,
      "Czarnego": 1776,
      "Ceza": 1777,
      "aligato": 1778,
      "jakiś": 1779,
      "mery": 1780,
      "urope": 1781,
      "prócz": 1782,
      "koloni": 1783,
      "nienawi": 1784,
      "Górnego": 1785,
      "drzwi": 1786,
      "Tymczasem": 1787,
      "Kiedy": 1788,
      "Br": 1789,
      "Cóż": 1790,
      "Oto": 1791,
      "Zda": 1792,
      "Zale": 1793,
      "błą": 1794,
      "gła": 1795,
      "kle": 1796,
      "ląd": 1797,
      "nąc": 1798,
      "oną": 1799,
      "ocze": 1800,
      "opie": 1801,
      "otu": 1802,
      "opowie": 1803,
      "pał": 1804,
      "swe": 1805,
      "sprawie": 1806,
      "twy": 1807,
      "twój": 1808,
      "wdzię": 1809,
      "zwło": 1810,
      "zwróci": 1811,
      "został": 1812,
      "żało": 1813,
      "żonych": 1814,
      "niespodzie": 1815,
      "nadz": 1816,
      "nazy": 1817,
      "nastąpi": 1818,
      "por": 1819,
      "pono": 1820,
      "dzej": 1821,
      "niony": 1822,
      "zaj": 1823,
      "cisza": 1824,
      "ciało": 1825,
      "ramię": 1826,
      "mio": 1827,
      "żeś": 1828,
      "wiecz": 1829,
      "wiedział": 1830,
      "wiedzieć": 1831,
      "przepra": 1832,
      "przecież": 1833,
      "damy": 1834,
      "tobą": 1835,
      "cier": 1836,
      "odpa": 1837,
      "czyli": 1838,
      "mojego": 1839,
      "tel": 1840,
      "sią": 1841,
      "siod": 1842,
      "sami": 1843,
      "pies": 1844,
      "rozmo": 1845,
      "murzy": 1846,
      "reu": 1847,
      "puszcz": 1848,
      "razu": 1849,
      "nikczem": 1850,
      "części": 1851,
      "temu": 1852,
      "prag": 1853,
      "lud": 1854,
      "głoś": 1855,
      "skawi": 1856,
      "ostrze": 1857,
      "sunął": 1858,
      "będą": 1859,
      "ciągnął": 1860,
      "twoich": 1861,
      "lęka": 1862,
      "wąt": 1863,
      "ącym": 1864,
      "kryjów": 1865,
      "pęk": 1866,
      "wrót": 1867,
      "pierś": 1868,
      "towarzysz": 1869,
      "towarzysze": 1870,
      "bliż": 1871,
      "wychodź": 1872,
      "tamten": 1873,
      "ślado": 1874,
      "najmniejszego": 1875,
      "dzenie": 1876,
      "dzenia": 1877,
      "stępo": 1878,
      "młod": 1879,
      "okoli": 1880,
      "czerwonym": 1881,
      "zdawało": 1882,
      "indyjskich": 1883,
      "mogąc": 1884,
      "wroga": 1885,
      "świecie": 1886,
      "opowiada": 1887,
      "postać": 1888,
      "błyskawi": 1889,
      "niebezpieczeństwa": 1890,
      "Czarny": 1891,
      "Sępa": 1892,
      "Dzicy": 1893,
      "wskazując": 1894,
      "wracając": 1895,
      "wojen": 1896,
      "przewodnika": 1897,
      "jeźdź": 1898,
      "olbrzymi": 1899,
      "Kukuryku": 1900,
      "iareu": 1901,
      "znowu": 1902,
      "wyczaj": 1903,
      "Briareu": 1904,
      "Zaledwie": 1905,
      "nadzwyczaj": 1906,
      "Atki": 1907,
      "Dob": 1908,
      "Krwa": 1909,
      "Rze": 1910,
      "gląd": 1911,
      "ile": 1912,
      "mem": 1913,
      "ns": 1914,
      "nó": 1915,
      "nów": 1916,
      "oru": 1917,
      "onego": 1918,
      "oczu": 1919,
      "okry": 1920,
      "odzy": 1921,
      "okrzyki": 1922,
      "rnie": 1923,
      "swym": 1924,
      "uż": 1925,
      "urato": 1926,
      "ukoch": 1927,
      "wca": 1928,
      "wreszcie": 1929,
      "zwięk": 1930,
      "śnię": 1931,
      "nieprzyjaciół": 1932,
      "niecierpli": 1933,
      "szło": 1934,
      "pomordo": 1935,
      "powróci": 1936,
      "stru": 1937,
      "ałego": 1938,
      "rzeczy": 1939,
      "zabra": 1940,
      "zagad": 1941,
      "wanego": 1942,
      "domo": 1943,
      "kogo": 1944,
      "kowi": 1945,
      "jedy": 1946,
      "anego": 1947,
      "wiła": 1948,
      "wiod": 1949,
      "wisi": 1950,
      "lenie": 1951,
      "wyswobo": 1952,
      "dya": 1953,
      "mina": 1954,
      "miała": 1955,
      "wody": 1956,
      "dziła": 1957,
      "tami": 1958,
      "dziesię": 1959,
      "dziera": 1960,
      "moich": 1961,
      "ściga": 1962,
      "siły": 1963,
      "czegó": 1964,
      "mając": 1965,
      "rozma": 1966,
      "rozległ": 1967,
      "biali": 1968,
      "żywszy": 1969,
      "pis": 1970,
      "pił": 1971,
      "głąb": 1972,
      "skąd": 1973,
      "com": 1974,
      "spostrze": 1975,
      "razy": 1976,
      "siedzi": 1977,
      "albo": 1978,
      "szczegó": 1979,
      "drogą": 1980,
      "byłby": 1981,
      "trzymał": 1982,
      "rzuca": 1983,
      "szczęście": 1984,
      "nemi": 1985,
      "brat": 1986,
      "koniecznie": 1987,
      "Osago": 1988,
      "całej": 1989,
      "ostat": 1990,
      "ństwo": 1991,
      "znajduje": 1992,
      "końcu": 1993,
      "słów": 1994,
      "wstrzą": 1995,
      "śmiercią": 1996,
      "spokoi": 1997,
      "twar": 1998,
      "nieszczęście": 1999,
      "leżało": 2000,
      "indyjskiej": 2001,
      "brzeg": 2002,
      "świat": 2003,
      "przeraź": 2004,
      "ciemności": 2005,
      "wrogów": 2006,
      "Piankishawa": 2007,
      "rozpaczy": 2008,
      "godziny": 2009,
      "grucho": 2010,
      "odez": 2011,
      "Był": 2012,
      "cios": 2013,
      "radości": 2014,
      "Cezar": 2015,
      "Cukierka": 2016,
      "czupryny": 2017,
      "wzrokiem": 2018,
      "łatwością": 2019,
      "szczęśliwie": 2020,
      "Słonej": 2021,
      "zarośla": 2022,
      "kierunku": 2023,
      "Patrz": 2024,
      "słyszeć": 2025,
      "pogrą": 2026,
      "Niż": 2027,
      "Sa": 2028,
      "cór": 2029,
      "glą": 2030,
      "kły": 2031,
      "knął": 2032,
      "knię": 2033,
      "mru": 2034,
      "ocza": 2035,
      "okiem": 2036,
      "psa": 2037,
      "sny": 2038,
      "skich": 2039,
      "swą": 2040,
      "swój": 2041,
      "usta": 2042,
      "uży": 2043,
      "udało": 2044,
      "zdziwieniem": 2045,
      "łów": 2046,
      "ńca": 2047,
      "niedo": 2048,
      "niekiedy": 2049,
      "niechę": 2050,
      "nada": 2051,
      "napróżno": 2052,
      "szka": 2053,
      "czne": 2054,
      "chró": 2055,
      "chcąc": 2056,
      "począ": 2057,
      "posiada": 2058,
      "nij": 2059,
      "rzenie": 2060,
      "rzeniem": 2061,
      "zam": 2062,
      "zach": 2063,
      "zasa": 2064,
      "zacho": 2065,
      "zaję": 2066,
      "waru": 2067,
      "doj": 2068,
      "rady": 2069,
      "win": 2070,
      "wiony": 2071,
      "widać": 2072,
      "leś": 2073,
      "rzyć": 2074,
      "wyj": 2075,
      "wyba": 2076,
      "wycię": 2077,
      "woła": 2078,
      "wiele": 2079,
      "dzikim": 2080,
      "szysz": 2081,
      "dam": 2082,
      "noża": 2083,
      "oddał": 2084,
      "ówczas": 2085,
      "rył": 2086,
      "mojej": 2087,
      "las": 2088,
      "mieli": 2089,
      "pasto": 2090,
      "przykła": 2091,
      "któż": 2092,
      "rozumie": 2093,
      "najwyż": 2094,
      "czasie": 2095,
      "skła": 2096,
      "per": 2097,
      "Natanowi": 2098,
      "często": 2099,
      "prawo": 2100,
      "znalazł": 2101,
      "zer": 2102,
      "głowie": 2103,
      "decznie": 2104,
      "powiedz": 2105,
      "sumienie": 2106,
      "stole": 2107,
      "swojego": 2108,
      "Powiedz": 2109,
      "myśle": 2110,
      "ciął": 2111,
      "stronie": 2112,
      "budo": 2113,
      "męczar": 2114,
      "Jed": 2115,
      "Teraz": 2116,
      "pozba": 2117,
      "pozwoli": 2118,
      "pozostał": 2119,
      "słusz": 2120,
      "trupa": 2121,
      "anym": 2122,
      "anych": 2123,
      "siostra": 2124,
      "będziemy": 2125,
      "dłużej": 2126,
      "twarze": 2127,
      "Czyż": 2128,
      "myślał": 2129,
      "ognisko": 2130,
      "kilkakrotnie": 2131,
      "uwagę": 2132,
      "siekiery": 2133,
      "siekierę": 2134,
      "biedne": 2135,
      "głębi": 2136,
      "mówić": 2137,
      "anielskiej": 2138,
      "trwogi": 2139,
      "rzucili": 2140,
      "pułkowniku": 2141,
      "postaci": 2142,
      "strzała": 2143,
      "zwierzę": 2144,
      "Sęp": 2145,
      "każdy": 2146,
      "zemsty": 2147,
      "Cukierku": 2148,
      "drż": 2149,
      "otacza": 2150,
      "schro": 2151,
      "przyczyny": 2152,
      "niezmiernie": 2153,
      "ratunku": 2154,
      "osadnicy": 2155,
      "plemie": 2156,
      "drugiej": 2157,
      "okrut": 2158,
      "wstrzymać": 2159,
      "parowu": 2160,
      "mniemał": 2161,
      "wprawdzie": 2162,
      "starego": 2163,
      "gałęzi": 2164,
      "Cezara": 2165,
      "sprawiedli": 2166,
      "Atkins": 2167,
      "zagadnął": 2168,
      "czegóż": 2169,
      "oczach": 2170,
      "Amery": 2171,
      "Ha": 2172,
      "Kto": 2173,
      "Mo": 2174,
      "Mój": 2175,
      "Ro": 2176,
      "Wię": 2177,
      "Wtedy": 2178,
      "ata": 2179,
      "bądź": 2180,
      "cóż": 2181,
      "dwo": 2182,
      "głych": 2183,
      "kli": 2184,
      "mały": 2185,
      "mego": 2186,
      "mnó": 2187,
      "nkę": 2188,
      "ogo": 2189,
      "opa": 2190,
      "oświe": 2191,
      "ojciec": 2192,
      "ple": 2193,
      "psu": 2194,
      "udział": 2195,
      "umiał": 2196,
      "uspokoi": 2197,
      "wnie": 2198,
      "wpro": 2199,
      "włó": 2200,
      "zra": 2201,
      "zja": 2202,
      "zów": 2203,
      "zost": 2204,
      "zdu": 2205,
      "zwracając": 2206,
      "śpi": 2207,
      "źni": 2208,
      "żnie": 2209,
      "żona": 2210,
      "niewy": 2211,
      "niemu": 2212,
      "nieść": 2213,
      "niedźwie": 2214,
      "napad": 2215,
      "sząc": 2216,
      "szła": 2217,
      "szano": 2218,
      "cząc": 2219,
      "czność": 2220,
      "poży": 2221,
      "powali": 2222,
      "posła": 2223,
      "pogar": 2224,
      "połą": 2225,
      "pospie": 2226,
      "powiada": 2227,
      "poskoczył": 2228,
      "stanę": 2229,
      "rzemień": 2230,
      "zapom": 2231,
      "zanadto": 2232,
      "wają": 2233,
      "dość": 2234,
      "dowód": 2235,
      "wil": 2236,
      "legowi": 2237,
      "wyz": 2238,
      "wysi": 2239,
      "wyją": 2240,
      "bynajmniej": 2241,
      "wodz": 2242,
      "wołał": 2243,
      "żeniem": 2244,
      "kawał": 2245,
      "ącą": 2246,
      "dziło": 2247,
      "tar": 2248,
      "tać": 2249,
      "taki": 2250,
      "tając": 2251,
      "toma": 2252,
      "nożem": 2253,
      "dziesz": 2254,
      "dzieje": 2255,
      "mogło": 2256,
      "lada": 2257,
      "laty": 2258,
      "lasy": 2259,
      "miesza": 2260,
      "obie": 2261,
      "obcy": 2262,
      "czenie": 2263,
      "cześnie": 2264,
      "Naj": 2265,
      "Naprzód": 2266,
      "samy": 2267,
      "szele": 2268,
      "tóż": 2269,
      "stać": 2270,
      "staran": 2271,
      "malo": 2272,
      "pienia": 2273,
      "rozju": 2274,
      "recz": 2275,
      "najlep": 2276,
      "tany": 2277,
      "cyi": 2278,
      "piał": 2279,
      "jął": 2280,
      "podniósł": 2281,
      "więzy": 2282,
      "szawszy": 2283,
      "część": 2284,
      "chodz": 2285,
      "chodził": 2286,
      "lubo": 2287,
      "znam": 2288,
      "wzrusze": 2289,
      "powietrze": 2290,
      "będ": 2291,
      "strzela": 2292,
      "swojej": 2293,
      "ogu": 2294,
      "ogniem": 2295,
      "ogrom": 2296,
      "bronić": 2297,
      "bronią": 2298,
      "twojej": 2299,
      "braci": 2300,
      "ścież": 2301,
      "pozost": 2302,
      "piersia": 2303,
      "góry": 2304,
      "trupem": 2305,
      "samej": 2306,
      "znajo": 2307,
      "równo": 2308,
      "wszech": 2309,
      "Telię": 2310,
      "kradł": 2311,
      "ujść": 2312,
      "serdecznie": 2313,
      "tymczasem": 2314,
      "krwią": 2315,
      "żoł": 2316,
      "indyjskie": 2317,
      "ogniska": 2318,
      "Boską": 2319,
      "odwagi": 2320,
      "bladych": 2321,
      "trwogą": 2322,
      "straszli": 2323,
      "rozpacz": 2324,
      "wódki": 2325,
      "krzaków": 2326,
      "wzrok": 2327,
      "schwy": 2328,
      "przeszko": 2329,
      "wziął": 2330,
      "ocalić": 2331,
      "zatrzymał": 2332,
      "przeklę": 2333,
      "obec": 2334,
      "ofiary": 2335,
      "izby": 2336,
      "testamen": 2337,
      "Serce": 2338,
      "czarnoksiężnika": 2339,
      "towarzyszami": 2340,
      "uśmiechem": 2341,
      "Telii": 2342,
      "miłość": 2343,
      "wychodźców": 2344,
      "dziesięciu": 2345,
      "rozmai": 2346,
      "spostrzegł": 2347,
      "odezwał": 2348,
      "najwyższego": 2349,
      "tomaha": 2350,
      "piersiach": 2351,
      "Ba": 2352,
      "Bi": 2353,
      "Bogu": 2354,
      "Cze": 2355,
      "Już": 2356,
      "My": 2357,
      "Stó": 2358,
      "Wtem": 2359,
      "cale": 2360,
      "grze": 2361,
      "hor": 2362,
      "il": 2363,
      "ina": 2364,
      "kąc": 2365,
      "kla": 2366,
      "kój": 2367,
      "knąć": 2368,
      "osob": 2369,
      "opuścił": 2370,
      "ocale": 2371,
      "rgi": 2372,
      "sro": 2373,
      "speł": 2374,
      "tny": 2375,
      "twier": 2376,
      "uf": 2377,
      "udał": 2378,
      "uszedł": 2379,
      "upły": 2380,
      "wpół": 2381,
      "wszem": 2382,
      "zła": 2383,
      "zmy": 2384,
      "zim": 2385,
      "zoba": 2386,
      "zbój": 2387,
      "Śmier": 2388,
      "ździe": 2389,
      "niespokoj": 2390,
      "nać": 2391,
      "nasze": 2392,
      "naszym": 2393,
      "szlach": 2394,
      "cznych": 2395,
      "czących": 2396,
      "pocz": 2397,
      "powa": 2398,
      "poja": 2399,
      "poru": 2400,
      "pokona": 2401,
      "pośpie": 2402,
      "pośrodku": 2403,
      "postępo": 2404,
      "pomina": 2405,
      "stała": 2406,
      "dzony": 2407,
      "nika": 2408,
      "niały": 2409,
      "rowa": 2410,
      "zac": 2411,
      "zada": 2412,
      "zasłu": 2413,
      "zauwa": 2414,
      "zakło": 2415,
      "wano": 2416,
      "waha": 2417,
      "dopo": 2418,
      "dobie": 2419,
      "cich": 2420,
      "wid": 2421,
      "wisko": 2422,
      "legło": 2423,
      "wymie": 2424,
      "wybo": 2425,
      "mili": 2426,
      "miota": 2427,
      "woj": 2428,
      "wodę": 2429,
      "wiec": 2430,
      "przesu": 2431,
      "tań": 2432,
      "szyder": 2433,
      "dar": 2434,
      "dali": 2435,
      "darł": 2436,
      "jacie": 2437,
      "dziestu": 2438,
      "rysy": 2439,
      "czysz": 2440,
      "czyły": 2441,
      "czywszy": 2442,
      "moi": 2443,
      "lasów": 2444,
      "lasach": 2445,
      "obrzy": 2446,
      "obsze": 2447,
      "obję": 2448,
      "oblę": 2449,
      "ściu": 2450,
      "ściska": 2451,
      "łym": 2452,
      "cel": 2453,
      "rozka": 2454,
      "rozbój": 2455,
      "rozżar": 2456,
      "najdro": 2457,
      "weź": 2458,
      "weso": 2459,
      "pioru": 2460,
      "pistole": 2461,
      "bok": 2462,
      "bag": 2463,
      "barył": 2464,
      "jąć": 2465,
      "podró": 2466,
      "podej": 2467,
      "razi": 2468,
      "jedna": 2469,
      "znak": 2470,
      "znać": 2471,
      "znaczy": 2472,
      "zerwał": 2473,
      "prosto": 2474,
      "prochu": 2475,
      "wzy": 2476,
      "wzniesi": 2477,
      "żaden": 2478,
      "dlatego": 2479,
      "swojem": 2480,
      "Poczem": 2481,
      "myślę": 2482,
      "rzekłszy": 2483,
      "pór": 2484,
      "twoim": 2485,
      "mordu": 2486,
      "buch": 2487,
      "jednakże": 2488,
      "byłoby": 2489,
      "Jest": 2490,
      "całego": 2491,
      "pierwsze": 2492,
      "wędro": 2493,
      "słucha": 2494,
      "inni": 2495,
      "inny": 2496,
      "wcem": 2497,
      "pięć": 2498,
      "znajdu": 2499,
      "drzeć": 2500,
      "drzewem": 2501,
      "drzewami": 2502,
      "gdybym": 2503,
      "dług": 2504,
      "strzelba": 2505,
      "indyj": 2506,
      "czoł": 2507,
      "ślad": 2508,
      "najmniejszej": 2509,
      "Pułko": 2510,
      "młodzień": 2511,
      "niowi": 2512,
      "wiąz": 2513,
      "północ": 2514,
      "wielką": 2515,
      "wielkim": 2516,
      "wielkiego": 2517,
      "myślisz": 2518,
      "szum": 2519,
      "uciecz": 2520,
      "ucieczki": 2521,
      "przerażenia": 2522,
      "Boga": 2523,
      "Przyjacie": 2524,
      "opoń": 2525,
      "Brucego": 2526,
      "tkał": 2527,
      "gromad": 2528,
      "gromady": 2529,
      "niebezpieczeństwo": 2530,
      "karawany": 2531,
      "roztrzaskał": 2532,
      "wrzask": 2533,
      "jakieś": 2534,
      "stryja": 2535,
      "milczeniu": 2536,
      "napowrót": 2537,
      "zbliża": 2538,
      "dostać": 2539,
      "powinie": 2540,
      "pomocą": 2541,
      "wziąć": 2542,
      "usiło": 2543,
      "dowiedzieć": 2544,
      "znów": 2545,
      "wzgórza": 2546,
      "pante": 2547,
      "wojownika": 2548,
      "wściekłość": 2549,
      "przestrachu": 2550,
      "Ryszard": 2551,
      "usługi": 2552,
      "jechać": 2553,
      "jechali": 2554,
      "panowała": 2555,
      "ukazał": 2556,
      "uczuł": 2557,
      "wstrętem": 2558,
      "Trzeba": 2559,
      "znalezi": 2560,
      "Wszystko": 2561,
      "niepodobna": 2562,
      "aligator": 2563,
      "oczeki": 2564,
      "zwłoki": 2565,
      "odparł": 2566,
      "Briareusa": 2567,
      "jedynie": 2568,
      "Osagowie": 2569,
      "Atkinson": 2570,
      "wprost": 2571,
      "tomahaw": 2572,
      "Śmierć": 2573,
      "zakłopo": 2574,
      "As": 2575,
      "Ko": 2576,
      "Mło": 2577,
      "Pie": 2578,
      "Precz": 2579,
      "Sko": 2580,
      "Sły": 2581,
      "ami": 2582,
      "bó": 2583,
      "cka": 2584,
      "dko": 2585,
      "drę": 2586,
      "hbu": 2587,
      "jmy": 2588,
      "lan": 2589,
      "mów": 2590,
      "mgnie": 2591,
      "nka": 2592,
      "opu": 2593,
      "ozna": 2594,
      "okrzy": 2595,
      "oswobo": 2596,
      "pała": 2597,
      "rał": 2598,
      "spra": 2599,
      "sąd": 2600,
      "set": 2601,
      "tną": 2602,
      "twe": 2603,
      "tkę": 2604,
      "twego": 2605,
      "ur": 2606,
      "upa": 2607,
      "umy": 2608,
      "upadł": 2609,
      "wpa": 2610,
      "wspo": 2611,
      "wnę": 2612,
      "wraz": 2613,
      "wpad": 2614,
      "wtedy": 2615,
      "znę": 2616,
      "zmieni": 2617,
      "zgrucho": 2618,
      "ńcy": 2619,
      "świę": 2620,
      "śmiało": 2621,
      "rząd": 2622,
      "rzmiał": 2623,
      "niemi": 2624,
      "niema": 2625,
      "niebezpiecz": 2626,
      "nagro": 2627,
      "naście": 2628,
      "nadej": 2629,
      "czący": 2630,
      "czół": 2631,
      "chodź": 2632,
      "poj": 2633,
      "poż": 2634,
      "powo": 2635,
      "poto": 2636,
      "pocie": 2637,
      "pola": 2638,
      "ponu": 2639,
      "porwał": 2640,
      "potrafi": 2641,
      "stwie": 2642,
      "niła": 2643,
      "rzec": 2644,
      "rzem": 2645,
      "rzeli": 2646,
      "roda": 2647,
      "zaw": 2648,
      "zać": 2649,
      "zanie": 2650,
      "zami": 2651,
      "zaprze": 2652,
      "zatem": 2653,
      "zagro": 2654,
      "zawsze": 2655,
      "zachę": 2656,
      "zabój": 2657,
      "zagra": 2658,
      "zaczyna": 2659,
      "dom": 2660,
      "dozna": 2661,
      "dosy": 2662,
      "dokona": 2663,
      "dotk": 2664,
      "cichy": 2665,
      "liwszy": 2666,
      "komi": 2667,
      "jesz": 2668,
      "jelenia": 2669,
      "emi": 2670,
      "wiał": 2671,
      "wiona": 2672,
      "wypa": 2673,
      "wycia": 2674,
      "wyrzu": 2675,
      "wydał": 2676,
      "wyso": 2677,
      "żeniu": 2678,
      "wienie": 2679,
      "ącej": 2680,
      "dziś": 2681,
      "dzikie": 2682,
      "przery": 2683,
      "przeba": 2684,
      "prześlado": 2685,
      "tania": 2686,
      "szyło": 2687,
      "łagod": 2688,
      "dach": 2689,
      "jad": 2690,
      "jaz": 2691,
      "jając": 2692,
      "tobie": 2693,
      "kiemi": 2694,
      "noś": 2695,
      "dzieży": 2696,
      "dziecię": 2697,
      "ciel": 2698,
      "odu": 2699,
      "odło": 2700,
      "odbi": 2701,
      "odgłos": 2702,
      "moim": 2703,
      "tygry": 2704,
      "lać": 2705,
      "przyję": 2706,
      "czel": 2707,
      "stara": 2708,
      "piec": 2709,
      "pierz": 2710,
      "piesz": 2711,
      "wałem": 2712,
      "ręka": 2713,
      "bitwy": 2714,
      "białego": 2715,
      "żyli": 2716,
      "życiu": 2717,
      "biega": 2718,
      "boż": 2719,
      "Rolandem": 2720,
      "cowi": 2721,
      "cony": 2722,
      "niejsza": 2723,
      "podnio": 2724,
      "podczas": 2725,
      "więzów": 2726,
      "szatan": 2727,
      "jedną": 2728,
      "jednej": 2729,
      "pragnął": 2730,
      "głowy": 2731,
      "proś": 2732,
      "wiając": 2733,
      "krzyw": 2734,
      "krzyżem": 2735,
      "przezor": 2736,
      "nadludz": 2737,
      "Indyanom": 2738,
      "trzymy": 2739,
      "stronach": 2740,
      "twoja": 2741,
      "kroć": 2742,
      "krokiem": 2743,
      "syna": 2744,
      "prowadz": 2745,
      "chwil": 2746,
      "ziem": 2747,
      "męstwa": 2748,
      "Jestem": 2749,
      "Jeden": 2750,
      "dźwi": 2751,
      "Toma": 2752,
      "całe": 2753,
      "całem": 2754,
      "pewnym": 2755,
      "ństwa": 2756,
      "giego": 2757,
      "człowieku": 2758,
      "śmiertel": 2759,
      "gdybyś": 2760,
      "długi": 2761,
      "ujrzawszy": 2762,
      "wolna": 2763,
      "traf": 2764,
      "młodzi": 2765,
      "żoną": 2766,
      "żonej": 2767,
      "wielki": 2768,
      "indyjski": 2769,
      "szuka": 2770,
      "ognisku": 2771,
      "uważa": 2772,
      "poznać": 2773,
      "zabitych": 2774,
      "dokła": 2775,
      "rzuciwszy": 2776,
      "szybkością": 2777,
      "nadziei": 2778,
      "resztą": 2779,
      "okropne": 2780,
      "troszcz": 2781,
      "trywał": 2782,
      "wrzaski": 2783,
      "złego": 2784,
      "ciosy": 2785,
      "radością": 2786,
      "stępnie": 2787,
      "największą": 2788,
      "mieniami": 2789,
      "obronie": 2790,
      "napadu": 2791,
      "ojca": 2792,
      "potęż": 2793,
      "potężny": 2794,
      "wszelkich": 2795,
      "usiłu": 2796,
      "zaczęli": 2797,
      "zaczęła": 2798,
      "prędzej": 2799,
      "Ratu": 2800,
      "należy": 2801,
      "obejrzał": 2802,
      "później": 2803,
      "zwycięstwa": 2804,
      "widzisz": 2805,
      "boleści": 2806,
      "testamentu": 2807,
      "czaszki": 2808,
      "Podczas": 2809,
      "blizko": 2810,
      "usłyszał": 2811,
      "zabob": 2812,
      "Kamien": 2813,
      "Kamienne": 2814,
      "mężczyzn": 2815,
      "gęstwinę": 2816,
      "uropej": 2817,
      "zwróciwszy": 2818,
      "kryjówki": 2819,
      "towarzyszów": 2820,
      "błyskawicy": 2821,
      "Krwawy": 2822,
      "Rzeki": 2823,
      "glądał": 2824,
      "wstrząsa": 2825,
      "męczarni": 2826,
      "plemienia": 2827,
      "Więc": 2828,
      "najdroż": 2829,
      "podróży": 2830,
      "Pułkownik": 2831,
      "Przyjacielu": 2832,
      "Ashbu": 2833,
      "mgnieniu": 2834,
      "dosyć": 2835,
      "Ależ": 2836,
      "Cz": 2837,
      "Dro": 2838,
      "Europej": 2839,
      "Kil": 2840,
      "Mó": 2841,
      "Mów": 2842,
      "Oh": 2843,
      "Prę": 2844,
      "Wo": 2845,
      "Wó": 2846,
      "Wal": 2847,
      "bło": 2848,
      "bod": 2849,
      "błę": 2850,
      "dl": 2851,
      "groz": 2852,
      "glę": 2853,
      "iść": 2854,
      "krą": 2855,
      "klę": 2856,
      "krępo": 2857,
      "mała": 2858,
      "mej": 2859,
      "ot": 2860,
      "onej": 2861,
      "otwo": 2862,
      "osłu": 2863,
      "psy": 2864,
      "sne": 2865,
      "schy": 2866,
      "tle": 2867,
      "ugo": 2868,
      "uści": 2869,
      "uspo": 2870,
      "ucha": 2871,
      "udać": 2872,
      "utrzymać": 2873,
      "wrze": 2874,
      "wówczas": 2875,
      "zało": 2876,
      "zmar": 2877,
      "zbłą": 2878,
      "óp": 2879,
      "ńcu": 2880,
      "rzała": 2881,
      "nieważ": 2882,
      "nierównie": 2883,
      "nieprzej": 2884,
      "niepotrzeb": 2885,
      "nał": 2886,
      "nazna": 2887,
      "szpo": 2888,
      "szałem": 2889,
      "czną": 2890,
      "czonych": 2891,
      "chmu": 2892,
      "poł": 2893,
      "pora": 2894,
      "pory": 2895,
      "ponad": 2896,
      "posko": 2897,
      "poprzed": 2898,
      "popę": 2899,
      "posia": 2900,
      "pokaż": 2901,
      "postanowi": 2902,
      "pobiegł": 2903,
      "powszech": 2904,
      "stej": 2905,
      "stwem": 2906,
      "stóp": 2907,
      "rześci": 2908,
      "zawa": 2909,
      "zato": 2910,
      "zacze": 2911,
      "zadać": 2912,
      "zagrz": 2913,
      "dosię": 2914,
      "doby": 2915,
      "dobra": 2916,
      "ciała": 2917,
      "kole": 2918,
      "korzy": 2919,
      "kola": 2920,
      "jech": 2921,
      "jemy": 2922,
      "wisz": 2923,
      "wich": 2924,
      "wido": 2925,
      "wili": 2926,
      "widzieć": 2927,
      "leg": 2928,
      "wycho": 2929,
      "wytę": 2930,
      "wykona": 2931,
      "wyprawie": 2932,
      "wystar": 2933,
      "wyrzą": 2934,
      "miały": 2935,
      "minu": 2936,
      "woda": 2937,
      "wokoło": 2938,
      "kazać": 2939,
      "wiecze": 2940,
      "dziką": 2941,
      "przeć": 2942,
      "przebyć": 2943,
      "takie": 2944,
      "tabu": 2945,
      "ton": 2946,
      "nowe": 2947,
      "nowego": 2948,
      "nosił": 2949,
      "odda": 2950,
      "odkry": 2951,
      "oddale": 2952,
      "odwiecz": 2953,
      "czyn": 2954,
      "czyni": 2955,
      "tere": 2956,
      "jąca": 2957,
      "mieniu": 2958,
      "panie": 2959,
      "pani": 2960,
      "obli": 2961,
      "obwi": 2962,
      "niając": 2963,
      "kula": 2964,
      "kując": 2965,
      "kulą": 2966,
      "siła": 2967,
      "czek": 2968,
      "Nagle": 2969,
      "sać": 2970,
      "piekie": 2971,
      "pieska": 2972,
      "rozum": 2973,
      "żywcem": 2974,
      "gasł": 2975,
      "jakkolwiek": 2976,
      "skrzy": 2977,
      "skło": 2978,
      "skrwa": 2979,
      "puszczę": 2980,
      "cof": 2981,
      "spoglą": 2982,
      "pewni": 2983,
      "szaj": 2984,
      "szal": 2985,
      "szać": 2986,
      "jednym": 2987,
      "bec": 2988,
      "ludzie": 2989,
      "znając": 2990,
      "ałych": 2991,
      "głowa": 2992,
      "wzru": 2993,
      "wzglę": 2994,
      "powiedzi": 2995,
      "suk": 2996,
      "któryby": 2997,
      "Edyto": 2998,
      "Edytą": 2999,
      "skom": 3000,
      "skoro": 3001,
      "byłem": 3002,
      "osadę": 3003,
      "czuł": 3004,
      "pój": 3005,
      "ażebym": 3006,
      "bracia": 3007,
      "loną": 3008,
      "przedmio": 3009,
      "kroki": 3010,
      "lękaj": 3011,
      "wszystkiem": 3012,
      "prowadząc": 3013,
      "wąz": 3014,
      "ściem": 3015,
      "buj": 3016,
      "tejże": 3017,
      "walka": 3018,
      "Osaga": 3019,
      "całkiem": 3020,
      "słowo": 3021,
      "słyszał": 3022,
      "słyszysz": 3023,
      "pewną": 3024,
      "pewnością": 3025,
      "siostrze": 3026,
      "siostrzy": 3027,
      "ństwem": 3028,
      "bliżej": 3029,
      "ziom": 3030,
      "bezpiecznie": 3031,
      "odpowiedziała": 3032,
      "gąszczu": 3033,
      "czonej": 3034,
      "ujrzeli": 3035,
      "wolnie": 3036,
      "wymów": 3037,
      "nieszczęścia": 3038,
      "poległych": 3039,
      "skórę": 3040,
      "młody": 3041,
      "dzać": 3042,
      "czerwonych": 3043,
      "drugą": 3044,
      "namiotu": 3045,
      "myśliwiec": 3046,
      "gardło": 3047,
      "myślałem": 3048,
      "ucieka": 3049,
      "uciekać": 3050,
      "białym": 3051,
      "uwagi": 3052,
      "biednych": 3053,
      "zabija": 3054,
      "trzymali": 3055,
      "odwagę": 3056,
      "zamordował": 3057,
      "anielską": 3058,
      "trwoż": 3059,
      "musisz": 3060,
      "pokoju": 3061,
      "spodziewał": 3062,
      "spodziewając": 3063,
      "zwycza": 3064,
      "zwykle": 3065,
      "godzinę": 3066,
      "Gdyby": 3067,
      "nadzieja": 3068,
      "niebezpieczeństwie": 3069,
      "płomienie": 3070,
      "karawana": 3071,
      "prowadzili": 3072,
      "stąpił": 3073,
      "Widok": 3074,
      "grube": 3075,
      "spiesz": 3076,
      "miejscach": 3077,
      "Wiel": 3078,
      "Wierz": 3079,
      "głucha": 3080,
      "kilkunastu": 3081,
      "środka": 3082,
      "rodzin": 3083,
      "ciężko": 3084,
      "Tam": 3085,
      "znikł": 3086,
      "napotka": 3087,
      "dziwienia": 3088,
      "tnij": 3089,
      "uczynić": 3090,
      "szędzie": 3091,
      "biegli": 3092,
      "próbo": 3093,
      "również": 3094,
      "ostrożnością": 3095,
      "dwudziestu": 3096,
      "dzikimi": 3097,
      "przyczyną": 3098,
      "skrępowany": 3099,
      "gwałtownie": 3100,
      "obydwóch": 3101,
      "obydwaj": 3102,
      "naraża": 3103,
      "wyprawy": 3104,
      "obel": 3105,
      "oboje": 3106,
      "podróżnych": 3107,
      "wydoby": 3108,
      "wydobyć": 3109,
      "wojenne": 3110,
      "zwaliska": 3111,
      "majątek": 3112,
      "majątku": 3113,
      "czaszkę": 3114,
      "drugiego": 3115,
      "Masz": 3116,
      "usłyszawszy": 3117,
      "wpływem": 3118,
      "niewiast": 3119,
      "pogoń": 3120,
      "pogoni": 3121,
      "stanął": 3122,
      "jakiegoś": 3123,
      "placu": 3124,
      "żyłach": 3125,
      "zręcz": 3126,
      "wigwa": 3127,
      "tryumfu": 3128,
      "koloniści": 3129,
      "młodego": 3130,
      "opowiadania": 3131,
      "Dobrze": 3132,
      "odzyskał": 3133,
      "dyabe": 3134,
      "zasadz": 3135,
      "myśleć": 3136,
      "Roz": 3137,
      "wyjąwszy": 3138,
      "samym": 3139,
      "starannie": 3140,
      "inaczej": 3141,
      "zauważył": 3142,
      "obszer": 3143,
      "piorunu": 3144,
      "wędrowców": 3145,
      "indyjską": 3146,
      "Skoro": 3147,
      "powodu": 3148,
      "zabobon": 3149,
      "Europejczy": 3150,
      "Wódz": 3151,
      "Ach": 3152,
      "Dłu": 3153,
      "Idź": 3154,
      "Kla": 3155,
      "Li": 3156,
      "Mie": 3157,
      "Musi": 3158,
      "Ob": 3159,
      "Oj": 3160,
      "Otóż": 3161,
      "Prowa": 3162,
      "Szy": 3163,
      "Ze": 3164,
      "ban": 3165,
      "bru": 3166,
      "dny": 3167,
      "dne": 3168,
      "dnik": 3169,
      "dnej": 3170,
      "europe": 3171,
      "gnąć": 3172,
      "histo": 3173,
      "ist": 3174,
      "idzie": 3175,
      "lnego": 3176,
      "mą": 3177,
      "nóg": 3178,
      "owo": 3179,
      "ocho": 3180,
      "ozdo": 3181,
      "oprócz": 3182,
      "otwar": 3183,
      "owszem": 3184,
      "pni": 3185,
      "plą": 3186,
      "pstwo": 3187,
      "rka": 3188,
      "rła": 3189,
      "sen": 3190,
      "swem": 3191,
      "tała": 3192,
      "trą": 3193,
      "uszy": 3194,
      "uma": 3195,
      "ucho": 3196,
      "uję": 3197,
      "uprowa": 3198,
      "uzbro": 3199,
      "uczci": 3200,
      "uchwy": 3201,
      "uździe": 3202,
      "utrzymy": 3203,
      "wtem": 3204,
      "wność": 3205,
      "wczo": 3206,
      "wprz": 3207,
      "wkońcu": 3208,
      "zgo": 3209,
      "zmu": 3210,
      "zmniej": 3211,
      "ódy": 3212,
      "źnie": 3213,
      "żd": 3214,
      "rząc": 3215,
      "nienie": 3216,
      "niesie": 3217,
      "niezna": 3218,
      "nieniem": 3219,
      "niechaj": 3220,
      "nań": 3221,
      "nasy": 3222,
      "naczel": 3223,
      "szko": 3224,
      "szale": 3225,
      "szała": 3226,
      "szonych": 3227,
      "czona": 3228,
      "chów": 3229,
      "chrześci": 3230,
      "poże": 3231,
      "podzi": 3232,
      "poczy": 3233,
      "połu": 3234,
      "poczę": 3235,
      "posu": 3236,
      "pozy": 3237,
      "posłu": 3238,
      "posił": 3239,
      "porusze": 3240,
      "poczci": 3241,
      "pociągnął": 3242,
      "pomiesza": 3243,
      "pokój": 3244,
      "stów": 3245,
      "nikiem": 3246,
      "niszczy": 3247,
      "niona": 3248,
      "nikogo": 3249,
      "rzeka": 3250,
      "rzemienie": 3251,
      "zary": 3252,
      "zabie": 3253,
      "zaraz": 3254,
      "zapad": 3255,
      "zarazem": 3256,
      "zawzię": 3257,
      "waniem": 3258,
      "waniu": 3259,
      "wających": 3260,
      "doku": 3261,
      "dosko": 3262,
      "ciał": 3263,
      "cili": 3264,
      "ciosa": 3265,
      "raj": 3266,
      "rając": 3267,
      "rabu": 3268,
      "liwym": 3269,
      "liścia": 3270,
      "kosz": 3271,
      "komu": 3272,
      "emu": 3273,
      "wicie": 3274,
      "lewo": 3275,
      "rzyła": 3276,
      "wyd": 3277,
      "wys": 3278,
      "wywi": 3279,
      "wyry": 3280,
      "wykrzy": 3281,
      "wynio": 3282,
      "wyciem": 3283,
      "wywar": 3284,
      "łotr": 3285,
      "mił": 3286,
      "miano": 3287,
      "wodą": 3288,
      "żer": 3289,
      "żeń": 3290,
      "żeni": 3291,
      "żela": 3292,
      "kape": 3293,
      "wieść": 3294,
      "wietrzy": 3295,
      "wiedząc": 3296,
      "ąca": 3297,
      "dzisz": 3298,
      "kimi": 3299,
      "przemo": 3300,
      "tarza": 3301,
      "takich": 3302,
      "szyję": 3303,
      "łatwie": 3304,
      "dania": 3305,
      "damę": 3306,
      "jas": 3307,
      "jakich": 3308,
      "jakiej": 3309,
      "jaśnie": 3310,
      "nosząc": 3311,
      "dzieja": 3312,
      "odem": 3313,
      "odsie": 3314,
      "oddziałem": 3315,
      "rys": 3316,
      "ryce": 3317,
      "czyło": 3318,
      "mowy": 3319,
      "mować": 3320,
      "mierze": 3321,
      "pać": 3322,
      "obra": 3323,
      "obło": 3324,
      "niać": 3325,
      "niach": 3326,
      "ścić": 3327,
      "kul": 3328,
      "przysię": 3329,
      "przygoto": 3330,
      "przypuszcza": 3331,
      "przykrępo": 3332,
      "przymierze": 3333,
      "siące": 3334,
      "czeć": 3335,
      "czele": 3336,
      "stając": 3337,
      "stawił": 3338,
      "mamy": 3339,
      "maga": 3340,
      "pień": 3341,
      "celu": 3342,
      "rozle": 3343,
      "rozumiał": 3344,
      "rękami": 3345,
      "bitwie": 3346,
      "najbardziej": 3347,
      "gam": 3348,
      "rój": 3349,
      "pil": 3350,
      "głem": 3351,
      "skę": 3352,
      "skro": 3353,
      "bami": 3354,
      "niejszą": 3355,
      "niejszym": 3356,
      "podsu": 3357,
      "szarp": 3358,
      "cach": 3359,
      "tur": 3360,
      "tura": 3361,
      "jedź": 3362,
      "Natanem": 3363,
      "chać": 3364,
      "siedział": 3365,
      "prawą": 3366,
      "albowiem": 3367,
      "luf": 3368,
      "zew": 3369,
      "Niechaj": 3370,
      "rzask": 3371,
      "skali": 3372,
      "niemało": 3373,
      "wiać": 3374,
      "cięcia": 3375,
      "Ralfem": 3376,
      "powiedział": 3377,
      "krzyża": 3378,
      "krzyczał": 3379,
      "żaru": 3380,
      "stoso": 3381,
      "dłe": 3382,
      "dłszy": 3383,
      "swobod": 3384,
      "Potem": 3385,
      "oglą": 3386,
      "jącymi": 3387,
      "mniema": 3388,
      "ciągu": 3389,
      "brodu": 3390,
      "jęki": 3391,
      "los": 3392,
      "przedsię": 3393,
      "straż": 3394,
      "stracił": 3395,
      "walczących": 3396,
      "tent": 3397,
      "ostatni": 3398,
      "wnicy": 3399,
      "wników": 3400,
      "trup": 3401,
      "trując": 3402,
      "towarzyszyć": 3403,
      "inne": 3404,
      "innego": 3405,
      "dzono": 3406,
      "dzoziem": 3407,
      "właszcza": 3408,
      "daleka": 3409,
      "pochy": 3410,
      "pochło": 3411,
      "pochód": 3412,
      "nur": 3413,
      "wsty": 3414,
      "puścić": 3415,
      "puściła": 3416,
      "odpowiedzi": 3417,
      "padkiem": 3418,
      "Jakie": 3419,
      "Jakto": 3420,
      "czoło": 3421,
      "śladu": 3422,
      "nieszczęsny": 3423,
      "skórz": 3424,
      "młodych": 3425,
      "nione": 3426,
      "myśliwca": 3427,
      "Duchu": 3428,
      "byłaby": 3429,
      "przerażenie": 3430,
      "podobny": 3431,
      "podobne": 3432,
      "wydając": 3433,
      "wydarł": 3434,
      "szybkim": 3435,
      "chęci": 3436,
      "trzymając": 3437,
      "Przez": 3438,
      "Przecież": 3439,
      "odważny": 3440,
      "mówiła": 3441,
      "blasku": 3442,
      "opodal": 3443,
      "prawdę": 3444,
      "pochwyciwszy": 3445,
      "musimy": 3446,
      "rzucić": 3447,
      "rzuciło": 3448,
      "szemi": 3449,
      "położył": 3450,
      "przeciwnej": 3451,
      "pokolenia": 3452,
      "istoty": 3453,
      "godzin": 3454,
      "gromada": 3455,
      "Gdybym": 3456,
      "obawy": 3457,
      "reszta": 3458,
      "płomienia": 3459,
      "zwierzy": 3460,
      "potrzebo": 3461,
      "ktoś": 3462,
      "krzaku": 3463,
      "dziewczy": 3464,
      "uderzył": 3465,
      "ramiona": 3466,
      "własną": 3467,
      "rannego": 3468,
      "strzałem": 3469,
      "dostanie": 3470,
      "wioną": 3471,
      "wstrzymał": 3472,
      "obrońców": 3473,
      "jakoby": 3474,
      "groźne": 3475,
      "zdobyczy": 3476,
      "ojcze": 3477,
      "chłop": 3478,
      "przeszka": 3479,
      "dzielny": 3480,
      "drugim": 3481,
      "szczęśliwy": 3482,
      "mieszkańców": 3483,
      "Kapitanie": 3484,
      "ratunek": 3485,
      "przekli": 3486,
      "chodziło": 3487,
      "Dżibbenenosaha": 3488,
      "Wszyscy": 3489,
      "wydobył": 3490,
      "Słowa": 3491,
      "krępu": 3492,
      "żąda": 3493,
      "spojrzał": 3494,
      "trudno": 3495,
      "wojownicy": 3496,
      "głębokim": 3497,
      "wściekłością": 3498,
      "zgrzy": 3499,
      "zważając": 3500,
      "zamiar": 3501,
      "opuścić": 3502,
      "opuścili": 3503,
      "zbudo": 3504,
      "mocno": 3505,
      "rozpoczę": 3506,
      "cztery": 3507,
      "zamiesza": 3508,
      "jakąś": 3509,
      "czarnoksiężnikiem": 3510,
      "błaga": 3511,
      "wpływ": 3512,
      "stanąwszy": 3513,
      "zabrzmiał": 3514,
      "ciekawością": 3515,
      "uwolnić": 3516,
      "łeb": 3517,
      "wyraźnie": 3518,
      "Wszystkie": 3519,
      "zgubi": 3520,
      "nazwisko": 3521,
      "przytomności": 3522,
      "okazywał": 3523,
      "Zdawało": 3524,
      "niespodziewanie": 3525,
      "rozmowę": 3526,
      "murzyn": 3527,
      "ludność": 3528,
      "okolicę": 3529,
      "powrócili": 3530,
      "Niższego": 3531,
      "chróstu": 3532,
      "pastor": 3533,
      "rozumieć": 3534,
      "składała": 3535,
      "pergami": 3536,
      "budow": 3537,
      "schronienia": 3538,
      "ataku": 3539,
      "śpiących": 3540,
      "niewypowiedzi": 3541,
      "stanęli": 3542,
      "zapomniał": 3543,
      "dowódca": 3544,
      "wyzwo": 3545,
      "wodzem": 3546,
      "żołnie": 3547,
      "kącie": 3548,
      "ocalenia": 3549,
      "upływie": 3550,
      "szlachet": 3551,
      "zacny": 3552,
      "dopomoże": 3553,
      "cichego": 3554,
      "obrzydli": 3555,
      "ściskając": 3556,
      "rozbójników": 3557,
      "młodzieńca": 3558,
      "powinien": 3559,
      "znaleziono": 3560,
      "okrzykiem": 3561,
      "wnętrza": 3562,
      "znęk": 3563,
      "pierzch": 3564,
      "dokładnie": 3565,
      "wstrząsając": 3566,
      "Ashburna": 3567,
      "jechała": 3568,
      "oddaleniu": 3569,
      "spoglądając": 3570,
      "dyabeł": 3571,
      "Klarys": 3572,
      "Ojcze": 3573,
      "Prowadź": 3574,
      "europejs": 3575,
      "history": 3576,
      "umarł": 3577,
      "wprzódy": 3578,
      "podziwem": 3579,
      "łatwiej": 3580,
      "Al": 3581,
      "Ani": 3582,
      "Be": 3583,
      "Bla": 3584,
      "Bądź": 3585,
      "Czem": 3586,
      "Da": 3587,
      "Danie": 3588,
      "Gro": 3589,
      "Jego": 3590,
      "Oby": 3591,
      "Oba": 3592,
      "Pan": 3593,
      "Pój": 3594,
      "Spo": 3595,
      "Stan": 3596,
      "Strze": 3597,
      "Twa": 3598,
      "Trzy": 3599,
      "XI": 3600,
      "ato": 3601,
      "bko": 3602,
      "blu": 3603,
      "dó": 3604,
      "dno": 3605,
      "dnego": 3606,
      "dlę": 3607,
      "dano": 3608,
      "fa": 3609,
      "fu": 3610,
      "gna": 3611,
      "gwi": 3612,
      "gnia": 3613,
      "gnię": 3614,
      "ho": 3615,
      "hała": 3616,
      "io": 3617,
      "ił": 3618,
      "iło": 3619,
      "iny": 3620,
      "knie": 3621,
      "krem": 3622,
      "lną": 3623,
      "lsy": 3624,
      "men": 3625,
      "nnych": 3626,
      "nące": 3627,
      "oży": 3628,
      "oraz": 3629,
      "owego": 3630,
      "osła": 3631,
      "oprzeć": 3632,
      "pnie": 3633,
      "pki": 3634,
      "prą": 3635,
      "snem": 3636,
      "skim": 3637,
      "skiego": 3638,
      "snu": 3639,
      "sek": 3640,
      "spał": 3641,
      "tne": 3642,
      "uch": 3643,
      "ule": 3644,
      "upie": 3645,
      "unik": 3646,
      "ukoń": 3647,
      "utra": 3648,
      "udając": 3649,
      "unosi": 3650,
      "uprowadzić": 3651,
      "unika": 3652,
      "ver": 3653,
      "wne": 3654,
      "wcy": 3655,
      "wkoło": 3656,
      "wszędzie": 3657,
      "zny": 3658,
      "zmie": 3659,
      "zbie": 3660,
      "zbo": 3661,
      "zba": 3662,
      "zała": 3663,
      "zmia": 3664,
      "zwal": 3665,
      "znu": 3666,
      "zrazu": 3667,
      "zniecierpli": 3668,
      "zwolna": 3669,
      "zresztą": 3670,
      "łeś": 3671,
      "łód": 3672,
      "Śmiało": 3673,
      "źnia": 3674,
      "Ży": 3675,
      "żal": 3676,
      "nieo": 3677,
      "nieła": 3678,
      "niegdy": 3679,
      "nieznaj": 3680,
      "niejedno": 3681,
      "niewin": 3682,
      "nasz": 3683,
      "namię": 3684,
      "natrafi": 3685,
      "naślado": 3686,
      "należało": 3687,
      "szpe": 3688,
      "czko": 3689,
      "czały": 3690,
      "czką": 3691,
      "czącego": 3692,
      "chód": 3693,
      "chcę": 3694,
      "poby": 3695,
      "poły": 3696,
      "poroz": 3697,
      "polu": 3698,
      "pomnie": 3699,
      "polo": 3700,
      "popeł": 3701,
      "połowie": 3702,
      "pomiesz": 3703,
      "powro": 3704,
      "pośród": 3705,
      "pogra": 3706,
      "popędził": 3707,
      "pobliż": 3708,
      "ponieważ": 3709,
      "nionych": 3710,
      "nikom": 3711,
      "rzeniu": 3712,
      "rzemieni": 3713,
      "rok": 3714,
      "rowi": 3715,
      "rować": 3716,
      "rosły": 3717,
      "zawi": 3718,
      "zama": 3719,
      "zacza": 3720,
      "zasie": 3721,
      "zawia": 3722,
      "zacię": 3723,
      "zanad": 3724,
      "zamor": 3725,
      "zakoń": 3726,
      "zamiesz": 3727,
      "zagłę": 3728,
      "zapuścił": 3729,
      "zadr": 3730,
      "zakrę": 3731,
      "zakli": 3732,
      "zarówno": 3733,
      "zapewni": 3734,
      "gorz": 3735,
      "gotu": 3736,
      "godnie": 3737,
      "gotów": 3738,
      "wary": 3739,
      "doprowa": 3740,
      "doszedł": 3741,
      "domyśli": 3742,
      "doprowadzi": 3743,
      "ciła": 3744,
      "rać": 3745,
      "lisz": 3746,
      "lili": 3747,
      "liczyć": 3748,
      "kował": 3749,
      "kocha": 3750,
      "kogu": 3751,
      "koniowi": 3752,
      "wiwszy": 3753,
      "wiały": 3754,
      "widzę": 3755,
      "widziałem": 3756,
      "widzieli": 3757,
      "lec": 3758,
      "leniem": 3759,
      "lewą": 3760,
      "rzysz": 3761,
      "wymi": 3762,
      "wyzy": 3763,
      "wysko": 3764,
      "wycią": 3765,
      "wypadł": 3766,
      "wyciągnął": 3767,
      "wysłucha": 3768,
      "wydrzeć": 3769,
      "łot": 3770,
      "łosko": 3771,
      "byt": 3772,
      "byle": 3773,
      "bydlę": 3774,
      "mić": 3775,
      "wodzie": 3776,
      "wość": 3777,
      "wobec": 3778,
      "kar": 3779,
      "kań": 3780,
      "kamień": 3781,
      "wiedzi": 3782,
      "wiedzie": 3783,
      "ąco": 3784,
      "dzik": 3785,
      "dziły": 3786,
      "przeto": 3787,
      "przecie": 3788,
      "przebie": 3789,
      "przezna": 3790,
      "przeczu": 3791,
      "takiej": 3792,
      "szyła": 3793,
      "łańcu": 3794,
      "dami": 3795,
      "jaski": 3796,
      "tości": 3797,
      "nos": 3798,
      "noże": 3799,
      "nową": 3800,
      "dzież": 3801,
      "dziewi": 3802,
      "dziemy": 3803,
      "dziewe": 3804,
      "dziesią": 3805,
      "dziecka": 3806,
      "cienie": 3807,
      "oddać": 3808,
      "oddaw": 3809,
      "odgad": 3810,
      "odpowiada": 3811,
      "odległo": 3812,
      "rym": 3813,
      "moco": 3814,
      "mowę": 3815,
      "mojem": 3816,
      "mogłem": 3817,
      "lając": 3818,
      "pasem": 3819,
      "parów": 3820,
      "oble": 3821,
      "ścianie": 3822,
      "ściśnię": 3823,
      "kule": 3824,
      "kukury": 3825,
      "przysłu": 3826,
      "przypadł": 3827,
      "przyszło": 3828,
      "przypadkiem": 3829,
      "Naraz": 3830,
      "Następnie": 3831,
      "stań": 3832,
      "stadni": 3833,
      "malu": 3834,
      "matki": 3835,
      "piekło": 3836,
      "rozwa": 3837,
      "rozciąg": 3838,
      "rozsąd": 3839,
      "bijąc": 3840,
      "biony": 3841,
      "żywo": 3842,
      "żyły": 3843,
      "nają": 3844,
      "najokrop": 3845,
      "najwięcej": 3846,
      "czasami": 3847,
      "jakgdyby": 3848,
      "cyę": 3849,
      "boja": 3850,
      "sklepie": 3851,
      "bawo": 3852,
      "cować": 3853,
      "niejszego": 3854,
      "podska": 3855,
      "podstęp": 3856,
      "chat": 3857,
      "chatach": 3858,
      "siero": 3859,
      "prawi": 3860,
      "chodzie": 3861,
      "lubił": 3862,
      "promieni": 3863,
      "duszy": 3864,
      "ducha": 3865,
      "powierz": 3866,
      "powiedzieć": 3867,
      "zawoju": 3868,
      "strzelił": 3869,
      "tętent": 3870,
      "żające": 3871,
      "stoi": 3872,
      "dlaczegóż": 3873,
      "żebym": 3874,
      "żebyś": 3875,
      "szczenia": 3876,
      "myślach": 3877,
      "Edycie": 3878,
      "wór": 3879,
      "byłbym": 3880,
      "czuj": 3881,
      "czucia": 3882,
      "ściągnął": 3883,
      "trzeć": 3884,
      "śmiechu": 3885,
      "śmiechem": 3886,
      "jękiem": 3887,
      "języ": 3888,
      "lona": 3889,
      "lonej": 3890,
      "chwilą": 3891,
      "szczył": 3892,
      "zdol": 3893,
      "Osag": 3894,
      "hań": 3895,
      "miałem": 3896,
      "Jeniec": 3897,
      "pęt": 3898,
      "pędzić": 3899,
      "orem": 3900,
      "Tomie": 3901,
      "dziłeś": 3902,
      "dobre": 3903,
      "ostatecz": 3904,
      "słone": 3905,
      "słońca": 3906,
      "zupeł": 3907,
      "Zanim": 3908,
      "Zapew": 3909,
      "towarzystwie": 3910,
      "inną": 3911,
      "innej": 3912,
      "pewny": 3913,
      "dzone": 3914,
      "dzoną": 3915,
      "mógłbyś": 3916,
      "kwakrem": 3917,
      "znajdzie": 3918,
      "znajdziesz": 3919,
      "pochodu": 3920,
      "Doego": 3921,
      "niętą": 3922,
      "puścili": 3923,
      "długie": 3924,
      "długą": 3925,
      "strzelb": 3926,
      "padli": 3927,
      "wulsy": 3928,
      "kiedykolwiek": 3929,
      "dzeniu": 3930,
      "wymknąć": 3931,
      "spokoju": 3932,
      "trać": 3933,
      "stępu": 3934,
      "sercu": 3935,
      "sercem": 3936,
      "Czyś": 3937,
      "dzaj": 3938,
      "niom": 3939,
      "leżącego": 3940,
      "sąsie": 3941,
      "sążni": 3942,
      "większe": 3943,
      "północy": 3944,
      "żonę": 3945,
      "wajcie": 3946,
      "wielkie": 3947,
      "zdaje": 3948,
      "zdala": 3949,
      "zdawał": 3950,
      "myśliw": 3951,
      "indyjskiego": 3952,
      "Cudzoziem": 3953,
      "myślnie": 3954,
      "brzegi": 3955,
      "brzemieniem": 3956,
      "przerażeniem": 3957,
      "kilkanaście": 3958,
      "mogła": 3959,
      "podobnie": 3960,
      "podobna": 3961,
      "wydali": 3962,
      "siekierami": 3963,
      "bezpieczeństwo": 3964,
      "biedny": 3965,
      "biedną": 3966,
      "szczał": 3967,
      "chęć": 3968,
      "chętnie": 3969,
      "poznali": 3970,
      "stym": 3971,
      "głęb": 3972,
      "spokojny": 3973,
      "gałą": 3974,
      "świetle": 3975,
      "silny": 3976,
      "Przera": 3977,
      "mówisz": 3978,
      "mówiąc": 3979,
      "blask": 3980,
      "opowia": 3981,
      "przyjaciela": 3982,
      "przyjacielem": 3983,
      "nocą": 3984,
      "rzuciła": 3985,
      "położenia": 3986,
      "strasznego": 3987,
      "straszliwie": 3988,
      "omego": 3989,
      "omdl": 3990,
      "włosy": 3991,
      "włosów": 3992,
      "środek": 3993,
      "błyszcz": 3994,
      "ukrywa": 3995,
      "wódką": 3996,
      "gniew": 3997,
      "gniewem": 3998,
      "żonym": 3999,
      "zapewnie": 4000,
      "zapewniając": 4001,
      "karawa": 4002,
      "ostroko": 4003,
      "Widziałem": 4004,
      "grun": 4005,
      "potrzeby": 4006,
      "odebrał": 4007,
      "Była": 4008,
      "krzaki": 4009,
      "złe": 4010,
      "mężny": 4011,
      "niósłszy": 4012,
      "rodzinie": 4013,
      "rodziny": 4014,
      "nieszczęśliwy": 4015,
      "nieszczęśliwego": 4016,
      "uderza": 4017,
      "stryj": 4018,
      "stryczka": 4019,
      "zależy": 4020,
      "dostrzegli": 4021,
      "ciężkie": 4022,
      "własne": 4023,
      "własnego": 4024,
      "znikła": 4025,
      "napotkał": 4026,
      "dziwienie": 4027,
      "księży": 4028,
      "zbroj": 4029,
      "strzału": 4030,
      "strzałów": 4031,
      "dostatecz": 4032,
      "wierny": 4033,
      "dalszej": 4034,
      "czuprynę": 4035,
      "piękne": 4036,
      "piękną": 4037,
      "uroczy": 4038,
      "wskazał": 4039,
      "powiodło": 4040,
      "przewodnik": 4041,
      "morderców": 4042,
      "zostawił": 4043,
      "dowodził": 4044,
      "dopóty": 4045,
      "przeszło": 4046,
      "dzielnych": 4047,
      "krwawym": 4048,
      "ostrożnie": 4049,
      "ostrożności": 4050,
      "gorąco": 4051,
      "skrępowali": 4052,
      "smutkiem": 4053,
      "zginie": 4054,
      "zginąć": 4055,
      "wyprawa": 4056,
      "przekle": 4057,
      "podróżni": 4058,
      "prędko": 4059,
      "napełnia": 4060,
      "Raz": 4061,
      "lekko": 4062,
      "patrząc": 4063,
      "późno": 4064,
      "trudnością": 4065,
      "znajdowała": 4066,
      "wściekłości": 4067,
      "Dlaczegóż": 4068,
      "zgroz": 4069,
      "jeździe": 4070,
      "kierunek": 4071,
      "Wszakże": 4072,
      "grzbie": 4073,
      "plemi": 4074,
      "udali": 4075,
      "jakimś": 4076,
      "słyszeli": 4077,
      "okrucie": 4078,
      "współziom": 4079,
      "czter": 4080,
      "ratować": 4081,
      "wypadła": 4082,
      "spoczynku": 4083,
      "Mam": 4084,
      "zębami": 4085,
      "konwulsy": 4086,
      "wierzcho": 4087,
      "mężczyźni": 4088,
      "dziewczęcia": 4089,
      "powtórnie": 4090,
      "gęstwiny": 4091,
      "III": 4092,
      "Nik": 4093,
      "Nigdy": 4094,
      "ogarnęło": 4095,
      "plac": 4096,
      "poprzedza": 4097,
      "przebycia": 4098,
      "wyraźne": 4099,
      "Mil": 4100,
      "sępa": 4101,
      "angielszczy": 4102,
      "wyruszył": 4103,
      "wyruszyli": 4104,
      "łożyli": 4105,
      "chodzącego": 4106,
      "skalp": 4107,
      "nienawiści": 4108,
      "drzwiom": 4109,
      "Zdaje": 4110,
      "nazywa": 4111,
      "siodła": 4112,
      "rozmowy": 4113,
      "nikczemnego": 4114,
      "pragnę": 4115,
      "wojenny": 4116,
      "jeźdźca": 4117,
      "jeźdźców": 4118,
      "ukochanej": 4119,
      "zabrać": 4120,
      "ścigać": 4121,
      "szczegółów": 4122,
      "ostatniej": 4123,
      "twardy": 4124,
      "światła": 4125,
      "przeraźliwy": 4126,
      "zaroślach": 4127,
      "pogrążony": 4128,
      "nadarem": 4129,
      "początku": 4130,
      "zamknię": 4131,
      "nożami": 4132,
      "pastora": 4133,
      "przykład": 4134,
      "przykładem": 4135,
      "strzałami": 4136,
      "każdym": 4137,
      "otaczających": 4138,
      "Może": 4139,
      "dwoma": 4140,
      "mnóstwo": 4141,
      "udziału": 4142,
      "została": 4143,
      "pogardą": 4144,
      "legowisko": 4145,
      "chodzących": 4146,
      "znajomy": 4147,
      "rozmaitych": 4148,
      "Stój": 4149,
      "horda": 4150,
      "klacz": 4151,
      "zmysły": 4152,
      "zimno": 4153,
      "zbójcy": 4154,
      "postępował": 4155,
      "pominając": 4156,
      "widmo": 4157,
      "oblężonych": 4158,
      "pistolety": 4159,
      "bagni": 4160,
      "wzniesioną": 4161,
      "mordują": 4162,
      "czółno": 4163,
      "pojm": 4164,
      "rodaków": 4165,
      "jazdy": 4166,
      "podniosła": 4167,
      "prośby": 4168,
      "Ratuj": 4169,
      "Droga": 4170,
      "Kilka": 4171,
      "Prędzej": 4172,
      "usposobie": 4173,
      "wrzeszczał": 4174,
      "nieprzejrz": 4175,
      "wieczerzy": 4176,
      "cofnęli": 4177,
      "wydobywszy": 4178,
      "piorunującym": 4179,
      "Długi": 4180,
      "Musimy": 4181,
      "bruna": 4182,
      "trącił": 4183,
      "ciosami": 4184,
      "turalnie": 4185,
      "Alboż": 4186,
      "Blade": 4187,
      "Twarz": 4188,
      "atoli": 4189,
      "dóbr": 4190,
      "niegdyś": 4191,
      "nieznajomego": 4192,
      "niejednokrotnie": 4193,
      "pobytu": 4194,
      "pograni": 4195,
      "pobliżu": 4196,
      "jaskini": 4197,
      "oddawna": 4198,
      "odgadnąć": 4199,
      "odległości": 4200,
      "stadniny": 4201,
      "Cudzoziemcze": 4202,
      "An": 4203,
      "Bę": 4204,
      "Bie": 4205,
      "Bród": 4206,
      "Cie": 4207,
      "Cha": 4208,
      "Gi": 4209,
      "Głu": 4210,
      "Iver": 4211,
      "Lu": 4212,
      "Nóż": 4213,
      "Ostro": 4214,
      "Ojciec": 4215,
      "Pra": 4216,
      "Sz": 4217,
      "Szu": 4218,
      "Stra": 4219,
      "Ten": 4220,
      "Wpraw": 4221,
      "XV": 4222,
      "Zna": 4223,
      "amery": 4224,
      "bię": 4225,
      "blo": 4226,
      "brew": 4227,
      "cało": 4228,
      "dki": 4229,
      "dów": 4230,
      "dran": 4231,
      "eł": 4232,
      "fal": 4233,
      "for": 4234,
      "gla": 4235,
      "ili": 4236,
      "imi": 4237,
      "imię": 4238,
      "jszy": 4239,
      "kała": 4240,
      "knę": 4241,
      "kół": 4242,
      "kentu": 4243,
      "lał": 4244,
      "lne": 4245,
      "lała": 4246,
      "mod": 4247,
      "nnym": 4248,
      "odz": 4249,
      "ora": 4250,
      "oku": 4251,
      "ośmie": 4252,
      "opę": 4253,
      "owej": 4254,
      "owym": 4255,
      "ochło": 4256,
      "osób": 4257,
      "opuszcza": 4258,
      "opuszcz": 4259,
      "otrzymał": 4260,
      "opór": 4261,
      "pch": 4262,
      "pkę": 4263,
      "pką": 4264,
      "pliwie": 4265,
      "rpu": 4266,
      "rała": 4267,
      "rżenie": 4268,
      "sma": 4269,
      "spad": 4270,
      "sprz": 4271,
      "spuścił": 4272,
      "snąwszy": 4273,
      "tna": 4274,
      "tały": 4275,
      "tnych": 4276,
      "trzu": 4277,
      "twą": 4278,
      "trzał": 4279,
      "upo": 4280,
      "ustro": 4281,
      "urzą": 4282,
      "uniósł": 4283,
      "upor": 4284,
      "uszano": 4285,
      "umyślnie": 4286,
      "wza": 4287,
      "wcze": 4288,
      "wsa": 4289,
      "wce": 4290,
      "wsza": 4291,
      "wlo": 4292,
      "wszak": 4293,
      "wbrew": 4294,
      "zmi": 4295,
      "zdzi": 4296,
      "zry": 4297,
      "zną": 4298,
      "znął": 4299,
      "zmiesz": 4300,
      "zgroma": 4301,
      "zowi": 4302,
      "zrozumiał": 4303,
      "zdaleka": 4304,
      "órami": 4305,
      "łni": 4306,
      "łka": 4307,
      "ńce": 4308,
      "świ": 4309,
      "śmia": 4310,
      "Że": 4311,
      "żę": 4312,
      "żała": 4313,
      "żnik": 4314,
      "nieb": 4315,
      "nasi": 4316,
      "nagł": 4317,
      "natę": 4318,
      "nabra": 4319,
      "namyśli": 4320,
      "naszej": 4321,
      "nacięcia": 4322,
      "sząd": 4323,
      "ształ": 4324,
      "czło": 4325,
      "czny": 4326,
      "czcie": 4327,
      "czała": 4328,
      "czkę": 4329,
      "cznem": 4330,
      "czące": 4331,
      "chi": 4332,
      "chcą": 4333,
      "pos": 4334,
      "pona": 4335,
      "pota": 4336,
      "pocią": 4337,
      "powal": 4338,
      "poszedł": 4339,
      "porzucił": 4340,
      "polem": 4341,
      "powraca": 4342,
      "poważ": 4343,
      "pociąg": 4344,
      "pokrze": 4345,
      "powstrzymać": 4346,
      "pomalo": 4347,
      "poświę": 4348,
      "potraf": 4349,
      "podziwienia": 4350,
      "stw": 4351,
      "strwo": 4352,
      "stałem": 4353,
      "strój": 4354,
      "ałe": 4355,
      "ałą": 4356,
      "dzał": 4357,
      "nii": 4358,
      "niło": 4359,
      "niku": 4360,
      "niły": 4361,
      "niało": 4362,
      "rzeń": 4363,
      "rzeź": 4364,
      "rzemieniami": 4365,
      "roku": 4366,
      "rował": 4367,
      "robo": 4368,
      "rośli": 4369,
      "rodzoną": 4370,
      "zaci": 4371,
      "zamy": 4372,
      "zachwi": 4373,
      "zatru": 4374,
      "zasła": 4375,
      "zabły": 4376,
      "zamil": 4377,
      "zastęp": 4378,
      "zamieni": 4379,
      "zasmu": 4380,
      "zabiera": 4381,
      "zawdzię": 4382,
      "zaszła": 4383,
      "zauf": 4384,
      "zajad": 4385,
      "zatrzymali": 4386,
      "zapominając": 4387,
      "gom": 4388,
      "gospo": 4389,
      "gosła": 4390,
      "wala": 4391,
      "wasze": 4392,
      "wawszy": 4393,
      "wanym": 4394,
      "waszych": 4395,
      "doło": 4396,
      "doda": 4397,
      "dości": 4398,
      "donoś": 4399,
      "dostałem": 4400,
      "ciło": 4401,
      "cicha": 4402,
      "rana": 4403,
      "rali": 4404,
      "ramieniu": 4405,
      "liła": 4406,
      "liwe": 4407,
      "liście": 4408,
      "liwego": 4409,
      "koniu": 4410,
      "kopy": 4411,
      "jeni": 4412,
      "jele": 4413,
      "jemnie": 4414,
      "wiska": 4415,
      "let": 4416,
      "lew": 4417,
      "leży": 4418,
      "rzyło": 4419,
      "rzywszy": 4420,
      "wywo": 4421,
      "wycze": 4422,
      "wyrzekł": 4423,
      "wybu": 4424,
      "wyszedł": 4425,
      "wyłą": 4426,
      "wyrazem": 4427,
      "wyciąg": 4428,
      "wyzwoli": 4429,
      "wykły": 4430,
      "wybuch": 4431,
      "wynagro": 4432,
      "łodzi": 4433,
      "łotra": 4434,
      "łotro": 4435,
      "łożenie": 4436,
      "byśmy": 4437,
      "dymu": 4438,
      "mij": 4439,
      "miły": 4440,
      "wowi": 4441,
      "kazał": 4442,
      "wiemy": 4443,
      "wielu": 4444,
      "dziu": 4445,
      "dziwa": 4446,
      "dzisia": 4447,
      "przer": 4448,
      "przemi": 4449,
      "przeno": 4450,
      "przepa": 4451,
      "przede": 4452,
      "przeję": 4453,
      "przepeł": 4454,
      "przeszył": 4455,
      "przeciął": 4456,
      "przerazi": 4457,
      "taniem": 4458,
      "tajem": 4459,
      "darem": 4460,
      "jaka": 4461,
      "jakiem": 4462,
      "jadowi": 4463,
      "toczyła": 4464,
      "topór": 4465,
      "nowa": 4466,
      "dzieści": 4467,
      "ciego": 4468,
      "odszukać": 4469,
      "ryk": 4470,
      "ryź": 4471,
      "czyś": 4472,
      "czych": 4473,
      "czyby": 4474,
      "czyny": 4475,
      "czytel": 4476,
      "mocy": 4477,
      "tecznie": 4478,
      "tymi": 4479,
      "tylu": 4480,
      "tysiące": 4481,
      "lana": 4482,
      "mieć": 4483,
      "par": 4484,
      "past": 4485,
      "palu": 4486,
      "palił": 4487,
      "padek": 4488,
      "obmy": 4489,
      "obfi": 4490,
      "objaśnie": 4491,
      "kuli": 4492,
      "przyda": 4493,
      "przybył": 4494,
      "przyszedł": 4495,
      "przyjem": 4496,
      "przywiąza": 4497,
      "przysią": 4498,
      "przypomnie": 4499,
      "przymoco": 4500,
      "przyrodzoną": 4501,
      "sić": 4502,
      "siłą": 4503,
      "czeniem": 4504,
      "czekać": 4505,
      "szek": 4506,
      "sześciu": 4507,
      "stali": 4508,
      "mach": 4509,
      "matkę": 4510,
      "ruch": 4511,
      "ruszaj": 4512,
      "piera": 4513,
      "rozbi": 4514,
      "rozpoznał": 4515,
      "rozdarł": 4516,
      "rozpoznać": 4517,
      "ręki": 4518,
      "mur": 4519,
      "mując": 4520,
      "mują": 4521,
      "bij": 4522,
      "biła": 4523,
      "bior": 4524,
      "bitwa": 4525,
      "najgor": 4526,
      "najgęst": 4527,
      "najlepiej": 4528,
      "najdzik": 4529,
      "najgłęb": 4530,
      "według": 4531,
      "wełni": 4532,
      "gać": 4533,
      "gach": 4534,
      "gawę": 4535,
      "bienie": 4536,
      "czaro": 4537,
      "cyn": 4538,
      "pią": 4539,
      "pilnie": 4540,
      "pisać": 4541,
      "piórami": 4542,
      "boku": 4543,
      "bokach": 4544,
      "skrę": 4545,
      "skrom": 4546,
      "bacznie": 4547,
      "gdyśmy": 4548,
      "spotk": 4549,
      "pera": 4550,
      "poddał": 4551,
      "więzie": 4552,
      "więźnia": 4553,
      "szab": 4554,
      "szatana": 4555,
      "cając": 4556,
      "chali": 4557,
      "tembardziej": 4558,
      "prawej": 4559,
      "pragnie": 4560,
      "znacz": 4561,
      "znala": 4562,
      "ałym": 4563,
      "zepsu": 4564,
      "głosie": 4565,
      "głosy": 4566,
      "promienie": 4567,
      "Niedźwie": 4568,
      "dep": 4569,
      "deszczu": 4570,
      "wzgar": 4571,
      "wznosi": 4572,
      "niemniej": 4573,
      "duch": 4574,
      "duży": 4575,
      "dusza": 4576,
      "dużo": 4577,
      "wiatru": 4578,
      "powiem": 4579,
      "powietrzu": 4580,
      "sumienia": 4581,
      "Indyanach": 4582,
      "przezwycię": 4583,
      "bezbro": 4584,
      "bezwła": 4585,
      "bezczyn": 4586,
      "jsce": 4587,
      "strzeżenie": 4588,
      "tędy": 4589,
      "żający": 4590,
      "Pomiędzy": 4591,
      "Pomimo": 4592,
      "nadprzyrodzoną": 4593,
      "myślać": 4594,
      "ogniu": 4595,
      "mnienie": 4596,
      "trzył": 4597,
      "gęste": 4598,
      "trzej": 4599,
      "trzeciego": 4600,
      "ażebyś": 4601,
      "ażebyśmy": 4602,
      "twojego": 4603,
      "twoją": 4604,
      "tworząc": 4605,
      "śmiesz": 4606,
      "jęt": 4607,
      "lone": 4608,
      "lonego": 4609,
      "przedstawił": 4610,
      "wszystkim": 4611,
      "wszystkiego": 4612,
      "wąż": 4613,
      "wąwo": 4614,
      "chwilo": 4615,
      "strachu": 4616,
      "miarę": 4617,
      "ącymi": 4618,
      "zdoł": 4619,
      "męki": 4620,
      "męża": 4621,
      "męczyć": 4622,
      "Jedź": 4623,
      "pędz": 4624,
      "pędząc": 4625,
      "pędem": 4626,
      "cału": 4627,
      "pozor": 4628,
      "wrócę": 4629,
      "górą": 4630,
      "mniejsza": 4631,
      "słowem": 4632,
      "dzych": 4633,
      "słuchał": 4634,
      "słyszałem": 4635,
      "cudem": 4636,
      "cudzych": 4637,
      "Zabi": 4638,
      "Zaraz": 4639,
      "towarzystwo": 4640,
      "intere": 4641,
      "pewna": 4642,
      "samą": 4643,
      "anymi": 4644,
      "dzonej": 4645,
      "mógłby": 4646,
      "kwadran": 4647,
      "dalece": 4648,
      "końmi": 4649,
      "przyjaz": 4650,
      "słem": 4651,
      "nięcie": 4652,
      "krótkim": 4653,
      "długa": 4654,
      "Indyaninem": 4655,
      "tamtego": 4656,
      "Weź": 4657,
      "wszedł": 4658,
      "Jako": 4659,
      "czoną": 4660,
      "biłem": 4661,
      "ujrzysz": 4662,
      "najmniejsza": 4663,
      "trawy": 4664,
      "stępy": 4665,
      "skórom": 4666,
      "szedłem": 4667,
      "młodzieży": 4668,
      "Wenongę": 4669,
      "Wenondze": 4670,
      "sąsiada": 4671,
      "słabo": 4672,
      "wiązał": 4673,
      "siadłszy": 4674,
      "czerwono": 4675,
      "czerwoną": 4676,
      "żone": 4677,
      "namiot": 4678,
      "wielkiej": 4679,
      "kobietami": 4680,
      "myśliws": 4681,
      "chyba": 4682,
      "gardła": 4683,
      "małe": 4684,
      "małą": 4685,
      "łączyć": 4686,
      "ognista": 4687,
      "ogniskiem": 4688,
      "ognistej": 4689,
      "brzegów": 4690,
      "przeciwni": 4691,
      "przerażony": 4692,
      "mogły": 4693,
      "okrę": 4694,
      "okrą": 4695,
      "płynęła": 4696,
      "soby": 4697,
      "trzą": 4698,
      "podobnym": 4699,
      "wydawszy": 4700,
      "biednego": 4701,
      "szcząc": 4702,
      "stymi": 4703,
      "nicę": 4704,
      "zabitego": 4705,
      "zapytała": 4706,
      "Piankishawowi": 4707,
      "Przytem": 4708,
      "świeżo": 4709,
      "oburz": 4710,
      "Przekona": 4711,
      "odważ": 4712,
      "odwagą": 4713,
      "odważył": 4714,
      "zamordowanych": 4715,
      "przyjacielu": 4716,
      "trwogę": 4717,
      "pułkownikowi": 4718,
      "szemu": 4719,
      "położenie": 4720,
      "położeniu": 4721,
      "umrze": 4722,
      "umrzeć": 4723,
      "wspa": 4724,
      "wspó": 4725,
      "złoci": 4726,
      "złodziej": 4727,
      "złodzieja": 4728,
      "jeńców": 4729,
      "jeńcowi": 4730,
      "słowach": 4731,
      "robić": 4732,
      "Gdybyś": 4733,
      "obadwaj": 4734,
      "chociażby": 4735,
      "rpany": 4736,
      "ukryć": 4737,
      "ukrycia": 4738,
      "dziatek": 4739,
      "przekonać": 4740,
      "tropi": 4741,
      "świadczyły": 4742,
      "możnaby": 4743,
      "Wiesz": 4744,
      "krzakach": 4745,
      "wrzawy": 4746,
      "głupstwo": 4747,
      "zdołamy": 4748,
      "zdołają": 4749,
      "mężów": 4750,
      "środkiem": 4751,
      "rodzinę": 4752,
      "Niechże": 4753,
      "nieszczęśliwych": 4754,
      "uderzenia": 4755,
      "milczał": 4756,
      "pozostawił": 4757,
      "pozostawiając": 4758,
      "pozostawili": 4759,
      "własnych": 4760,
      "zemstą": 4761,
      "zniknął": 4762,
      "powtarza": 4763,
      "zaśle": 4764,
      "stępkiem": 4765,
      "Cukierkiem": 4766,
      "zbrodnia": 4767,
      "zbliżając": 4768,
      "wioski": 4769,
      "wiernego": 4770,
      "dalszą": 4771,
      "największem": 4772,
      "największym": 4773,
      "największej": 4774,
      "czupryn": 4775,
      "czupryną": 4776,
      "stanowiły": 4777,
      "stanowiska": 4778,
      "stanowisko": 4779,
      "zdało": 4780,
      "zdrów": 4781,
      "sposobność": 4782,
      "wracać": 4783,
      "pniami": 4784,
      "umiem": 4785,
      "umiera": 4786,
      "napast": 4787,
      "groźby": 4788,
      "zdobycz": 4789,
      "ojczy": 4790,
      "ojcem": 4791,
      "zostali": 4792,
      "chłopiec": 4793,
      "gotową": 4794,
      "dowody": 4795,
      "litość": 4796,
      "palów": 4797,
      "stamtąd": 4798,
      "wszelkiemi": 4799,
      "krwawy": 4800,
      "krwawe": 4801,
      "idąc": 4802,
      "dowiedział": 4803,
      "dawno": 4804,
      "skrępowane": 4805,
      "skrępowanego": 4806,
      "mieszkań": 4807,
      "mieszkanie": 4808,
      "niezmierną": 4809,
      "obydwu": 4810,
      "ratuj": 4811,
      "chodziła": 4812,
      "ludzkie": 4813,
      "czarnoksiężnik": 4814,
      "godne": 4815,
      "byliby": 4816,
      "panu": 4817,
      "śpiesz": 4818,
      "niesiony": 4819,
      "zarosł": 4820,
      "spojrzawszy": 4821,
      "spojrzenia": 4822,
      "trudów": 4823,
      "znajdował": 4824,
      "głębokie": 4825,
      "zwycięz": 4826,
      "roztrzaskać": 4827,
      "Dlatego": 4828,
      "dłości": 4829,
      "zważa": 4830,
      "przestrach": 4831,
      "boleść": 4832,
      "Ryszarda": 4833,
      "Ryszardzie": 4834,
      "Pamię": 4835,
      "tłum": 4836,
      "zbudził": 4837,
      "widziałeś": 4838,
      "nosić": 4839,
      "rozpoczyna": 4840,
      "Serca": 4841,
      "zrobić": 4842,
      "zamierzał": 4843,
      "kochany": 4844,
      "wypadli": 4845,
      "przypatry": 4846,
      "przypatrywał": 4847,
      "któremu": 4848,
      "pierwszym": 4849,
      "postanowiłem": 4850,
      "niewiasty": 4851,
      "dolinę": 4852,
      "konno": 4853,
      "wierzch": 4854,
      "przejmo": 4855,
      "skradzi": 4856,
      "wstręt": 4857,
      "dziewczęta": 4858,
      "powtórzył": 4859,
      "Trzech": 4860,
      "całym": 4861,
      "ogarnęły": 4862,
      "psina": 4863,
      "psiny": 4864,
      "uśmiech": 4865,
      "niepodobie": 4866,
      "niebora": 4867,
      "niewolników": 4868,
      "niewolnikiem": 4869,
      "doświadczenia": 4870,
      "doświadczonych": 4871,
      "pamiętaj": 4872,
      "szeroką": 4873,
      "Telią": 4874,
      "tchórz": 4875,
      "tchórza": 4876,
      "zręcznie": 4877,
      "chwytając": 4878,
      "dozwoliła": 4879,
      "łożysku": 4880,
      "jaśniał": 4881,
      "przytomność": 4882,
      "spotkania": 4883,
      "skalpo": 4884,
      "skończy": 4885,
      "tryumfal": 4886,
      "kolonistów": 4887,
      "opiekę": 4888,
      "opowiem": 4889,
      "opowiedział": 4890,
      "nazywają": 4891,
      "porwali": 4892,
      "ponowił": 4893,
      "przeprawić": 4894,
      "siodło": 4895,
      "głośno": 4896,
      "głośnym": 4897,
      "ostrzegł": 4898,
      "lękam": 4899,
      "opowiadanie": 4900,
      "odzyska": 4901,
      "uratowania": 4902,
      "pomordować": 4903,
      "wiodącą": 4904,
      "wyswobodzić": 4905,
      "szczególnie": 4906,
      "rzucać": 4907,
      "Sam": 4908,
      "mruknął": 4909,
      "niedołę": 4910,
      "niechęć": 4911,
      "niechęcią": 4912,
      "szkarła": 4913,
      "chróst": 4914,
      "zajęła": 4915,
      "warun": 4916,
      "warunki": 4917,
      "leśny": 4918,
      "zerwać": 4919,
      "Jednak": 4920,
      "słuszność": 4921,
      "drżała": 4922,
      "sprawiedliwości": 4923,
      "Ameryki": 4924,
      "ogonem": 4925,
      "włóczę": 4926,
      "zdumieniem": 4927,
      "szanow": 4928,
      "powalił": 4929,
      "posłaniu": 4930,
      "wyzwanie": 4931,
      "wysileniem": 4932,
      "szelest": 4933,
      "chodzący": 4934,
      "pozostałych": 4935,
      "schwyta": 4936,
      "przeszkody": 4937,
      "testament": 4938,
      "Czego": 4939,
      "Mylisz": 4940,
      "rgiń": 4941,
      "srogie": 4942,
      "zobaczysz": 4943,
      "pokonać": 4944,
      "wymierzył": 4945,
      "wojnę": 4946,
      "wesoło": 4947,
      "pistoletów": 4948,
      "baryłkę": 4949,
      "podejść": 4950,
      "podejrzenie": 4951,
      "Jesteś": 4952,
      "pierwszej": 4953,
      "śladów": 4954,
      "ucieczce": 4955,
      "opończę": 4956,
      "usiłował": 4957,
      "Młody": 4958,
      "oswobodzić": 4959,
      "pałasz": 4960,
      "wpatrywał": 4961,
      "wspomnienie": 4962,
      "nadejdzie": 4963,
      "pożre": 4964,
      "zaprzestał": 4965,
      "zachęcał": 4966,
      "cichym": 4967,
      "wysoki": 4968,
      "pieszo": 4969,
      "krzywdy": 4970,
      "krzywdę": 4971,
      "chwilkę": 4972,
      "usiłując": 4973,
      "Kamiennego": 4974,
      "Kamiennem": 4975,
      "Ohio": 4976,
      "Wojo": 4977,
      "szponami": 4978,
      "posiadłości": 4979,
      "pokażę": 4980,
      "postanowili": 4981,
      "zatopił": 4982,
      "korzystając": 4983,
      "widokiem": 4984,
      "wystarczy": 4985,
      "wyrządził": 4986,
      "minut": 4987,
      "tabunu": 4988,
      "oblicze": 4989,
      "skrwawiona": 4990,
      "sukce": 4991,
      "wymówką": 4992,
      "uciekających": 4993,
      "Wielki": 4994,
      "narażać": 4995,
      "wigwamu": 4996,
      "Miejsce": 4997,
      "Szybko": 4998,
      "istnie": 4999,
      "owoc": 5000,
      "swemu": 5001,
      "wczoraj": 5002,
      "południ": 5003,
      "poruszenia": 5004,
      "poczciwy": 5005,
      "dokumen": 5006,
      "doskonale": 5007,
      "wywijając": 5008,
      "mianowicie": 5009,
      "żelaz": 5010,
      "kapelu": 5011,
      "rycer": 5012,
      "zewsząd": 5013,
      "swobodnie": 5014,
      "płomieniach": 5015,
      "zgrzytając": 5016,
      "Bez": 5017,
      "Daniela": 5018,
      "Groma": 5019,
      "Obydwaj": 5020,
      "Pójdź": 5021,
      "prąd": 5022,
      "zmiana": 5023,
      "zniecierpliwiony": 5024,
      "naśladował": 5025,
      "zawiado": 5026,
      "zanadrza": 5027,
      "zaklina": 5028,
      "wyciągając": 5029,
      "łotrów": 5030,
      "łoskot": 5031,
      "łańcuch": 5032,
      "dziesiąt": 5033,
      "języku": 5034,
      "Zapewne": 5035,
      "myśliwski": 5036,
      "opowiadał": 5037,
      "karawanę": 5038,
      "wyprawach": 5039,
      "plemiona": 5040,
      "konwulsyj": 5041,
      "nadaremnie": 5042,
      "zamknięte": 5043,
      "Giń": 5044,
      "Iverton": 5045,
      "Ostrożnie": 5046,
      "Wprawdzie": 5047,
      "amerykań": 5048,
      "kentuc": 5049,
      "modli": 5050,
      "odzna": 5051,
      "sprzę": 5052,
      "uporczy": 5053,
      "wszakże": 5054,
      "śmiać": 5055,
      "potrafię": 5056,
      "zachwiał": 5057,
      "kopyt": 5058,
      "dzisiaj": 5059,
      "przysiągł": 5060,
      "biorąc": 5061,
      "Bia": 5062,
      "Ci": 5063,
      "Cza": 5064,
      "Cała": 5065,
      "Dale": 5066,
      "Dwaj": 5067,
      "Go": 5068,
      "Gło": 5069,
      "Gryź": 5070,
      "Krew": 5071,
      "Któż": 5072,
      "Mu": 5073,
      "Mniem": 5074,
      "Mor": 5075,
      "Mniejsza": 5076,
      "Nę": 5077,
      "On": 5078,
      "Or": 5079,
      "Opo": 5080,
      "Ogie": 5081,
      "Około": 5082,
      "Opatrz": 5083,
      "Oprócz": 5084,
      "Obok": 5085,
      "Ognia": 5086,
      "Pię": 5087,
      "Pal": 5088,
      "Rów": 5089,
      "Rzu": 5090,
      "Si": 5091,
      "Sy": 5092,
      "Są": 5093,
      "Skła": 5094,
      "Spiesz": 5095,
      "Tę": 5096,
      "Tru": 5097,
      "Twier": 5098,
      "Uj": 5099,
      "Uzbro": 5100,
      "Wra": 5101,
      "Wrza": 5102,
      "XX": 5103,
      "Zosta": 5104,
      "Zwróci": 5105,
      "Zresztą": 5106,
      "ar": 5107,
      "acz": 5108,
      "ach": 5109,
      "bał": 5110,
      "bol": 5111,
      "brzu": 5112,
      "bród": 5113,
      "cwałem": 5114,
      "dły": 5115,
      "dmu": 5116,
      "dały": 5117,
      "dkiem": 5118,
      "drą": 5119,
      "dany": 5120,
      "dbym": 5121,
      "epo": 5122,
      "ene": 5123,
      "gwia": 5124,
      "gwią": 5125,
      "gnąwszy": 5126,
      "hał": 5127,
      "ić": 5128,
      "isk": 5129,
      "idź": 5130,
      "iskrzy": 5131,
      "jan": 5132,
      "jony": 5133,
      "kan": 5134,
      "kre": 5135,
      "kały": 5136,
      "kłych": 5137,
      "kształ": 5138,
      "lny": 5139,
      "mąd": 5140,
      "mano": 5141,
      "many": 5142,
      "nt": 5143,
      "nna": 5144,
      "ndz": 5145,
      "nni": 5146,
      "nko": 5147,
      "nny": 5148,
      "nnego": 5149,
      "nący": 5150,
      "nących": 5151,
      "osi": 5152,
      "orę": 5153,
      "opra": 5154,
      "otrzy": 5155,
      "ową": 5156,
      "oświad": 5157,
      "ogłu": 5158,
      "opry": 5159,
      "opatrz": 5160,
      "opóź": 5161,
      "onemi": 5162,
      "osoby": 5163,
      "oskalpo": 5164,
      "psie": 5165,
      "pnął": 5166,
      "pałem": 5167,
      "pane": 5168,
      "psów": 5169,
      "rny": 5170,
      "rały": 5171,
      "rnym": 5172,
      "se": 5173,
      "sre": 5174,
      "sprowa": 5175,
      "sor": 5176,
      "spełnie": 5177,
      "spło": 5178,
      "snęło": 5179,
      "spóź": 5180,
      "spis": 5181,
      "swymi": 5182,
      "tre": 5183,
      "tnego": 5184,
      "tnej": 5185,
      "twem": 5186,
      "tkać": 5187,
      "trwał": 5188,
      "tłó": 5189,
      "twór": 5190,
      "ul": 5191,
      "uko": 5192,
      "uło": 5193,
      "uprze": 5194,
      "upi": 5195,
      "utę": 5196,
      "ulę": 5197,
      "utru": 5198,
      "uwiel": 5199,
      "uszu": 5200,
      "utrzyma": 5201,
      "ukara": 5202,
      "ukła": 5203,
      "użyć": 5204,
      "umar": 5205,
      "udała": 5206,
      "uple": 5207,
      "wle": 5208,
      "wsta": 5209,
      "wprzód": 5210,
      "wszą": 5211,
      "wpła": 5212,
      "wcom": 5213,
      "wzami": 5214,
      "wnosić": 5215,
      "znie": 5216,
      "zni": 5217,
      "zwię": 5218,
      "zdro": 5219,
      "złowie": 5220,
      "zin": 5221,
      "zmyśl": 5222,
      "zbla": 5223,
      "zbiera": 5224,
      "zrzec": 5225,
      "zwłaszcza": 5226,
      "zbol": 5227,
      "łby": 5228,
      "łku": 5229,
      "łej": 5230,
      "Śro": 5231,
      "śnia": 5232,
      "ścię": 5233,
      "żdy": 5234,
      "żąc": 5235,
      "żne": 5236,
      "żbi": 5237,
      "żały": 5238,
      "żącego": 5239,
      "nieu": 5240,
      "niewi": 5241,
      "nieraz": 5242,
      "niebu": 5243,
      "niepoko": 5244,
      "niektórych": 5245,
      "niemasz": 5246,
      "nieostroż": 5247,
      "niewidzi": 5248,
      "niedługo": 5249,
      "niejakim": 5250,
      "niedaleko": 5251,
      "niejakiej": 5252,
      "niewyraźne": 5253,
      "nieznajomy": 5254,
      "nacie": 5255,
      "naczy": 5256,
      "nama": 5257,
      "naraz": 5258,
      "naszego": 5259,
      "należ": 5260,
      "naszem": 5261,
      "natch": 5262,
      "naprę": 5263,
      "naprzeciwko": 5264,
      "nabić": 5265,
      "namyślał": 5266,
      "narazi": 5267,
      "następnie": 5268,
      "szny": 5269,
      "sztu": 5270,
      "szkę": 5271,
      "szkara": 5272,
      "szane": 5273,
      "szonego": 5274,
      "czku": 5275,
      "czce": 5276,
      "chą": 5277,
      "chra": 5278,
      "chlu": 5279,
      "chwal": 5280,
      "poci": 5281,
      "poli": 5282,
      "poty": 5283,
      "pomie": 5284,
      "poku": 5285,
      "pocho": 5286,
      "potwo": 5287,
      "powięk": 5288,
      "powoli": 5289,
      "poszepnął": 5290,
      "powrócił": 5291,
      "pogrom": 5292,
      "powstrzyma": 5293,
      "posunął": 5294,
      "posłusz": 5295,
      "popsu": 5296,
      "podobie": 5297,
      "porząd": 5298,
      "porzuciwszy": 5299,
      "pomyślałem": 5300,
      "pożaru": 5301,
      "powstrzymał": 5302,
      "pocału": 5303,
      "postępkiem": 5304,
      "stch": 5305,
      "stały": 5306,
      "stego": 5307,
      "strą": 5308,
      "stwu": 5309,
      "strzask": 5310,
      "ałsz": 5311,
      "dzonych": 5312,
      "nice": 5313,
      "niała": 5314,
      "niszczą": 5315,
      "rzej": 5316,
      "rzece": 5317,
      "rzezi": 5318,
      "rosł": 5319,
      "robię": 5320,
      "zata": 5321,
      "zasta": 5322,
      "zarę": 5323,
      "zastrze": 5324,
      "zatę": 5325,
      "zaką": 5326,
      "zadał": 5327,
      "zakry": 5328,
      "zatrwo": 5329,
      "zamoż": 5330,
      "zawód": 5331,
      "zapła": 5332,
      "zadowo": 5333,
      "zaciąg": 5334,
      "zabrał": 5335,
      "zatrzymać": 5336,
      "zadra": 5337,
      "zapis": 5338,
      "zadość": 5339,
      "zadziwienia": 5340,
      "zapuścili": 5341,
      "zapóźno": 5342,
      "zamordują": 5343,
      "zastępy": 5344,
      "zajaśniał": 5345,
      "zaprzysiągł": 5346,
      "zapałem": 5347,
      "gody": 5348,
      "gory": 5349,
      "gorzej": 5350,
      "wan": 5351,
      "wań": 5352,
      "wagi": 5353,
      "wanej": 5354,
      "wającego": 5355,
      "wającym": 5356,
      "wapliwie": 5357,
      "sięgnął": 5358,
      "dow": 5359,
      "doty": 5360,
      "doma": 5361,
      "dobi": 5362,
      "doba": 5363,
      "dobro": 5364,
      "donio": 5365,
      "dowoli": 5366,
      "dome": 5367,
      "dotów": 5368,
      "dochodząc": 5369,
      "dosłyszeć": 5370,
      "dolaty": 5371,
      "dochodził": 5372,
      "dokazać": 5373,
      "ciszy": 5374,
      "ciszej": 5375,
      "racz": 5376,
      "rano": 5377,
      "rasta": 5378,
      "ranę": 5379,
      "radzę": 5380,
      "raniony": 5381,
      "radbym": 5382,
      "liż": 5383,
      "lich": 5384,
      "liści": 5385,
      "licho": 5386,
      "liczył": 5387,
      "koł": 5388,
      "koje": 5389,
      "kowie": 5390,
      "kość": 5391,
      "jecie": 5392,
      "jeniec": 5393,
      "jeżd": 5394,
      "andotów": 5395,
      "wiło": 5396,
      "winy": 5397,
      "winę": 5398,
      "wisie": 5399,
      "wiście": 5400,
      "widzia": 5401,
      "widowi": 5402,
      "wirgiń": 5403,
      "wyr": 5404,
      "wyprze": 5405,
      "wyraz": 5406,
      "wypeł": 5407,
      "wymordo": 5408,
      "wykra": 5409,
      "wydać": 5410,
      "wymówił": 5411,
      "wymówi": 5412,
      "wypła": 5413,
      "wytch": 5414,
      "wybiegł": 5415,
      "wybrał": 5416,
      "wyprowadził": 5417,
      "wydziedzi": 5418,
      "wyjaś": 5419,
      "wygląd": 5420,
      "wywołał": 5421,
      "wybiega": 5422,
      "wygasł": 5423,
      "łotrze": 5424,
      "łonić": 5425,
      "byst": 5426,
      "bystro": 5427,
      "dycha": 5428,
      "miny": 5429,
      "miną": 5430,
      "miłe": 5431,
      "wodo": 5432,
      "woju": 5433,
      "wojs": 5434,
      "wodzo": 5435,
      "kary": 5436,
      "wienia": 5437,
      "wiekiem": 5438,
      "wiedziałem": 5439,
      "wiedzieli": 5440,
      "dzina": 5441,
      "dziko": 5442,
      "dzika": 5443,
      "dziale": 5444,
      "dzisie": 5445,
      "działo": 5446,
      "kiwał": 5447,
      "kiwać": 5448,
      "przewi": 5449,
      "przele": 5450,
      "przeze": 5451,
      "przecią": 5452,
      "prześli": 5453,
      "przeważ": 5454,
      "przebieg": 5455,
      "przewyż": 5456,
      "przeprowadzić": 5457,
      "przedziera": 5458,
      "przetnij": 5459,
      "tacy": 5460,
      "tają": 5461,
      "takiem": 5462,
      "takiego": 5463,
      "szymi": 5464,
      "szycie": 5465,
      "szyły": 5466,
      "łaska": 5467,
      "łagodnie": 5468,
      "daj": 5469,
      "dawszy": 5470,
      "dawał": 5471,
      "dający": 5472,
      "dachu": 5473,
      "dajmy": 5474,
      "jam": 5475,
      "jani": 5476,
      "tor": 5477,
      "toż": 5478,
      "topo": 5479,
      "tora": 5480,
      "nowi": 5481,
      "nosem": 5482,
      "nogą": 5483,
      "noszę": 5484,
      "nogami": 5485,
      "nocześnie": 5486,
      "dziela": 5487,
      "dzielił": 5488,
      "ciesz": 5489,
      "odby": 5490,
      "oder": 5491,
      "odrazu": 5492,
      "odwrót": 5493,
      "rych": 5494,
      "ryknął": 5495,
      "czyż": 5496,
      "czyha": 5497,
      "czynić": 5498,
      "czysty": 5499,
      "czyńcy": 5500,
      "mości": 5501,
      "ter": 5502,
      "tera": 5503,
      "tery": 5504,
      "tył": 5505,
      "tytu": 5506,
      "lato": 5507,
      "latu": 5508,
      "miedzi": 5509,
      "pak": 5510,
      "para": 5511,
      "pali": 5512,
      "pada": 5513,
      "paty": 5514,
      "pania": 5515,
      "pasa": 5516,
      "pagó": 5517,
      "palą": 5518,
      "patrzał": 5519,
      "obró": 5520,
      "obłą": 5521,
      "obchodzi": 5522,
      "objął": 5523,
      "obłożyli": 5524,
      "obrała": 5525,
      "niawszy": 5526,
      "nątrz": 5527,
      "ścił": 5528,
      "ścianę": 5529,
      "kuję": 5530,
      "przyło": 5531,
      "przywo": 5532,
      "przymu": 5533,
      "przytem": 5534,
      "przyrzekł": 5535,
      "przybli": 5536,
      "przychy": 5537,
      "przyłą": 5538,
      "przybyły": 5539,
      "przynosi": 5540,
      "przyszli": 5541,
      "przypomina": 5542,
      "przyjąć": 5543,
      "siwy": 5544,
      "czer": 5545,
      "czeń": 5546,
      "czekał": 5547,
      "Natychmiast": 5548,
      "Należało": 5549,
      "sad": 5550,
      "sal": 5551,
      "sama": 5552,
      "szeni": 5553,
      "szenia": 5554,
      "stado": 5555,
      "staru": 5556,
      "starzec": 5557,
      "macz": 5558,
      "macie": 5559,
      "maków": 5560,
      "matery": 5561,
      "ruchy": 5562,
      "ruiny": 5563,
      "pieś": 5564,
      "piecho": 5565,
      "pieniu": 5566,
      "pienię": 5567,
      "piesku": 5568,
      "piekła": 5569,
      "cewa": 5570,
      "mylił": 5571,
      "wałeś": 5572,
      "roze": 5573,
      "rozcie": 5574,
      "rozpu": 5575,
      "rozpra": 5576,
      "rozpozna": 5577,
      "rozpła": 5578,
      "rozwar": 5579,
      "rozwiąza": 5580,
      "rozjaś": 5581,
      "rozdziera": 5582,
      "rozkosz": 5583,
      "rozmyślać": 5584,
      "rękoje": 5585,
      "muje": 5586,
      "musie": 5587,
      "bionych": 5588,
      "żyło": 5589,
      "rech": 5590,
      "regu": 5591,
      "najsil": 5592,
      "najprzód": 5593,
      "najpięk": 5594,
      "najbliż": 5595,
      "najprędzej": 5596,
      "wez": 5597,
      "westch": 5598,
      "galo": 5599,
      "gających": 5600,
      "bierz": 5601,
      "bieniem": 5602,
      "róg": 5603,
      "czam": 5604,
      "czat": 5605,
      "tane": 5606,
      "jakże": 5607,
      "piwszy": 5608,
      "boju": 5609,
      "borem": 5610,
      "skrze": 5611,
      "sknieniem": 5612,
      "skwapliwie": 5613,
      "puśli": 5614,
      "pusty": 5615,
      "purpu": 5616,
      "banie": 5617,
      "bawoli": 5618,
      "bawełni": 5619,
      "coby": 5620,
      "cone": 5621,
      "cokolwiek": 5622,
      "niejszej": 5623,
      "spotkał": 5624,
      "spoglądał": 5625,
      "podłu": 5626,
      "podszedł": 5627,
      "podsunął": 5628,
      "podnieść": 5629,
      "podnosząc": 5630,
      "szając": 5631,
      "szaku": 5632,
      "cami": 5633,
      "tutej": 5634,
      "tuzin": 5635,
      "chata": 5636,
      "chatkę": 5637,
      "sier": 5638,
      "sieni": 5639,
      "siedząc": 5640,
      "siedem": 5641,
      "siedziała": 5642,
      "bel": 5643,
      "prawa": 5644,
      "prawić": 5645,
      "chodzić": 5646,
      "chowaj": 5647,
      "ludy": 5648,
      "znaczenia": 5649,
      "znakomi": 5650,
      "zeszedł": 5651,
      "głodu": 5652,
      "głowami": 5653,
      "prostą": 5654,
      "prosił": 5655,
      "proszę": 5656,
      "prowin": 5657,
      "promieniami": 5658,
      "prosiła": 5659,
      "propozy": 5660,
      "taką": 5661,
      "skami": 5662,
      "deł": 5663,
      "decy": 5664,
      "wzno": 5665,
      "wzbu": 5666,
      "wzniósł": 5667,
      "dum": 5668,
      "dując": 5669,
      "dusze": 5670,
      "wiali": 5671,
      "wiary": 5672,
      "wiatr": 5673,
      "wiadomo": 5674,
      "wiadano": 5675,
      "cięża": 5676,
      "Ralfie": 5677,
      "sukie": 5678,
      "sunęła": 5679,
      "sumieniu": 5680,
      "krzyż": 5681,
      "rzekła": 5682,
      "którymi": 5683,
      "bezbo": 5684,
      "bezdro": 5685,
      "bezprzytom": 5686,
      "jutrze": 5687,
      "jutro": 5688,
      "strzeg": 5689,
      "żadnej": 5690,
      "żagwią": 5691,
      "stos": 5692,
      "stokroć": 5693,
      "dlaczego": 5694,
      "szczenie": 5695,
      "Powiada": 5696,
      "Powiedział": 5697,
      "Powiadano": 5698,
      "nadbiegł": 5699,
      "Indyanka": 5700,
      "skokiem": 5701,
      "skoczywszy": 5702,
      "skonał": 5703,
      "mniemając": 5704,
      "ciągle": 5705,
      "byłbyś": 5706,
      "osada": 5707,
      "osadą": 5708,
      "osadach": 5709,
      "trzywszy": 5710,
      "rzucał": 5711,
      "czując": 5712,
      "czuwających": 5713,
      "ądku": 5714,
      "gromu": 5715,
      "trzeci": 5716,
      "trzema": 5717,
      "iżby": 5718,
      "śmiech": 5719,
      "śmiejąc": 5720,
      "brać": 5721,
      "brankę": 5722,
      "jękami": 5723,
      "lono": 5724,
      "przedtem": 5725,
      "syn": 5726,
      "prowadź": 5727,
      "prowadzono": 5728,
      "strach": 5729,
      "straty": 5730,
      "straży": 5731,
      "stratą": 5732,
      "nakłonić": 5733,
      "cząt": 5734,
      "pełzn": 5735,
      "szczyt": 5736,
      "szczytu": 5737,
      "miasta": 5738,
      "ziemia": 5739,
      "walką": 5740,
      "walczenia": 5741,
      "Osagami": 5742,
      "har": 5743,
      "hanieb": 5744,
      "miałbym": 5745,
      "Jeszcze": 5746,
      "Jedni": 5747,
      "tenczas": 5748,
      "dałeś": 5749,
      "pędzi": 5750,
      "pędziła": 5751,
      "orszak": 5752,
      "orszaku": 5753,
      "dziłem": 5754,
      "pozoru": 5755,
      "pozwala": 5756,
      "dobrą": 5757,
      "dobrym": 5758,
      "ostatnie": 5759,
      "wrócenia": 5760,
      "pierał": 5761,
      "pierwej": 5762,
      "wnij": 5763,
      "węsząc": 5764,
      "zuchów": 5765,
      "słyszawszy": 5766,
      "miejsc": 5767,
      "cugle": 5768,
      "wemi": 5769,
      "pytań": 5770,
      "pytania": 5771,
      "trudami": 5772,
      "towarzyszył": 5773,
      "indziej": 5774,
      "anio": 5775,
      "dnij": 5776,
      "dnić": 5777,
      "pięści": 5778,
      "pięścią": 5779,
      "pięcio": 5780,
      "same": 5781,
      "samego": 5782,
      "siostrą": 5783,
      "Brat": 5784,
      "człowiekowi": 5785,
      "konary": 5786,
      "zio": 5787,
      "zimie": 5788,
      "końce": 5789,
      "końskich": 5790,
      "wstę": 5791,
      "wychy": 5792,
      "drzewo": 5793,
      "nięty": 5794,
      "niętego": 5795,
      "nościami": 5796,
      "gdybyśmy": 5797,
      "krótko": 5798,
      "długiego": 5799,
      "padło": 5800,
      "tamtę": 5801,
      "kiedyniekiedy": 5802,
      "czonego": 5803,
      "biłeś": 5804,
      "kradzieży": 5805,
      "wolno": 5806,
      "dzeniem": 5807,
      "skutek": 5808,
      "skutku": 5809,
      "skutkiem": 5810,
      "twarzą": 5811,
      "polece": 5812,
      "Czyliż": 5813,
      "okolicz": 5814,
      "przodem": 5815,
      "dzający": 5816,
      "nioną": 5817,
      "nionego": 5818,
      "nionej": 5819,
      "leżały": 5820,
      "sądzie": 5821,
      "słab": 5822,
      "słabym": 5823,
      "czyłem": 5824,
      "większej": 5825,
      "dąb": 5826,
      "drudzy": 5827,
      "krwio": 5828,
      "żonego": 5829,
      "wielka": 5830,
      "wielkiem": 5831,
      "zdar": 5832,
      "zdanie": 5833,
      "zdarł": 5834,
      "zdawały": 5835,
      "kobietą": 5836,
      "myśliwy": 5837,
      "chyb": 5838,
      "brała": 5839,
      "małego": 5840,
      "małpy": 5841,
      "czarne": 5842,
      "czarną": 5843,
      "szumu": 5844,
      "brzegiem": 5845,
      "świata": 5846,
      "mieszały": 5847,
      "białymi": 5848,
      "kilkaset": 5849,
      "kilkadziesiąt": 5850,
      "płynął": 5851,
      "sowi": 5852,
      "uwagą": 5853,
      "wydawał": 5854,
      "wydawały": 5855,
      "ciemna": 5856,
      "ciemne": 5857,
      "siekiera": 5858,
      "bezpieczeństwa": 5859,
      "bezpieczeństwem": 5860,
      "Każdy": 5861,
      "wrogom": 5862,
      "biedna": 5863,
      "biednej": 5864,
      "chęcią": 5865,
      "poznawszy": 5866,
      "poznaliśmy": 5867,
      "zabij": 5868,
      "zabić": 5869,
      "zabili": 5870,
      "zabity": 5871,
      "zapytać": 5872,
      "Przyj": 5873,
      "świeże": 5874,
      "oburzeniem": 5875,
      "obudziło": 5876,
      "silniej": 5877,
      "silnym": 5878,
      "Przed": 5879,
      "chciwy": 5880,
      "chciało": 5881,
      "chciałem": 5882,
      "mówiliśmy": 5883,
      "blade": 5884,
      "niłem": 5885,
      "prawdzi": 5886,
      "prawda": 5887,
      "pochwycić": 5888,
      "przyjaciel": 5889,
      "trwoga": 5890,
      "stworzeniem": 5891,
      "nocleg": 5892,
      "tkałem": 5893,
      "połowy": 5894,
      "położonej": 5895,
      "straszna": 5896,
      "straszny": 5897,
      "straszne": 5898,
      "straszliwy": 5899,
      "kapitanowi": 5900,
      "Wychodź": 5901,
      "Wyandotów": 5902,
      "umrę": 5903,
      "włos": 5904,
      "włosku": 5905,
      "złożywszy": 5906,
      "złoczyńcy": 5907,
      "pokornie": 5908,
      "pokolenie": 5909,
      "postawy": 5910,
      "jeńcu": 5911,
      "jeńcem": 5912,
      "rozpaczą": 5913,
      "spodziewam": 5914,
      "kropli": 5915,
      "słowami": 5916,
      "istot": 5917,
      "robisz": 5918,
      "Tylko": 5919,
      "wracał": 5920,
      "wrażenia": 5921,
      "dziecinę": 5922,
      "obaj": 5923,
      "obawa": 5924,
      "obawą": 5925,
      "wrócić": 5926,
      "demu": 5927,
      "tkach": 5928,
      "ukrył": 5929,
      "przekonania": 5930,
      "siłę": 5931,
      "gniewu": 5932,
      "okropniejszy": 5933,
      "płonął": 5934,
      "płomień": 5935,
      "płomieniem": 5936,
      "troszczył": 5937,
      "wające": 5938,
      "wającą": 5939,
      "prowadzisz": 5940,
      "prowadziło": 5941,
      "stąpiły": 5942,
      "Czarnemu": 5943,
      "Widzę": 5944,
      "gruby": 5945,
      "zwiesz": 5946,
      "zwierzą": 5947,
      "zwietrzył": 5948,
      "potrzeba": 5949,
      "odebr": 5950,
      "roztrzask": 5951,
      "świadkiem": 5952,
      "Być": 5953,
      "Wiecz": 5954,
      "wsią": 5955,
      "wrzasnął": 5956,
      "ciosu": 5957,
      "radośnie": 5958,
      "radosny": 5959,
      "kolbą": 5960,
      "zdołam": 5961,
      "zdołasz": 5962,
      "mężu": 5963,
      "Sępowi": 5964,
      "każdemu": 5965,
      "dziewczyna": 5966,
      "dziewcząt": 5967,
      "nieszczęśliwa": 5968,
      "nieszczęśliwym": 5969,
      "kłam": 5970,
      "oczyma": 5971,
      "uderzeniem": 5972,
      "uderzyć": 5973,
      "stryju": 5974,
      "zaległa": 5975,
      "ciężka": 5976,
      "ciężki": 5977,
      "ciężkiem": 5978,
      "bronili": 5979,
      "pozostać": 5980,
      "pozostanie": 5981,
      "własnej": 5982,
      "zemstę": 5983,
      "powsta": 5984,
      "wyrażające": 5985,
      "wściekle": 5986,
      "zbrodni": 5987,
      "pomścić": 5988,
      "dostali": 5989,
      "wionego": 5990,
      "dalsze": 5991,
      "piersią": 5992,
      "pięknych": 5993,
      "pięknością": 5994,
      "stanowiła": 5995,
      "Dziś": 5996,
      "Dziki": 5997,
      "mege": 5998,
      "okrzyków": 5999,
      "tniały": 6000,
      "zdra": 6001,
      "obrony": 6002,
      "obronę": 6003,
      "skałą": 6004,
      "sposobami": 6005,
      "Odtąd": 6006,
      "spali": 6007,
      "spadzi": 6008,
      "spalić": 6009,
      "napadowi": 6010,
      "dzięki": 6011,
      "dziękuję": 6012,
      "ważał": 6013,
      "biegnąc": 6014,
      "szarpać": 6015,
      "jesteśmy": 6016,
      "groźnego": 6017,
      "mordercy": 6018,
      "morderczej": 6019,
      "rwawszy": 6020,
      "zostanie": 6021,
      "potęgi": 6022,
      "gotowi": 6023,
      "dowodziły": 6024,
      "dzielnego": 6025,
      "wziąwszy": 6026,
      "wszelkiej": 6027,
      "krwawą": 6028,
      "dwunastu": 6029,
      "ocali": 6030,
      "ocalił": 6031,
      "gorącą": 6032,
      "mieszkania": 6033,
      "niezmiernem": 6034,
      "gwałtowny": 6035,
      "smutny": 6036,
      "zginął": 6037,
      "zginęło": 6038,
      "nieprzyjaciel": 6039,
      "narad": 6040,
      "zaczęło": 6041,
      "zatrzymy": 6042,
      "wyprawę": 6043,
      "obozu": 6044,
      "obozowi": 6045,
      "obojęt": 6046,
      "podróżnym": 6047,
      "chodziły": 6048,
      "ludzkiej": 6049,
      "pręd": 6050,
      "napełnił": 6051,
      "godny": 6052,
      "wzgórze": 6053,
      "wzgórka": 6054,
      "mogliby": 6055,
      "niesione": 6056,
      "kolonię": 6057,
      "lekcewa": 6058,
      "obejrzawszy": 6059,
      "puszczając": 6060,
      "wzięli": 6061,
      "osadnika": 6062,
      "znajdować": 6063,
      "znajdowali": 6064,
      "znajdowały": 6065,
      "wojownikom": 6066,
      "głęboko": 6067,
      "głęboki": 6068,
      "przewodniczył": 6069,
      "Dlaczego": 6070,
      "nienacka": 6071,
      "zamiarze": 6072,
      "zamiarów": 6073,
      "przestrachem": 6074,
      "olbrzymie": 6075,
      "martwy": 6076,
      "boleścią": 6077,
      "głównym": 6078,
      "izbie": 6079,
      "kłego": 6080,
      "zwalił": 6081,
      "zwaliskom": 6082,
      "dziwne": 6083,
      "dziwną": 6084,
      "dziwnego": 6085,
      "oddziałów": 6086,
      "ujrzałem": 6087,
      "współczucia": 6088,
      "współrodaków": 6089,
      "panował": 6090,
      "ukazała": 6091,
      "uczucia": 6092,
      "zrobią": 6093,
      "zrobili": 6094,
      "czterech": 6095,
      "lepszego": 6096,
      "wypadły": 6097,
      "dziedziczką": 6098,
      "spoczywa": 6099,
      "spoczywała": 6100,
      "Kula": 6101,
      "błagał": 6102,
      "krzewy": 6103,
      "zęby": 6104,
      "niewiasta": 6105,
      "szczątki": 6106,
      "waleczny": 6107,
      "ciekaw": 6108,
      "ciekawości": 6109,
      "przyjmie": 6110,
      "skradł": 6111,
      "wstrętu": 6112,
      "potrzebny": 6113,
      "gęstwinie": 6114,
      "Cho": 6115,
      "Chciał": 6116,
      "Gdzież": 6117,
      "Nic": 6118,
      "gryź": 6119,
      "psinko": 6120,
      "ślej": 6121,
      "niepostrzeżenie": 6122,
      "pogrze": 6123,
      "pokrytej": 6124,
      "wystawiając": 6125,
      "przybysze": 6126,
      "szeroko": 6127,
      "nędzniku": 6128,
      "choćby": 6129,
      "choćbyś": 6130,
      "znaleść": 6131,
      "znalezie": 6132,
      "tchórzu": 6133,
      "tchórzem": 6134,
      "uczyniłem": 6135,
      "Mimo": 6136,
      "otoczyli": 6137,
      "zguby": 6138,
      "zapasów": 6139,
      "dozwolisz": 6140,
      "angielsku": 6141,
      "wignąć": 6142,
      "wigwam": 6143,
      "wyruszyć": 6144,
      "miłości": 6145,
      "czekając": 6146,
      "starej": 6147,
      "piać": 6148,
      "spotkanie": 6149,
      "spotkamy": 6150,
      "skalpy": 6151,
      "skończyła": 6152,
      "Jakkolwiek": 6153,
      "kolonii": 6154,
      "nienawiścią": 6155,
      "oczekując": 6156,
      "opieką": 6157,
      "otuchą": 6158,
      "wdzięczność": 6159,
      "nastąpiła": 6160,
      "porwanie": 6161,
      "ponownie": 6162,
      "zajmo": 6163,
      "miotany": 6164,
      "wieczorem": 6165,
      "cierpie": 6166,
      "cierpienia": 6167,
      "cierpiał": 6168,
      "odpar": 6169,
      "siodle": 6170,
      "pragnąc": 6171,
      "głośniej": 6172,
      "ostrzedz": 6173,
      "kryjówkę": 6174,
      "okolice": 6175,
      "okolicy": 6176,
      "błyskawice": 6177,
      "wojennej": 6178,
      "jeźdźcy": 6179,
      "olbrzymich": 6180,
      "Briareus": 6181,
      "Dobry": 6182,
      "ukochaną": 6183,
      "zwiększyło": 6184,
      "niecierpliwością": 6185,
      "strumień": 6186,
      "zabrawszy": 6187,
      "wiodła": 6188,
      "wiodącej": 6189,
      "wisiał": 6190,
      "siedziby": 6191,
      "siedzibę": 6192,
      "rzucali": 6193,
      "rzucając": 6194,
      "szczęściem": 6195,
      "Osagom": 6196,
      "przeraźliwie": 6197,
      "ciemnościach": 6198,
      "Niższy": 6199,
      "córki": 6200,
      "córką": 6201,
      "mruczał": 6202,
      "ustach": 6203,
      "ńcami": 6204,
      "niedorzecz": 6205,
      "szkapę": 6206,
      "posiadanie": 6207,
      "zachod": 6208,
      "zajęło": 6209,
      "dojść": 6210,
      "wyjdzie": 6211,
      "wołać": 6212,
      "oddałem": 6213,
      "zerwała": 6214,
      "pozwolisz": 6215,
      "zwierzęcia": 6216,
      "drżącym": 6217,
      "otaczają": 6218,
      "dworze": 6219,
      "mnóstwa": 6220,
      "opar": 6221,
      "oświet": 6222,
      "uspokoił": 6223,
      "włóczy": 6224,
      "zrabo": 6225,
      "niedźwiedź": 6226,
      "niedźwiedzia": 6227,
      "cząca": 6228,
      "połączone": 6229,
      "pospieszyć": 6230,
      "pospieszył": 6231,
      "zapomni": 6232,
      "legowiska": 6233,
      "wysilenia": 6234,
      "wodzów": 6235,
      "samych": 6236,
      "staranniej": 6237,
      "rozjuszony": 6238,
      "rozjuszonych": 6239,
      "najlepsze": 6240,
      "wzruszenia": 6241,
      "wzruszeniem": 6242,
      "ogromne": 6243,
      "ścieżkę": 6244,
      "znajomi": 6245,
      "równocześnie": 6246,
      "żołądku": 6247,
      "straszliwe": 6248,
      "straszliwym": 6249,
      "rozpaczliwe": 6250,
      "przeklęty": 6251,
      "obecność": 6252,
      "obecności": 6253,
      "testamencie": 6254,
      "testamentem": 6255,
      "rozmaite": 6256,
      "Baczność": 6257,
      "Stójcie": 6258,
      "grzech": 6259,
      "osobę": 6260,
      "ocalenie": 6261,
      "ufność": 6262,
      "zmysłów": 6263,
      "zimną": 6264,
      "zobaczyć": 6265,
      "zbójców": 6266,
      "niespokojność": 6267,
      "niespokojnością": 6268,
      "szlache": 6269,
      "poczwary": 6270,
      "pojawienie": 6271,
      "poruszyć": 6272,
      "zadania": 6273,
      "wahania": 6274,
      "wybornie": 6275,
      "milion": 6276,
      "milicyi": 6277,
      "miotając": 6278,
      "moimi": 6279,
      "objęć": 6280,
      "rozkazy": 6281,
      "wesoły": 6282,
      "wzywając": 6283,
      "znajdują": 6284,
      "długich": 6285,
      "czołgając": 6286,
      "wiązała": 6287,
      "ucieczkę": 6288,
      "gromadka": 6289,
      "pantery": 6290,
      "panterę": 6291,
      "oczekiwał": 6292,
      "tomahawk": 6293,
      "tomahawkiem": 6294,
      "zakłopotaniem": 6295,
      "Pies": 6296,
      "Słyszałem": 6297,
      "Słyszycie": 6298,
      "bólu": 6299,
      "bólem": 6300,
      "sprawy": 6301,
      "urwisz": 6302,
      "upatrując": 6303,
      "śmiałość": 6304,
      "chodźmy": 6305,
      "porwałem": 6306,
      "potrafimy": 6307,
      "zaniepoko": 6308,
      "zaczynał": 6309,
      "doznał": 6310,
      "doznawał": 6311,
      "wypadek": 6312,
      "przezorność": 6313,
      "nadludzkich": 6314,
      "śmiertelny": 6315,
      "śmiertelną": 6316,
      "szukania": 6317,
      "Ratujcie": 6318,
      "Człowie": 6319,
      "Cztere": 6320,
      "błogosła": 6321,
      "błędzie": 6322,
      "krąż": 6323,
      "krążył": 6324,
      "klęski": 6325,
      "otworzył": 6326,
      "ugodzony": 6327,
      "uściskiem": 6328,
      "założył": 6329,
      "zmartwie": 6330,
      "szpony": 6331,
      "chmury": 6332,
      "połknę": 6333,
      "poskoczyła": 6334,
      "poskoczyli": 6335,
      "zagrzmiał": 6336,
      "zagrzmiały": 6337,
      "kolei": 6338,
      "kolej": 6339,
      "kolana": 6340,
      "kolanach": 6341,
      "wicher": 6342,
      "legły": 6343,
      "wychowa": 6344,
      "wykonać": 6345,
      "tabun": 6346,
      "odkrył": 6347,
      "odwiecznych": 6348,
      "rozumny": 6349,
      "szalonym": 6350,
      "względem": 6351,
      "pójdź": 6352,
      "przedmioty": 6353,
      "prowadzącą": 6354,
      "wązka": 6355,
      "siostrzyczki": 6356,
      "siostrzyczko": 6357,
      "zabijać": 6358,
      "zwyczaje": 6359,
      "spieszmy": 6360,
      "rodzinnej": 6361,
      "napotkamy": 6362,
      "próbować": 6363,
      "obelgami": 6364,
      "zwaliskach": 6365,
      "zręczności": 6366,
      "zasadzkę": 6367,
      "zabobonni": 6368,
      "Europejczyków": 6369,
      "Licz": 6370,
      "bandy": 6371,
      "mąż": 6372,
      "uchodzić": 6373,
      "uczciwym": 6374,
      "uździenic": 6375,
      "utrzymywał": 6376,
      "zmniejszyć": 6377,
      "naczelnik": 6378,
      "szkody": 6379,
      "chrześcijan": 6380,
      "pożegna": 6381,
      "poczęli": 6382,
      "posiłku": 6383,
      "wysoko": 6384,
      "wyniosło": 6385,
      "wywarło": 6386,
      "wywarły": 6387,
      "jasno": 6388,
      "odsieczy": 6389,
      "przysięgam": 6390,
      "przypuszczasz": 6391,
      "pilno": 6392,
      "pilnu": 6393,
      "podsuwali": 6394,
      "stosownie": 6395,
      "oglądając": 6396,
      "przedsięwzię": 6397,
      "pochłonęła": 6398,
      "skórzane": 6399,
      "zwierzyny": 6400,
      "potrzebował": 6401,
      "przeklinać": 6402,
      "krępujących": 6403,
      "zbudowany": 6404,
      "rozpoczęli": 6405,
      "zamieszania": 6406,
      "pergamin": 6407,
      "budowli": 6408,
      "wyzwolenie": 6409,
      "znękany": 6410,
      "europejskie": 6411,
      "Czemu": 6412,
      "Obadwaj": 6413,
      "Stanów": 6414,
      "ożywiła": 6415,
      "uchro": 6416,
      "utracił": 6417,
      "unikają": 6418,
      "zbadania": 6419,
      "popełznął": 6420,
      "pomieszany": 6421,
      "powrotem": 6422,
      "zasiedli": 6423,
      "zamorduje": 6424,
      "zadrżał": 6425,
      "kogut": 6426,
      "wyskoczy": 6427,
      "wysłuchawszy": 6428,
      "bydlęta": 6429,
      "przebiegło": 6430,
      "przeznaczył": 6431,
      "dzieweczki": 6432,
      "bojaź": 6433,
      "sklepienie": 6434,
      "bawołów": 6435,
      "powierzcho": 6436,
      "pętlę": 6437,
      "ostateczności": 6438,
      "traćmy": 6439,
      "sąsiedz": 6440,
      "gałąz": 6441,
      "błyszczało": 6442,
      "zapewnień": 6443,
      "ostrokołu": 6444,
      "księżyc": 6445,
      "zbrojnych": 6446,
      "uroczysta": 6447,
      "przekleńst": 6448,
      "zgrozą": 6449,
      "współziomków": 6450,
      "czterdzieści": 6451,
      "Nikczem": 6452,
      "Milcz": 6453,
      "angielszczyzną": 6454,
      "bagniska": 6455,
      "usposobienie": 6456,
      "pograniczu": 6457,
      "Angli": 6458,
      "Będę": 6459,
      "Znalazł": 6460,
      "całonoc": 6461,
      "uszanowaniem": 6462,
      "wzajem": 6463,
      "zdziwiony": 6464,
      "nabrania": 6465,
      "członki": 6466,
      "roboty": 6467,
      "zaciśnię": 6468,
      "zasłania": 6469,
      "zamilkł": 6470,
      "doścignąć": 6471,
      "wyczerpany": 6472,
      "wyzwolić": 6473,
      "dziura": 6474,
      "przemian": 6475,
      "przenocować": 6476,
      "jakaś": 6477,
      "jadowite": 6478,
      "czytelnikom": 6479,
      "przyjemny": 6480,
      "przypomnieć": 6481,
      "przymocował": 6482,
      "cyngiel": 6483,
      "skromny": 6484,
      "pragnienia": 6485,
      "znalazła": 6486,
      "wznosiły": 6487,
      "bezbronnego": 6488,
      "pozorną": 6489,
      "Jakoż": 6490,
      "przeciwnika": 6491,
      "okręgu": 6492,
      "oburzony": 6493,
      "wspólnego": 6494,
      "napastników": 6495,
      "Pamiętaj": 6496,
      "Wojownicy": 6497,
      "sukcesor": 6498,
      "kapelusz": 6499,
      "zawiadomił": 6500,
      "zaklinała": 6501,
      "konwulsyjnie": 6502,
      "sprzęty": 6503,
      "Biami": 6504,
      "Dalej": 6505,
      "Nędz": 6506,
      "Orszak": 6507,
      "Ogień": 6508,
      "Równocześnie": 6509,
      "Trudno": 6510,
      "energi": 6511,
      "ogłuszony": 6512,
      "oprysz": 6513,
      "spisany": 6514,
      "utęsknieniem": 6515,
      "uwielbienie": 6516,
      "wpław": 6517,
      "wzamian": 6518,
      "zbolałe": 6519,
      "Środkiem": 6520,
      "ścięła": 6521,
      "niewinne": 6522,
      "niewidzial": 6523,
      "potyczce": 6524,
      "pogromca": 6525,
      "zatętniały": 6526,
      "zapisał": 6527,
      "goryczą": 6528,
      "domek": 6529,
      "wisiel": 6530,
      "wymówione": 6531,
      "wytchnienia": 6532,
      "wyglądała": 6533,
      "wojsko": 6534,
      "dzisiej": 6535,
      "oderwać": 6536,
      "pagórka": 6537,
      "obłąk": 6538,
      "przychyl": 6539,
      "przyłączył": 6540,
      "rozdzierającym": 6541,
      "musieli": 6542,
      "galopem": 6543,
      "pustyni": 6544,
      "purpuro": 6545,
      "podług": 6546,
      "siedemnastu": 6547,
      "ciężarem": 6548,
      "jutrzenki": 6549,
      "Powiadają": 6550,
      "Powiedziałeś": 6551,
      "krwiożer": 6552,
      "Czterech": 6553,
      "błogosławi": 6554,
      "10": 6555,
      "30": 6556,
      "At": 6557,
      "Bu": 6558,
      "CH": 6559,
      "Cla": 6560,
      "Cich": 6561,
      "Cały": 6562,
      "Czę": 6563,
      "DA": 6564,
      "Dr": 6565,
      "Dz": 6566,
      "Dzie": 6567,
      "Dosta": 6568,
      "Ech": 6569,
      "Fałsz": 6570,
      "Gnie": 6571,
      "Gwar": 6572,
      "Ho": 6573,
      "Hor": 6574,
      "Ile": 6575,
      "Ilu": 6576,
      "Isto": 6577,
      "Krzy": 6578,
      "La": 6579,
      "Lo": 6580,
      "Mnó": 6581,
      "Ota": 6582,
      "Oczy": 6583,
      "Obe": 6584,
      "Ode": 6585,
      "Obrzy": 6586,
      "Obec": 6587,
      "Ps": 6588,
      "Pro": 6589,
      "Pło": 6590,
      "Pła": 6591,
      "Pale": 6592,
      "Post": 6593,
      "Przek": 6594,
      "Pani": 6595,
      "Plan": 6596,
      "Peł": 6597,
      "Rę": 6598,
      "Su": 6599,
      "Sie": 6600,
      "Sza": 6601,
      "Ska": 6602,
      "Słu": 6603,
      "Spoko": 6604,
      "Skradł": 6605,
      "Szaw": 6606,
      "Szary": 6607,
      "Stwór": 6608,
      "Tłu": 6609,
      "Tego": 6610,
      "Ucie": 6611,
      "Umie": 6612,
      "Uści": 6613,
      "Uździe": 6614,
      "Uchowaj": 6615,
      "Usłyszawszy": 6616,
      "Uchodźmy": 6617,
      "Wa": 6618,
      "Wą": 6619,
      "Wę": 6620,
      "Wła": 6621,
      "Wska": 6622,
      "Wśród": 6623,
      "Wkońcu": 6624,
      "Wówczas": 6625,
      "Wszędzie": 6626,
      "XXI": 6627,
      "Zło": 6628,
      "Znaj": 6629,
      "Zgi": 6630,
      "Znam": 6631,
      "Zoba": 6632,
      "Zjedno": 6633,
      "Zrazu": 6634,
      "Zwycię": 6635,
      "ak": 6636,
      "at": 6637,
      "ara": 6638,
      "ala": 6639,
      "ama": 6640,
      "amu": 6641,
      "abyś": 6642,
      "awan": 6643,
      "bów": 6644,
      "bry": 6645,
      "brzę": 6646,
      "có": 6647,
      "ckiego": 6648,
      "cącego": 6649,
      "dle": 6650,
      "dną": 6651,
      "dba": 6652,
      "dniej": 6653,
      "dnę": 6654,
      "dkę": 6655,
      "dniu": 6656,
      "dnem": 6657,
      "dół": 6658,
      "dnemu": 6659,
      "dniejszym": 6660,
      "fro": 6661,
      "gr": 6662,
      "gem": 6663,
      "grzy": 6664,
      "gała": 6665,
      "grza": 6666,
      "gało": 6667,
      "grzecz": 6668,
      "gskich": 6669,
      "hra": 6670,
      "ik": 6671,
      "isz": 6672,
      "iwszy": 6673,
      "ilo": 6674,
      "idę": 6675,
      "idą": 6676,
      "jki": 6677,
      "jne": 6678,
      "jnego": 6679,
      "jały": 6680,
      "jska": 6681,
      "kne": 6682,
      "kkie": 6683,
      "kwia": 6684,
      "kano": 6685,
      "klą": 6686,
      "knęli": 6687,
      "ló": 6688,
      "lwa": 6689,
      "lnym": 6690,
      "losa": 6691,
      "lnem": 6692,
      "lany": 6693,
      "laną": 6694,
      "lonym": 6695,
      "lskiem": 6696,
      "mły": 6697,
      "mkę": 6698,
      "mchu": 6699,
      "mścić": 6700,
      "mpaty": 6701,
      "nk": 6702,
      "nto": 6703,
      "nką": 6704,
      "nkami": 6705,
      "nącego": 6706,
      "nkom": 6707,
      "oh": 6708,
      "owa": 6709,
      "ody": 6710,
      "omi": 6711,
      "oże": 6712,
      "oce": 6713,
      "ował": 6714,
      "oswo": 6715,
      "ować": 6716,
      "oszczę": 6717,
      "onem": 6718,
      "osło": 6719,
      "owem": 6720,
      "oznaj": 6721,
      "owła": 6722,
      "osia": 6723,
      "opła": 6724,
      "otch": 6725,
      "ozdoby": 6726,
      "opano": 6727,
      "odziedzi": 6728,
      "otrzymać": 6729,
      "opamię": 6730,
      "ocier": 6731,
      "opanowała": 6732,
      "opisać": 6733,
      "osłem": 6734,
      "pą": 6735,
      "plu": 6736,
      "pały": 6737,
      "pało": 6738,
      "psem": 6739,
      "płe": 6740,
      "plan": 6741,
      "pcony": 6742,
      "plany": 6743,
      "rne": 6744,
      "rną": 6745,
      "rku": 6746,
      "rnego": 6747,
      "rałem": 6748,
      "rczysty": 6749,
      "sał": 6750,
      "sprzy": 6751,
      "sce": 6752,
      "sały": 6753,
      "spro": 6754,
      "snych": 6755,
      "smę": 6756,
      "son": 6757,
      "snąć": 6758,
      "snęła": 6759,
      "snymi": 6760,
      "snąc": 6761,
      "snać": 6762,
      "sprzymierze": 6763,
      "spią": 6764,
      "spróbować": 6765,
      "tko": 6766,
      "tło": 6767,
      "tało": 6768,
      "tnym": 6769,
      "twił": 6770,
      "twę": 6771,
      "twych": 6772,
      "tności": 6773,
      "twym": 6774,
      "tszych": 6775,
      "tszego": 6776,
      "tkami": 6777,
      "uli": 6778,
      "uwie": 6779,
      "uła": 6780,
      "uja": 6781,
      "uto": 6782,
      "udzie": 6783,
      "ując": 6784,
      "umu": 6785,
      "uzna": 6786,
      "ubra": 6787,
      "uwal": 6788,
      "ukra": 6789,
      "umiesz": 6790,
      "utk": 6791,
      "uchem": 6792,
      "uspa": 6793,
      "udowo": 6794,
      "ulito": 6795,
      "usnął": 6796,
      "uprowadził": 6797,
      "ujechał": 6798,
      "udzieli": 6799,
      "uwiąza": 6800,
      "unieść": 6801,
      "umalo": 6802,
      "utwier": 6803,
      "unosił": 6804,
      "uprowadzili": 6805,
      "uchodzących": 6806,
      "usma": 6807,
      "ubezwła": 6808,
      "udały": 6809,
      "wda": 6810,
      "wcie": 6811,
      "wbi": 6812,
      "wniej": 6813,
      "wsie": 6814,
      "wnym": 6815,
      "wnu": 6816,
      "wprowadzi": 6817,
      "wskoczył": 6818,
      "wdziera": 6819,
      "wtar": 6820,
      "wcześnie": 6821,
      "wdarł": 6822,
      "wznak": 6823,
      "wnoszę": 6824,
      "wtenczas": 6825,
      "yn": 6826,
      "yton": 6827,
      "zo": 6828,
      "zwi": 6829,
      "zby": 6830,
      "zły": 6831,
      "zbi": 6832,
      "zmę": 6833,
      "zmordo": 6834,
      "zdać": 6835,
      "zszedł": 6836,
      "zdą": 6837,
      "zgnął": 6838,
      "zgłu": 6839,
      "zniósł": 6840,
      "zmienia": 6841,
      "zgoto": 6842,
      "zwalczyć": 6843,
      "ząb": 6844,
      "związa": 6845,
      "zdziera": 6846,
      "złym": 6847,
      "zjedna": 6848,
      "związ": 6849,
      "zgasł": 6850,
      "zniszczy": 6851,
      "zdziwienie": 6852,
      "zrobię": 6853,
      "zwracał": 6854,
      "zważał": 6855,
      "znienacka": 6856,
      "óz": 6857,
      "ęby": 6858,
      "ęsać": 6859,
      "łza": 6860,
      "łki": 6861,
      "łało": 6862,
      "łków": 6863,
      "łbyś": 6864,
      "łzami": 6865,
      "ńcem": 6866,
      "ńskie": 6867,
      "Ści": 6868,
      "Śród": 6869,
      "śl": 6870,
      "śmiał": 6871,
      "źń": 6872,
      "źwignąć": 6873,
      "Żał": 6874,
      "Żona": 6875,
      "żu": 6876,
      "żąd": 6877,
      "rznął": 6878,
      "rzchu": 6879,
      "rzących": 6880,
      "rzone": 6881,
      "nierz": 6882,
      "nieprze": 6883,
      "niebi": 6884,
      "niebie": 6885,
      "nieśli": 6886,
      "niektórzy": 6887,
      "niejednego": 6888,
      "niespokojnie": 6889,
      "niejakiego": 6890,
      "nieust": 6891,
      "nielitości": 6892,
      "nieuwagę": 6893,
      "niesprawiedli": 6894,
      "niekorzy": 6895,
      "niewzru": 6896,
      "niewielkie": 6897,
      "niewcze": 6898,
      "nieprzezwycię": 6899,
      "niezadowo": 6900,
      "niechyb": 6901,
      "nag": 6902,
      "nast": 6903,
      "nawi": 6904,
      "nawy": 6905,
      "nając": 6906,
      "nały": 6907,
      "nace": 6908,
      "nabi": 6909,
      "nadu": 6910,
      "namyś": 6911,
      "nastro": 6912,
      "naszą": 6913,
      "naprzeciw": 6914,
      "narobi": 6915,
      "narobił": 6916,
      "nabrał": 6917,
      "naprowadził": 6918,
      "nanowo": 6919,
      "następo": 6920,
      "namyśle": 6921,
      "nawpół": 6922,
      "narzeka": 6923,
      "naśladu": 6924,
      "następu": 6925,
      "naturalnie": 6926,
      "natrzą": 6927,
      "naprawić": 6928,
      "nawzajem": 6929,
      "szów": 6930,
      "szku": 6931,
      "szły": 6932,
      "szor": 6933,
      "szona": 6934,
      "sznu": 6935,
      "szczem": 6936,
      "szczone": 6937,
      "sztur": 6938,
      "czna": 6939,
      "czało": 6940,
      "cznej": 6941,
      "czności": 6942,
      "czonym": 6943,
      "chó": 6944,
      "chwa": 6945,
      "chwie": 6946,
      "chtem": 6947,
      "chnące": 6948,
      "pol": 6949,
      "poś": 6950,
      "poka": 6951,
      "poda": 6952,
      "posi": 6953,
      "posa": 6954,
      "pobi": 6955,
      "poga": 6956,
      "pobie": 6957,
      "poża": 6958,
      "porzu": 6959,
      "pomia": 6960,
      "poha": 6961,
      "powst": 6962,
      "potra": 6963,
      "pomyśl": 6964,
      "potrza": 6965,
      "poukry": 6966,
      "powód": 6967,
      "poprowadzi": 6968,
      "pożar": 6969,
      "podziwieniem": 6970,
      "powąt": 6971,
      "pomówić": 6972,
      "pojął": 6973,
      "pojąć": 6974,
      "pokazać": 6975,
      "poczuł": 6976,
      "poskro": 6977,
      "poniósłszy": 6978,
      "porosł": 6979,
      "podoba": 6980,
      "pogotowi": 6981,
      "ięki": 6982,
      "strzy": 6983,
      "stłu": 6984,
      "stką": 6985,
      "dzały": 6986,
      "dzący": 6987,
      "dzona": 6988,
      "nili": 6989,
      "niby": 6990,
      "niczy": 6991,
      "niżej": 6992,
      "rzemie": 6993,
      "rzeczyć": 6994,
      "rzemienia": 6995,
      "rzedzać": 6996,
      "roby": 6997,
      "rogi": 6998,
      "rokiem": 6999,
      "rodu": 7000,
      "rosło": 7001,
      "rośnie": 7002,
      "rodza": 7003,
      "rożnie": 7004,
      "rodzaj": 7005,
      "zago": 7006,
      "zawie": 7007,
      "zadzi": 7008,
      "zaja": 7009,
      "zamo": 7010,
      "zasi": 7011,
      "zaru": 7012,
      "zaga": 7013,
      "zapi": 7014,
      "zagi": 7015,
      "zapowie": 7016,
      "zasy": 7017,
      "zamę": 7018,
      "zasło": 7019,
      "zastano": 7020,
      "zadając": 7021,
      "zastąpi": 7022,
      "zagłu": 7023,
      "zasnął": 7024,
      "zabezpiecz": 7025,
      "zakrze": 7026,
      "zawiesz": 7027,
      "zaprowadzić": 7028,
      "zadziwieniem": 7029,
      "zasę": 7030,
      "zachwy": 7031,
      "zapał": 7032,
      "zaszło": 7033,
      "zaspokoi": 7034,
      "zależało": 7035,
      "zagłębi": 7036,
      "zaata": 7037,
      "zapowiada": 7038,
      "zatar": 7039,
      "zająć": 7040,
      "zapanowała": 7041,
      "zarząd": 7042,
      "zaglądał": 7043,
      "zaskom": 7044,
      "zaprowadzili": 7045,
      "zaprzysię": 7046,
      "zawsty": 7047,
      "zaprawdę": 7048,
      "zadziwienie": 7049,
      "zawiązał": 7050,
      "zachodziła": 7051,
      "zadrżała": 7052,
      "zadany": 7053,
      "zaiskrzy": 7054,
      "zaopatrz": 7055,
      "zarasta": 7056,
      "godzie": 7057,
      "gości": 7058,
      "wat": 7059,
      "waro": 7060,
      "waną": 7061,
      "wasza": 7062,
      "waża": 7063,
      "wający": 7064,
      "waszą": 7065,
      "waszym": 7066,
      "wanów": 7067,
      "sięcy": 7068,
      "doń": 7069,
      "dora": 7070,
      "dotych": 7071,
      "dopeł": 7072,
      "dosły": 7073,
      "dokoń": 7074,
      "dotrzyma": 7075,
      "dowódz": 7076,
      "doszli": 7077,
      "doczeka": 7078,
      "dosią": 7079,
      "domem": 7080,
      "doszło": 7081,
      "dotrzymał": 7082,
      "doszła": 7083,
      "dostała": 7084,
      "dojechać": 7085,
      "doniesie": 7086,
      "dożer": 7087,
      "dopędzić": 7088,
      "doczekać": 7089,
      "dosiadłszy": 7090,
      "dosad": 7091,
      "cik": 7092,
      "cisz": 7093,
      "ciałem": 7094,
      "cisnął": 7095,
      "cideł": 7096,
      "ramienia": 7097,
      "radzisz": 7098,
      "ralną": 7099,
      "ranionego": 7100,
      "liwa": 7101,
      "liby": 7102,
      "liść": 7103,
      "litu": 7104,
      "liwem": 7105,
      "liwsze": 7106,
      "liwości": 7107,
      "liwością": 7108,
      "liwość": 7109,
      "kości": 7110,
      "kować": 7111,
      "kowali": 7112,
      "koszu": 7113,
      "jenie": 7114,
      "jemu": 7115,
      "jeśli": 7116,
      "anu": 7117,
      "anem": 7118,
      "anemu": 7119,
      "emy": 7120,
      "wió": 7121,
      "widzie": 7122,
      "wisku": 7123,
      "wionym": 7124,
      "wicą": 7125,
      "lej": 7126,
      "leń": 7127,
      "leni": 7128,
      "lecie": 7129,
      "lewej": 7130,
      "letnie": 7131,
      "ległych": 7132,
      "leciał": 7133,
      "rzyn": 7134,
      "rzyli": 7135,
      "rzyły": 7136,
      "rzystać": 7137,
      "rzynały": 7138,
      "wyć": 7139,
      "wyci": 7140,
      "wycie": 7141,
      "wysa": 7142,
      "wyma": 7143,
      "wywał": 7144,
      "wynaj": 7145,
      "wyzna": 7146,
      "wysu": 7147,
      "wystrze": 7148,
      "wyśli": 7149,
      "wynu": 7150,
      "wydrze": 7151,
      "wylą": 7152,
      "wybla": 7153,
      "wysił": 7154,
      "wykrzyknął": 7155,
      "wypuścił": 7156,
      "wyniósł": 7157,
      "wyżej": 7158,
      "wykrzyki": 7159,
      "wydała": 7160,
      "wytłu": 7161,
      "wyśle": 7162,
      "wyprowadzić": 7163,
      "wyszukać": 7164,
      "wywiedzieć": 7165,
      "wyglą": 7166,
      "wyciął": 7167,
      "wymówić": 7168,
      "wyznam": 7169,
      "wyszuka": 7170,
      "wyglądał": 7171,
      "wymaga": 7172,
      "wygodnie": 7173,
      "wystrzelił": 7174,
      "wybiła": 7175,
      "wydep": 7176,
      "wyrzucać": 7177,
      "wytłó": 7178,
      "wyprosił": 7179,
      "łoby": 7180,
      "łości": 7181,
      "łotry": 7182,
      "bydła": 7183,
      "byleś": 7184,
      "dymie": 7185,
      "dymem": 7186,
      "miony": 7187,
      "migiem": 7188,
      "miącym": 7189,
      "woń": 7190,
      "wola": 7191,
      "wolę": 7192,
      "wodził": 7193,
      "wołała": 7194,
      "żesz": 7195,
      "żebra": 7196,
      "żeście": 7197,
      "żeństwo": 7198,
      "kani": 7199,
      "kali": 7200,
      "kającego": 7201,
      "katów": 7202,
      "wieku": 7203,
      "wieniem": 7204,
      "wieniu": 7205,
      "wierzę": 7206,
      "wierzyć": 7207,
      "dzian": 7208,
      "dziob": 7209,
      "dziwię": 7210,
      "działy": 7211,
      "dzikiem": 7212,
      "dzikiej": 7213,
      "kija": 7214,
      "przemy": 7215,
      "przenik": 7216,
      "przestrze": 7217,
      "przetrze": 7218,
      "przestro": 7219,
      "przecu": 7220,
      "przekra": 7221,
      "prześla": 7222,
      "przesą": 7223,
      "przechy": 7224,
      "przelą": 7225,
      "przemówi": 7226,
      "przestał": 7227,
      "przebiegł": 7228,
      "przebyli": 7229,
      "przeciąg": 7230,
      "przebić": 7231,
      "przewiesz": 7232,
      "przechodząc": 7233,
      "przenieść": 7234,
      "przesąd": 7235,
      "przebiega": 7236,
      "przewidzieć": 7237,
      "przerzedzać": 7238,
      "przerzynały": 7239,
      "tasz": 7240,
      "taborem": 7241,
      "szyi": 7242,
      "łami": 7243,
      "łama": 7244,
      "łapką": 7245,
      "dasz": 7246,
      "daka": 7247,
      "damo": 7248,
      "dają": 7249,
      "dawać": 7250,
      "dawali": 7251,
      "dających": 7252,
      "dawało": 7253,
      "dajem": 7254,
      "dawały": 7255,
      "nei": 7256,
      "net": 7257,
      "neś": 7258,
      "negr": 7259,
      "neralną": 7260,
      "jagu": 7261,
      "jabym": 7262,
      "jającego": 7263,
      "jazd": 7264,
      "jaskra": 7265,
      "jazdu": 7266,
      "jawienie": 7267,
      "tość": 7268,
      "tością": 7269,
      "tować": 7270,
      "tonem": 7271,
      "toczył": 7272,
      "topory": 7273,
      "kiesze": 7274,
      "nowy": 7275,
      "nowie": 7276,
      "noce": 7277,
      "nogach": 7278,
      "dzier": 7279,
      "dzieło": 7280,
      "dziewię": 7281,
      "dzieniec": 7282,
      "ciele": 7283,
      "cieniach": 7284,
      "odra": 7285,
      "odła": 7286,
      "odde": 7287,
      "odej": 7288,
      "odsło": 7289,
      "odszedł": 7290,
      "odmówił": 7291,
      "odbyła": 7292,
      "odprowadzi": 7293,
      "odstąpi": 7294,
      "odtąd": 7295,
      "odszepnął": 7296,
      "odwrócił": 7297,
      "odwraca": 7298,
      "odległ": 7299,
      "odtr": 7300,
      "odbić": 7301,
      "odbiera": 7302,
      "odwracając": 7303,
      "oddam": 7304,
      "odwil": 7305,
      "oddali": 7306,
      "odpoczy": 7307,
      "odwiedzi": 7308,
      "odtrącił": 7309,
      "odłączyć": 7310,
      "odwrócenia": 7311,
      "oddziały": 7312,
      "ówcze": 7313,
      "ryczący": 7314,
      "czym": 7315,
      "czyków": 7316,
      "czynu": 7317,
      "czynię": 7318,
      "czynów": 7319,
      "mot": 7320,
      "mowa": 7321,
      "mora": 7322,
      "mono": 7323,
      "mogą": 7324,
      "tełko": 7325,
      "telnie": 7326,
      "tyłu": 7327,
      "tycznych": 7328,
      "tylną": 7329,
      "lako": 7330,
      "lasem": 7331,
      "jącem": 7332,
      "mien": 7333,
      "mieczem": 7334,
      "pań": 7335,
      "pach": 7336,
      "pale": 7337,
      "patrzy": 7338,
      "paso": 7339,
      "obraz": 7340,
      "obsza": 7341,
      "obcią": 7342,
      "obsy": 7343,
      "obser": 7344,
      "obszedł": 7345,
      "obmyśl": 7346,
      "obrzę": 7347,
      "obłę": 7348,
      "obchodził": 7349,
      "obdar": 7350,
      "obdarł": 7351,
      "obrazi": 7352,
      "obchodzie": 7353,
      "oblał": 7354,
      "obóz": 7355,
      "niasz": 7356,
      "niami": 7357,
      "ścian": 7358,
      "ściany": 7359,
      "ściślej": 7360,
      "kur": 7361,
      "kupie": 7362,
      "kube": 7363,
      "kunem": 7364,
      "kulę": 7365,
      "kupę": 7366,
      "kurek": 7367,
      "kudła": 7368,
      "kutecz": 7369,
      "kukuryku": 7370,
      "przyz": 7371,
      "przysz": 7372,
      "przywa": 7373,
      "przyci": 7374,
      "przyje": 7375,
      "przytu": 7376,
      "przystro": 7377,
      "przykro": 7378,
      "przyznaj": 7379,
      "przywła": 7380,
      "przynio": 7381,
      "przywią": 7382,
      "przygłu": 7383,
      "przybyli": 7384,
      "przydało": 7385,
      "przyjechał": 7386,
      "przybyłem": 7387,
      "przyozdo": 7388,
      "przyrzeka": 7389,
      "przywłaszcza": 7390,
      "przystępu": 7391,
      "przydomek": 7392,
      "siąd": 7393,
      "sidła": 7394,
      "czen": 7395,
      "czeni": 7396,
      "czepi": 7397,
      "czekaj": 7398,
      "Nad": 7399,
      "Nadzieja": 7400,
      "Naturalnie": 7401,
      "Nalana": 7402,
      "sado": 7403,
      "sali": 7404,
      "szere": 7405,
      "szeństwo": 7406,
      "stada": 7407,
      "stają": 7408,
      "stalo": 7409,
      "stacyi": 7410,
      "łyby": 7411,
      "mawia": 7412,
      "majo": 7413,
      "mających": 7414,
      "matka": 7415,
      "marzenia": 7416,
      "mającą": 7417,
      "machać": 7418,
      "marzeń": 7419,
      "rucha": 7420,
      "rucho": 7421,
      "runął": 7422,
      "ruję": 7423,
      "ruszył": 7424,
      "runęło": 7425,
      "rumaków": 7426,
      "pierwo": 7427,
      "piewanie": 7428,
      "cesz": 7429,
      "cerami": 7430,
      "wałęsać": 7431,
      "rozrze": 7432,
      "rozsze": 7433,
      "rozsta": 7434,
      "rozcią": 7435,
      "rozer": 7436,
      "rozsy": 7437,
      "rozbu": 7438,
      "rozwal": 7439,
      "rozłą": 7440,
      "rozchodzi": 7441,
      "rozhuk": 7442,
      "rozciął": 7443,
      "rozległo": 7444,
      "rozstąpił": 7445,
      "rozbiegli": 7446,
      "roznamię": 7447,
      "rozpadli": 7448,
      "rozdmu": 7449,
      "rozdziale": 7450,
      "rozwiązała": 7451,
      "rozumu": 7452,
      "rękach": 7453,
      "much": 7454,
      "muszę": 7455,
      "biło": 7456,
      "biąc": 7457,
      "białem": 7458,
      "biór": 7459,
      "białą": 7460,
      "żywy": 7461,
      "żyjąc": 7462,
      "żywność": 7463,
      "rej": 7464,
      "rego": 7465,
      "naju": 7466,
      "najkrót": 7467,
      "najcięż": 7468,
      "najważ": 7469,
      "najdziel": 7470,
      "najgwałtow": 7471,
      "najnędz": 7472,
      "najrozmai": 7473,
      "najświę": 7474,
      "najciszej": 7475,
      "najlich": 7476,
      "najstaranniej": 7477,
      "najściślej": 7478,
      "gawszy": 7479,
      "gający": 7480,
      "biedz": 7481,
      "bieli": 7482,
      "biedaka": 7483,
      "rób": 7484,
      "czając": 7485,
      "czatu": 7486,
      "czający": 7487,
      "czasach": 7488,
      "czapki": 7489,
      "taną": 7490,
      "cyą": 7491,
      "cych": 7492,
      "cyper": 7493,
      "cypera": 7494,
      "pić": 7495,
      "piją": 7496,
      "piony": 7497,
      "piłem": 7498,
      "piałym": 7499,
      "boi": 7500,
      "bom": 7501,
      "boga": 7502,
      "bowej": 7503,
      "borów": 7504,
      "Indyjska": 7505,
      "skały": 7506,
      "skrzę": 7507,
      "skliwie": 7508,
      "pując": 7509,
      "puść": 7510,
      "puszcze": 7511,
      "puste": 7512,
      "puszczą": 7513,
      "bab": 7514,
      "baś": 7515,
      "bach": 7516,
      "barzy": 7517,
      "bada": 7518,
      "badał": 7519,
      "bawić": 7520,
      "baczność": 7521,
      "cośmy": 7522,
      "cowników": 7523,
      "niejsi": 7524,
      "spoli": 7525,
      "spodnie": 7526,
      "spokój": 7527,
      "spotkać": 7528,
      "spowodo": 7529,
      "ałam": 7530,
      "pek": 7531,
      "podu": 7532,
      "podnie": 7533,
      "podwó": 7534,
      "podsy": 7535,
      "podsłu": 7536,
      "podstę": 7537,
      "podwój": 7538,
      "podskoczył": 7539,
      "podnosił": 7540,
      "podpiera": 7541,
      "podźwignąć": 7542,
      "więźni": 7543,
      "szaty": 7544,
      "szatany": 7545,
      "cam": 7546,
      "canie": 7547,
      "mówią": 7548,
      "tuli": 7549,
      "jednem": 7550,
      "jednemu": 7551,
      "łuj": 7552,
      "łup": 7553,
      "łuną": 7554,
      "łudząc": 7555,
      "chasz": 7556,
      "chatom": 7557,
      "sied": 7558,
      "siedli": 7559,
      "temi": 7560,
      "belek": 7561,
      "ginąć": 7562,
      "pracy": 7563,
      "praco": 7564,
      "pracowi": 7565,
      "pracować": 7566,
      "onymi": 7567,
      "chowanych": 7568,
      "choroby": 7569,
      "luź": 7570,
      "ludź": 7571,
      "ludni": 7572,
      "lujcie": 7573,
      "ludożer": 7574,
      "mięsa": 7575,
      "znał": 7576,
      "znana": 7577,
      "znami": 7578,
      "znaku": 7579,
      "zetk": 7580,
      "zesch": 7581,
      "zechcesz": 7582,
      "zedrzeć": 7583,
      "głosu": 7584,
      "prosta": 7585,
      "prostu": 7586,
      "Niema": 7587,
      "Nieinaczej": 7588,
      "Nieszczęśliwy": 7589,
      "Niepodobna": 7590,
      "rzach": 7591,
      "skar": 7592,
      "skaku": 7593,
      "skawszy": 7594,
      "skamieni": 7595,
      "ostry": 7596,
      "dech": 7597,
      "deski": 7598,
      "deszcz": 7599,
      "dewszystkiem": 7600,
      "wzmoc": 7601,
      "wznosząc": 7602,
      "niemałą": 7603,
      "duj": 7604,
      "duszę": 7605,
      "dumą": 7606,
      "duchów": 7607,
      "wiam": 7608,
      "wiarę": 7609,
      "cięcie": 7610,
      "ciężar": 7611,
      "ciężaru": 7612,
      "Ralfowi": 7613,
      "działu": 7614,
      "powierzyć": 7615,
      "suchy": 7616,
      "suknię": 7617,
      "krzyło": 7618,
      "krzyże": 7619,
      "krzyku": 7620,
      "krzykiem": 7621,
      "będnie": 7622,
      "bezła": 7623,
      "bezboż": 7624,
      "bezowoc": 7625,
      "zawoła": 7626,
      "juczne": 7627,
      "strzeżony": 7628,
      "strzelec": 7629,
      "żać": 7630,
      "żach": 7631,
      "żadnemu": 7632,
      "stop": 7633,
      "stoją": 7634,
      "stosu": 7635,
      "stojących": 7636,
      "stoczonej": 7637,
      "dłem": 7638,
      "swoimi": 7639,
      "Poza": 7640,
      "Posta": 7641,
      "Potę": 7642,
      "Ponad": 7643,
      "Pomyśl": 7644,
      "Pokaż": 7645,
      "Pozwoli": 7646,
      "Ponieważ": 7647,
      "Pomaga": 7648,
      "Położenie": 7649,
      "Pozostali": 7650,
      "Pociesz": 7651,
      "nadszedł": 7652,
      "nadmier": 7653,
      "nadstawił": 7654,
      "nadchodzących": 7655,
      "zyi": 7656,
      "zywały": 7657,
      "łałem": 7658,
      "wól": 7659,
      "Indyanki": 7660,
      "kędy": 7661,
      "kępę": 7662,
      "skowy": 7663,
      "skorzystać": 7664,
      "drob": 7665,
      "byłeś": 7666,
      "osagskich": 7667,
      "rzucała": 7668,
      "broda": 7669,
      "brodzie": 7670,
      "gęba": 7671,
      "gęsie": 7672,
      "gęsto": 7673,
      "gęstymi": 7674,
      "gronie": 7675,
      "grono": 7676,
      "grobu": 7677,
      "grożącego": 7678,
      "grobowej": 7679,
      "trzecią": 7680,
      "trzeniu": 7681,
      "strome": 7682,
      "twoi": 7683,
      "tworz": 7684,
      "twojem": 7685,
      "śmiechy": 7686,
      "ent": 7687,
      "bratu": 7688,
      "bratem": 7689,
      "jęk": 7690,
      "jęte": 7691,
      "lowi": 7692,
      "losu": 7693,
      "lonem": 7694,
      "losowi": 7695,
      "przedrzeć": 7696,
      "lękać": 7697,
      "lękli": 7698,
      "morduje": 7699,
      "synem": 7700,
      "sypał": 7701,
      "synów": 7702,
      "sympaty": 7703,
      "wszystkimi": 7704,
      "prowadzę": 7705,
      "ścierały": 7706,
      "straszy": 7707,
      "strażą": 7708,
      "stracenia": 7709,
      "straciwszy": 7710,
      "budy": 7711,
      "burzę": 7712,
      "budziła": 7713,
      "pełen": 7714,
      "rwone": 7715,
      "szczyć": 7716,
      "zielo": 7717,
      "zielskiem": 7718,
      "jużby": 7719,
      "walce": 7720,
      "walkę": 7721,
      "walczył": 7722,
      "zdobył": 7723,
      "zdobyć": 7724,
      "Osadni": 7725,
      "haust": 7726,
      "męką": 7727,
      "męstwo": 7728,
      "męstwie": 7729,
      "męstwu": 7730,
      "męczen": 7731,
      "miałby": 7732,
      "Jechali": 7733,
      "Testam": 7734,
      "kryje": 7735,
      "pęta": 7736,
      "pękiem": 7737,
      "pędź": 7738,
      "pędzili": 7739,
      "pędzono": 7740,
      "dźwię": 7741,
      "kapita": 7742,
      "barw": 7743,
      "barki": 7744,
      "barwą": 7745,
      "barwami": 7746,
      "barbarzy": 7747,
      "ostatecznie": 7748,
      "wróg": 7749,
      "pierwsza": 7750,
      "gód": 7751,
      "mniejsze": 7752,
      "słowy": 7753,
      "wejściu": 7754,
      "wejściem": 7755,
      "węże": 7756,
      "węzły": 7757,
      "zujące": 7758,
      "służył": 7759,
      "łkowi": 7760,
      "miejscem": 7761,
      "Zawsze": 7762,
      "Zabił": 7763,
      "Zamiast": 7764,
      "Zaczął": 7765,
      "Zatrzyma": 7766,
      "Zarazem": 7767,
      "Zakli": 7768,
      "pytanie": 7769,
      "trupie": 7770,
      "trupy": 7771,
      "trudem": 7772,
      "truchtem": 7773,
      "towarzyszem": 7774,
      "innym": 7775,
      "innymi": 7776,
      "innemu": 7777,
      "wcą": 7778,
      "pewnego": 7779,
      "pewnem": 7780,
      "pewność": 7781,
      "pięt": 7782,
      "pięty": 7783,
      "piętna": 7784,
      "siostro": 7785,
      "jowi": 7786,
      "jone": 7787,
      "joną": 7788,
      "krzyków": 7789,
      "krzyknęli": 7790,
      "znajdą": 7791,
      "właści": 7792,
      "konarów": 7793,
      "ziar": 7794,
      "końca": 7795,
      "koński": 7796,
      "przyjaźni": 7797,
      "przyjaźnie": 7798,
      "przyjaźń": 7799,
      "równa": 7800,
      "równi": 7801,
      "równe": 7802,
      "wstą": 7803,
      "wychu": 7804,
      "śmiertelnie": 7805,
      "Doli": 7806,
      "Dopiero": 7807,
      "nięta": 7808,
      "nięte": 7809,
      "nięcia": 7810,
      "niętej": 7811,
      "krótką": 7812,
      "koniach": 7813,
      "odpowiedź": 7814,
      "strzelcy": 7815,
      "strzelbą": 7816,
      "gąszcze": 7817,
      "gąszcz": 7818,
      "niegodzi": 7819,
      "padła": 7820,
      "padły": 7821,
      "tamtym": 7822,
      "mordował": 7823,
      "mordować": 7824,
      "Według": 7825,
      "wując": 7826,
      "wszelako": 7827,
      "kiedym": 7828,
      "kiedyś": 7829,
      "Jam": 7830,
      "czole": 7831,
      "czoła": 7832,
      "krai": 7833,
      "kraść": 7834,
      "krajo": 7835,
      "krainy": 7836,
      "remu": 7837,
      "ujrzeć": 7838,
      "wolny": 7839,
      "wolność": 7840,
      "dzek": 7841,
      "skutecz": 7842,
      "skutecznie": 7843,
      "nieszczęs": 7844,
      "nieszczęść": 7845,
      "poległ": 7846,
      "poległo": 7847,
      "polecił": 7848,
      "polecenia": 7849,
      "tracił": 7850,
      "tracąc": 7851,
      "tracić": 7852,
      "skórą": 7853,
      "skórami": 7854,
      "Puść": 7855,
      "Czyje": 7856,
      "młoda": 7857,
      "młode": 7858,
      "młodzież": 7859,
      "młodzieniec": 7860,
      "okoła": 7861,
      "okopcony": 7862,
      "dzam": 7863,
      "dzali": 7864,
      "dzając": 7865,
      "leżała": 7866,
      "leżący": 7867,
      "leżących": 7868,
      "leżące": 7869,
      "gdzieindziej": 7870,
      "sądzić": 7871,
      "sądzę": 7872,
      "słabe": 7873,
      "czyłby": 7874,
      "siarczysty": 7875,
      "czerwoni": 7876,
      "czerwony": 7877,
      "czerwonego": 7878,
      "czerwonej": 7879,
      "żyłem": 7880,
      "większą": 7881,
      "półgłosem": 7882,
      "półtora": 7883,
      "druga": 7884,
      "żono": 7885,
      "żonem": 7886,
      "żonemi": 7887,
      "zdając": 7888,
      "zdarzenie": 7889,
      "stanowczo": 7890,
      "indyjsku": 7891,
      "indyjscy": 7892,
      "indyjskim": 7893,
      "chybił": 7894,
      "chylił": 7895,
      "garbi": 7896,
      "gardziel": 7897,
      "gardle": 7898,
      "małej": 7899,
      "małżeństwo": 7900,
      "czarny": 7901,
      "czarnych": 7902,
      "Duchem": 7903,
      "szukaj": 7904,
      "szukał": 7905,
      "szumem": 7906,
      "taniec": 7907,
      "myśląc": 7908,
      "myślność": 7909,
      "ognistą": 7910,
      "ognisty": 7911,
      "brzegami": 7912,
      "brzegowi": 7913,
      "fizy": 7914,
      "byłam": 7915,
      "ucieszył": 7916,
      "uciekł": 7917,
      "ucieszony": 7918,
      "ucieczka": 7919,
      "ucieszyło": 7920,
      "przeciwnik": 7921,
      "przeciwników": 7922,
      "przeraża": 7923,
      "przerażona": 7924,
      "przerażający": 7925,
      "stąp": 7926,
      "różni": 7927,
      "różnych": 7928,
      "różnicy": 7929,
      "dwieście": 7930,
      "płynie": 7931,
      "pływa": 7932,
      "płytka": 7933,
      "sowy": 7934,
      "sowało": 7935,
      "uważał": 7936,
      "wydaj": 7937,
      "wydawała": 7938,
      "ciemnych": 7939,
      "ciemność": 7940,
      "wrota": 7941,
      "wrogami": 7942,
      "wrogiem": 7943,
      "biednym": 7944,
      "biednemu": 7945,
      "biednemi": 7946,
      "poznała": 7947,
      "stych": 7948,
      "zabici": 7949,
      "zabije": 7950,
      "zabite": 7951,
      "zapytania": 7952,
      "spokojne": 7953,
      "spokojnym": 7954,
      "spokojności": 7955,
      "spokojnością": 7956,
      "Bożej": 7957,
      "Bodajem": 7958,
      "Przyby": 7959,
      "Przypadł": 7960,
      "Przypom": 7961,
      "rłszy": 7962,
      "świecideł": 7963,
      "obudzić": 7964,
      "oburzyła": 7965,
      "silne": 7966,
      "silnych": 7967,
      "lubię": 7968,
      "trzymanie": 7969,
      "Przepra": 7970,
      "Przestań": 7971,
      "Przestrach": 7972,
      "Przedewszystkiem": 7973,
      "kłonem": 7974,
      "wanymi": 7975,
      "odważyć": 7976,
      "odważnie": 7977,
      "mówili": 7978,
      "blada": 7979,
      "bladą": 7980,
      "bladem": 7981,
      "bladej": 7982,
      "oporu": 7983,
      "oporem": 7984,
      "zamordowali": 7985,
      "zamordowanego": 7986,
      "zamordowano": 7987,
      "pochwycili": 7988,
      "pochwyciła": 7989,
      "niezli": 7990,
      "nieznoś": 7991,
      "niezbyt": 7992,
      "niezwykły": 7993,
      "niezbędnie": 7994,
      "stworzeniu": 7995,
      "nocna": 7996,
      "nocnych": 7997,
      "możności": 7998,
      "możemy": 7999,
      "musiała": 8000,
      "musiałem": 8001,
      "pułkownikiem": 8002,
      "tkwił": 8003,
      "położyć": 8004,
      "położeniem": 8005,
      "starcy": 8006,
      "starca": 8007,
      "starców": 8008,
      "starszych": 8009,
      "kapitanem": 8010,
      "przeciwną": 8011,
      "przeciwległ": 8012,
      "Wypadek": 8013,
      "umknął": 8014,
      "umknęli": 8015,
      "wsch": 8016,
      "wschodzie": 8017,
      "złodzie": 8018,
      "złości": 8019,
      "złożył": 8020,
      "złożony": 8021,
      "złorzeczyć": 8022,
      "chcecie": 8023,
      "pokora": 8024,
      "pokorą": 8025,
      "pokojo": 8026,
      "postawa": 8027,
      "postara": 8028,
      "postacie": 8029,
      "postawę": 8030,
      "jeńcy": 8031,
      "jeńcom": 8032,
      "rozpalić": 8033,
      "spodziewać": 8034,
      "robione": 8035,
      "godzina": 8036,
      "godziła": 8037,
      "godziną": 8038,
      "gromadą": 8039,
      "gromadzili": 8040,
      "Gdym": 8041,
      "dające": 8042,
      "szeptał": 8043,
      "błysku": 8044,
      "błyski": 8045,
      "błysnął": 8046,
      "okaza": 8047,
      "okazując": 8048,
      "okazało": 8049,
      "ukryli": 8050,
      "ukryty": 8051,
      "ukrytych": 8052,
      "niebezpieczeństw": 8053,
      "niebezpieczeństwem": 8054,
      "mimowolnie": 8055,
      "dziatki": 8056,
      "przekonani": 8057,
      "przekonany": 8058,
      "resztę": 8059,
      "gniewnie": 8060,
      "okropnego": 8061,
      "okropnych": 8062,
      "okropnym": 8063,
      "okropnem": 8064,
      "płonna": 8065,
      "troskliwie": 8066,
      "strzę": 8067,
      "karabi": 8068,
      "karawanie": 8069,
      "ostrogami": 8070,
      "stąpiwszy": 8071,
      "Widział": 8072,
      "Witam": 8073,
      "Widać": 8074,
      "Wirgi": 8075,
      "Wiwat": 8076,
      "grub": 8077,
      "spienione": 8078,
      "spienionych": 8079,
      "spieszyła": 8080,
      "zwierz": 8081,
      "potrzebu": 8082,
      "odetch": 8083,
      "odeprzeć": 8084,
      "świadczyła": 8085,
      "Były": 8086,
      "Bywaj": 8087,
      "Byłem": 8088,
      "Bywajcie": 8089,
      "Wiem": 8090,
      "krzak": 8091,
      "krzakami": 8092,
      "wrzawa": 8093,
      "wrzaskami": 8094,
      "radość": 8095,
      "głup": 8096,
      "głupi": 8097,
      "głupiec": 8098,
      "osadnik": 8099,
      "zdołacie": 8100,
      "mężnych": 8101,
      "Tomem": 8102,
      "Sępie": 8103,
      "rodzina": 8104,
      "rodziciel": 8105,
      "każdej": 8106,
      "dziewko": 8107,
      "żyjesz": 8108,
      "nieszczęśliwi": 8109,
      "nieszczęśliwą": 8110,
      "nieszczęśliwej": 8111,
      "dliwie": 8112,
      "dliwe": 8113,
      "dliwości": 8114,
      "oczywiście": 8115,
      "płaczem": 8116,
      "uderzywszy": 8117,
      "strym": 8118,
      "dostrzedz": 8119,
      "dostrzegam": 8120,
      "milcz": 8121,
      "ciężką": 8122,
      "ciężkiej": 8123,
      "broniących": 8124,
      "pozostaje": 8125,
      "pozostawią": 8126,
      "pozostawiwszy": 8127,
      "własnym": 8128,
      "Celujcie": 8129,
      "zemdl": 8130,
      "zniknie": 8131,
      "znikli": 8132,
      "znikło": 8133,
      "zniknęli": 8134,
      "zniknięcia": 8135,
      "napotkałem": 8136,
      "ranny": 8137,
      "rannej": 8138,
      "wyrażając": 8139,
      "wyrażał": 8140,
      "puszczyku": 8141,
      "wściekłych": 8142,
      "zbroczone": 8143,
      "zbliży": 8144,
      "zbliżyć": 8145,
      "zbliżał": 8146,
      "zbliżywszy": 8147,
      "zbliżyli": 8148,
      "pomszczą": 8149,
      "pomniawszy": 8150,
      "pomścił": 8151,
      "dostawszy": 8152,
      "dostatkiem": 8153,
      "wiono": 8154,
      "wionej": 8155,
      "wiosek": 8156,
      "wiernym": 8157,
      "dalszych": 8158,
      "dalszego": 8159,
      "dalszym": 8160,
      "mieniła": 8161,
      "starym": 8162,
      "któraby": 8163,
      "największe": 8164,
      "największego": 8165,
      "czupryna": 8166,
      "piękna": 8167,
      "pięknej": 8168,
      "Dziwię": 8169,
      "drgnął": 8170,
      "drwiny": 8171,
      "gesta": 8172,
      "generalną": 8173,
      "tniła": 8174,
      "tniku": 8175,
      "wskazów": 8176,
      "zdjął": 8177,
      "powita": 8178,
      "powinni": 8179,
      "sposobności": 8180,
      "wzrost": 8181,
      "Odważ": 8182,
      "brzydzę": 8183,
      "otaczały": 8184,
      "spalił": 8185,
      "umiecie": 8186,
      "napadzie": 8187,
      "napaści": 8188,
      "dziękując": 8189,
      "dziękował": 8190,
      "biegła": 8191,
      "groźnie": 8192,
      "groźbę": 8193,
      "groźbą": 8194,
      "morderczy": 8195,
      "morderco": 8196,
      "morderca": 8197,
      "mordercę": 8198,
      "zdobyte": 8199,
      "zdobytych": 8200,
      "zdobyczą": 8201,
      "zostaw": 8202,
      "zostać": 8203,
      "zostawić": 8204,
      "chłodno": 8205,
      "chłopak": 8206,
      "potępie": 8207,
      "gotowanych": 8208,
      "dowodzi": 8209,
      "litować": 8210,
      "palce": 8211,
      "palnął": 8212,
      "palcach": 8213,
      "ścianach": 8214,
      "wziąłem": 8215,
      "wszelkie": 8216,
      "wszelką": 8217,
      "wszelkiego": 8218,
      "wszelkimi": 8219,
      "krwawych": 8220,
      "krwawego": 8221,
      "ostrożność": 8222,
      "Broń": 8223,
      "Brodowi": 8224,
      "dwukrotnie": 8225,
      "grab": 8226,
      "idących": 8227,
      "gorący": 8228,
      "liczby": 8229,
      "liczba": 8230,
      "liczbę": 8231,
      "liczący": 8232,
      "dawne": 8233,
      "dawnego": 8234,
      "dawnem": 8235,
      "dawniejszych": 8236,
      "przyczynę": 8237,
      "mieszkańcy": 8238,
      "obycza": 8239,
      "smutną": 8240,
      "zginą": 8241,
      "nieprzyjaciele": 8242,
      "zaczęły": 8243,
      "zatrzymało": 8244,
      "zatrzymała": 8245,
      "zatrzymując": 8246,
      "wartości": 8247,
      "wyprawi": 8248,
      "wyprawił": 8249,
      "obedrą": 8250,
      "obowiąz": 8251,
      "podróżników": 8252,
      "ludzkich": 8253,
      "ludzką": 8254,
      "ofiar": 8255,
      "ofiara": 8256,
      "ofiarować": 8257,
      "napełniały": 8258,
      "napełniła": 8259,
      "napełniły": 8260,
      "godnym": 8261,
      "wzgórek": 8262,
      "Kentukczyków": 8263,
      "Słońce": 8264,
      "kręcił": 8265,
      "kręgiem": 8266,
      "śpiew": 8267,
      "żądzą": 8268,
      "żądam": 8269,
      "nalega": 8270,
      "nalegał": 8271,
      "lekka": 8272,
      "lekką": 8273,
      "lekkim": 8274,
      "obejmie": 8275,
      "puszczać": 8276,
      "spojrzeć": 8277,
      "jednosta": 8278,
      "wzięło": 8279,
      "wzięła": 8280,
      "wzięły": 8281,
      "żająca": 8282,
      "osadnikami": 8283,
      "osadnikom": 8284,
      "zwycięstwo": 8285,
      "zwycięstw": 8286,
      "roztrzaskam": 8287,
      "przewodnikiem": 8288,
      "dłoń": 8289,
      "dłoni": 8290,
      "zgła": 8291,
      "zwanego": 8292,
      "zamiary": 8293,
      "zamiaru": 8294,
      "zamiarom": 8295,
      "widzimy": 8296,
      "widziałam": 8297,
      "olbrzymia": 8298,
      "bolesne": 8299,
      "głównie": 8300,
      "główny": 8301,
      "główkę": 8302,
      "niktby": 8303,
      "gromów": 8304,
      "grzmiącym": 8305,
      "izba": 8306,
      "izbę": 8307,
      "opuściła": 8308,
      "plemię": 8309,
      "tłumo": 8310,
      "tłumy": 8311,
      "tłumu": 8312,
      "udajecie": 8313,
      "usług": 8314,
      "usłuchał": 8315,
      "zbudzony": 8316,
      "zwaliwszy": 8317,
      "niższym": 8318,
      "dziwna": 8319,
      "dziwny": 8320,
      "oddziału": 8321,
      "mocą": 8322,
      "rozpoczął": 8323,
      "żartu": 8324,
      "okrutni": 8325,
      "współbraci": 8326,
      "Forresterowi": 8327,
      "wstrzymaj": 8328,
      "cierpliwy": 8329,
      "cierpliwością": 8330,
      "Górny": 8331,
      "Sercem": 8332,
      "Tuż": 8333,
      "ukazanie": 8334,
      "uczuć": 8335,
      "uczucie": 8336,
      "szczupłe": 8337,
      "czterna": 8338,
      "zamienił": 8339,
      "wypadło": 8340,
      "dziedziczka": 8341,
      "dziedziczkę": 8342,
      "parob": 8343,
      "przypatrując": 8344,
      "przypatrzeć": 8345,
      "przypatrzywszy": 8346,
      "spoczynek": 8347,
      "spoczywają": 8348,
      "blizki": 8349,
      "blizkie": 8350,
      "bezpieczne": 8351,
      "Forresterem": 8352,
      "dostrzegłszy": 8353,
      "Colbridgem": 8354,
      "drzwia": 8355,
      "mniemany": 8356,
      "mniemanego": 8357,
      "trwało": 8358,
      "łódź": 8359,
      "żałuję": 8360,
      "żałując": 8361,
      "niewiadomo": 8362,
      "stanąć": 8363,
      "walecznego": 8364,
      "walecznym": 8365,
      "dolinie": 8366,
      "dolina": 8367,
      "doliny": 8368,
      "dolinkę": 8369,
      "konnych": 8370,
      "konwoju": 8371,
      "działania": 8372,
      "przejście": 8373,
      "przejrzał": 8374,
      "ciekawie": 8375,
      "przyjdzie": 8376,
      "przyjść": 8377,
      "bierać": 8378,
      "skradając": 8379,
      "zdołałby": 8380,
      "potrzebna": 8381,
      "potrzebnych": 8382,
      "mężczyzna": 8383,
      "Chód": 8384,
      "Chcesz": 8385,
      "Nikogo": 8386,
      "gryzł": 8387,
      "ogarnął": 8388,
      "ogarnąć": 8389,
      "psinę": 8390,
      "skiero": 8391,
      "skierował": 8392,
      "ustała": 8393,
      "uwolnił": 8394,
      "uwolniony": 8395,
      "zrobiłeś": 8396,
      "śledził": 8397,
      "śledząc": 8398,
      "nieporząd": 8399,
      "niepospoli": 8400,
      "nieboszczy": 8401,
      "niebotycznych": 8402,
      "niewolnik": 8403,
      "niewolnika": 8404,
      "niewolnice": 8405,
      "poprzedz": 8406,
      "poprzestał": 8407,
      "poprzestań": 8408,
      "pokryła": 8409,
      "nicyi": 8410,
      "doświadczenie": 8411,
      "doświadczonym": 8412,
      "wystawił": 8413,
      "wystawić": 8414,
      "wystającą": 8415,
      "przebyciu": 8416,
      "przebywając": 8417,
      "paręset": 8418,
      "pamięć": 8419,
      "pamięci": 8420,
      "przybycie": 8421,
      "przybyciem": 8422,
      "przybyszów": 8423,
      "żyłaś": 8424,
      "nędzny": 8425,
      "nędznik": 8426,
      "wiązane": 8427,
      "wyraźniej": 8428,
      "huknęły": 8429,
      "Miał": 8430,
      "Noc": 8431,
      "drażni": 8432,
      "otoczyła": 8433,
      "otoczywszy": 8434,
      "wpadłem": 8435,
      "wpadłszy": 8436,
      "zręczność": 8437,
      "zgubę": 8438,
      "niepodobną": 8439,
      "nazwę": 8440,
      "zapasy": 8441,
      "dozwolił": 8442,
      "angielskich": 8443,
      "łożysko": 8444,
      "jaśnij": 8445,
      "samolub": 8446,
      "skończył": 8447,
      "skończonej": 8448,
      "pędziłem": 8449,
      "gałęzie": 8450,
      "okazywała": 8451,
      "okazywało": 8452,
      "okazywały": 8453,
      "Cezarem": 8454,
      "aligatora": 8455,
      "aligatorem": 8456,
      "nienawiść": 8457,
      "kleszcza": 8458,
      "nącej": 8459,
      "opierając": 8460,
      "opiekunem": 8461,
      "otuchy": 8462,
      "opowiedz": 8463,
      "opowiedzieć": 8464,
      "zwłokami": 8465,
      "zwrócić": 8466,
      "żałować": 8467,
      "żałosne": 8468,
      "niespodziewane": 8469,
      "niespodziewanego": 8470,
      "nazywał": 8471,
      "nastąpiło": 8472,
      "porwało": 8473,
      "ponowienia": 8474,
      "zajmu": 8475,
      "zajrzał": 8476,
      "przeprawił": 8477,
      "piesek": 8478,
      "murzynów": 8479,
      "murzynowi": 8480,
      "puszczał": 8481,
      "nikczemny": 8482,
      "ludności": 8483,
      "ostrzega": 8484,
      "lękając": 8485,
      "wątpię": 8486,
      "wątpienia": 8487,
      "kryjówek": 8488,
      "bliższem": 8489,
      "wychodźcy": 8490,
      "młodszy": 8491,
      "młodsi": 8492,
      "błyskawica": 8493,
      "wojenną": 8494,
      "olbrzymią": 8495,
      "nadzwyczajnie": 8496,
      "Krwawego": 8497,
      "Krwawym": 8498,
      "Rzecz": 8499,
      "okrytych": 8500,
      "uratować": 8501,
      "zwiększa": 8502,
      "zwiększył": 8503,
      "zwiększała": 8504,
      "śnięcia": 8505,
      "niecierpliwości": 8506,
      "pomordował": 8507,
      "pomordowane": 8508,
      "pomordowanych": 8509,
      "powróciła": 8510,
      "strugą": 8511,
      "strudzone": 8512,
      "zabrali": 8513,
      "zabrania": 8514,
      "domowe": 8515,
      "wisiała": 8516,
      "wisiało": 8517,
      "wyswobodziła": 8518,
      "dyabła": 8519,
      "dziesięć": 8520,
      "ścigają": 8521,
      "siedziało": 8522,
      "alboż": 8523,
      "szczegól": 8524,
      "ostatnia": 8525,
      "ostatnich": 8526,
      "ostatnią": 8527,
      "znajdujesz": 8528,
      "znajdujemy": 8529,
      "słówko": 8530,
      "przeraźliwym": 8531,
      "przeraźliwem": 8532,
      "zaroślami": 8533,
      "pogrążona": 8534,
      "Niższemu": 8535,
      "córka": 8536,
      "córkę": 8537,
      "knięcie": 8538,
      "używa": 8539,
      "niedoro": 8540,
      "niedostęp": 8541,
      "nadania": 8542,
      "nadawały": 8543,
      "począć": 8544,
      "począwszy": 8545,
      "posiadam": 8546,
      "zamą": 8547,
      "zasadzek": 8548,
      "zachować": 8549,
      "zachowania": 8550,
      "zachowanie": 8551,
      "zachowywał": 8552,
      "dojrzeć": 8553,
      "leśne": 8554,
      "leśnego": 8555,
      "wyjść": 8556,
      "wyjściem": 8557,
      "wybawił": 8558,
      "wołanie": 8559,
      "wołali": 8560,
      "rozumiejąc": 8561,
      "składało": 8562,
      "częstokroć": 8563,
      "znalazłszy": 8564,
      "zerwali": 8565,
      "myśleli": 8566,
      "budował": 8567,
      "Jedna": 8568,
      "Jedno": 8569,
      "pozbawiona": 8570,
      "pozbawioną": 8571,
      "pozbawionym": 8572,
      "pozwolić": 8573,
      "pozwoliło": 8574,
      "słusznie": 8575,
      "zwierzęcych": 8576,
      "schronić": 8577,
      "schronił": 8578,
      "plemieniu": 8579,
      "okrutną": 8580,
      "gałęziami": 8581,
      "Atkinsona": 8582,
      "Amerykan": 8583,
      "Moje": 8584,
      "Roze": 8585,
      "mnóstwem": 8586,
      "ogon": 8587,
      "opalona": 8588,
      "oświecił": 8589,
      "plecy": 8590,
      "pleców": 8591,
      "plecach": 8592,
      "uspokoić": 8593,
      "uspokoiło": 8594,
      "uspokoiły": 8595,
      "włóczyć": 8596,
      "zrana": 8597,
      "zjawił": 8598,
      "zjawisko": 8599,
      "zostało": 8600,
      "zdumienie": 8601,
      "niedźwiedzie": 8602,
      "napadem": 8603,
      "pożyczę": 8604,
      "powalić": 8605,
      "powaliła": 8606,
      "posłanie": 8607,
      "posłania": 8608,
      "pogardliwie": 8609,
      "połączony": 8610,
      "pospieszyli": 8611,
      "stanęły": 8612,
      "wilgo": 8613,
      "wilka": 8614,
      "wilków": 8615,
      "legowisku": 8616,
      "wyjątkiem": 8617,
      "kawałka": 8618,
      "targo": 8619,
      "mieszając": 8620,
      "obcych": 8621,
      "Najwięcej": 8622,
      "Najwyż": 8623,
      "szelestu": 8624,
      "szelestem": 8625,
      "malowała": 8626,
      "najlepszych": 8627,
      "najlepszego": 8628,
      "wzruszeń": 8629,
      "wzruszenie": 8630,
      "będąc": 8631,
      "będącego": 8632,
      "będąca": 8633,
      "strzelali": 8634,
      "ogromnym": 8635,
      "braciom": 8636,
      "braciszku": 8637,
      "ścieżka": 8638,
      "pozostała": 8639,
      "znajomości": 8640,
      "schwytany": 8641,
      "przeszkodzić": 8642,
      "przeszkodziła": 8643,
      "wziąłeś": 8644,
      "przeklęte": 8645,
      "Biały": 8646,
      "Czerwone": 8647,
      "Myśl": 8648,
      "grzeb": 8649,
      "hordy": 8650,
      "hordę": 8651,
      "klaszcząc": 8652,
      "osobli": 8653,
      "srogiego": 8654,
      "spełnię": 8655,
      "twierdzili": 8656,
      "zobaczenia": 8657,
      "niespokojności": 8658,
      "poczwar": 8659,
      "pocznij": 8660,
      "poważa": 8661,
      "pojawiła": 8662,
      "poruszać": 8663,
      "poruszane": 8664,
      "pośpiesz": 8665,
      "pośpiechu": 8666,
      "pośpieszyli": 8667,
      "zadawał": 8668,
      "zasłużonej": 8669,
      "wahanie": 8670,
      "dopomógł": 8671,
      "dobiegał": 8672,
      "ciche": 8673,
      "widma": 8674,
      "wymierz": 8675,
      "wyborna": 8676,
      "miotających": 8677,
      "miotającego": 8678,
      "wojny": 8679,
      "wojska": 8680,
      "przesuwającego": 8681,
      "przesuwającą": 8682,
      "tańczyć": 8683,
      "szyderstwa": 8684,
      "szyderstwem": 8685,
      "darmo": 8686,
      "obszerna": 8687,
      "objęcia": 8688,
      "celnym": 8689,
      "rozkaz": 8690,
      "rozbójnicy": 8691,
      "rozżarty": 8692,
      "rozżartego": 8693,
      "rozżartych": 8694,
      "bagna": 8695,
      "bagno": 8696,
      "baryłki": 8697,
      "baryłek": 8698,
      "wzywać": 8699,
      "buchnęła": 8700,
      "słuchasz": 8701,
      "pięćdziesięciu": 8702,
      "znajdujących": 8703,
      "strzelbami": 8704,
      "indyjska": 8705,
      "czołgał": 8706,
      "młodzieńców": 8707,
      "północnej": 8708,
      "ucieczką": 8709,
      "opończa": 8710,
      "opończą": 8711,
      "gromadkę": 8712,
      "zbliżali": 8713,
      "zbliżającego": 8714,
      "powinienem": 8715,
      "usiłowania": 8716,
      "usiłowań": 8717,
      "panter": 8718,
      "oczekiwać": 8719,
      "oczekiwaniu": 8720,
      "tomahawka": 8721,
      "zakłopotanie": 8722,
      "Koń": 8723,
      "ból": 8724,
      "dręczony": 8725,
      "dręczyły": 8726,
      "lanty": 8727,
      "opuszczenia": 8728,
      "oznaki": 8729,
      "oznaką": 8730,
      "okrzyku": 8731,
      "oswobodziłeś": 8732,
      "urwiska": 8733,
      "upadając": 8734,
      "umysł": 8735,
      "wspom": 8736,
      "wspomina": 8737,
      "wnętrze": 8738,
      "wpadli": 8739,
      "wpadła": 8740,
      "zmieniła": 8741,
      "zgruchotać": 8742,
      "zgruchotany": 8743,
      "świętości": 8744,
      "śmiałości": 8745,
      "niebezpieczną": 8746,
      "niebezpiecznego": 8747,
      "nadejścia": 8748,
      "pożrę": 8749,
      "potoku": 8750,
      "potoczył": 8751,
      "potoczyła": 8752,
      "pociechy": 8753,
      "pocieszyć": 8754,
      "ponurą": 8755,
      "potrafili": 8756,
      "zawcześnie": 8757,
      "zawló": 8758,
      "zagrodzenie": 8759,
      "zagrodzenia": 8760,
      "zachęca": 8761,
      "zachęcając": 8762,
      "zagradza": 8763,
      "zagrażało": 8764,
      "dokonał": 8765,
      "dokonany": 8766,
      "dotknie": 8767,
      "dotknął": 8768,
      "wypalił": 8769,
      "wyrzuty": 8770,
      "wyrzutki": 8771,
      "wyrzutami": 8772,
      "przerywał": 8773,
      "przerywana": 8774,
      "przebaczyć": 8775,
      "prześladowców": 8776,
      "łagodnością": 8777,
      "jadąc": 8778,
      "jazdę": 8779,
      "cielsku": 8780,
      "tygrys": 8781,
      "tygrysi": 8782,
      "przyjęcie": 8783,
      "przyjęcia": 8784,
      "starać": 8785,
      "starań": 8786,
      "podniosły": 8787,
      "szatanów": 8788,
      "nadludzkim": 8789,
      "prowadzał": 8790,
      "prowadzący": 8791,
      "prowadzonych": 8792,
      "dźwiga": 8793,
      "dźwigał": 8794,
      "dźwigać": 8795,
      "młodzian": 8796,
      "szukając": 8797,
      "uważaj": 8798,
      "potężnego": 8799,
      "usiłuje": 8800,
      "najdroższe": 8801,
      "najdroższych": 8802,
      "Drogi": 8803,
      "Kilku": 8804,
      "Mógł": 8805,
      "Mówił": 8806,
      "Mówią": 8807,
      "Prędko": 8808,
      "Woda": 8809,
      "Walka": 8810,
      "Walczący": 8811,
      "grozy": 8812,
      "groziło": 8813,
      "klęskę": 8814,
      "otwór": 8815,
      "otworem": 8816,
      "osłupienia": 8817,
      "osłupiał": 8818,
      "osłupiałym": 8819,
      "schylił": 8820,
      "schyloną": 8821,
      "schyłkowi": 8822,
      "uścisk": 8823,
      "zmarłych": 8824,
      "zbłąka": 8825,
      "zbłąkać": 8826,
      "niepotrzebnie": 8827,
      "niepotrzebny": 8828,
      "naznaczył": 8829,
      "chmurami": 8830,
      "poradzić": 8831,
      "porywając": 8832,
      "poprzednie": 8833,
      "poprzedniej": 8834,
      "popędzili": 8835,
      "popędliwości": 8836,
      "postanowiło": 8837,
      "pobiegłem": 8838,
      "powszechną": 8839,
      "powszechnego": 8840,
      "zawadą": 8841,
      "zawahał": 8842,
      "zaczepki": 8843,
      "dosięgli": 8844,
      "wichrem": 8845,
      "wychował": 8846,
      "wystarczyło": 8847,
      "wyrządzić": 8848,
      "minutach": 8849,
      "oddalać": 8850,
      "odkryć": 8851,
      "odkryje": 8852,
      "odwiecznej": 8853,
      "czyniło": 8854,
      "obliczu": 8855,
      "obwinia": 8856,
      "piekiel": 8857,
      "piekielnie": 8858,
      "skrzydła": 8859,
      "skłonić": 8860,
      "skłoniło": 8861,
      "skrwawioną": 8862,
      "szalony": 8863,
      "głowach": 8864,
      "wzruszyć": 8865,
      "pójdzie": 8866,
      "przedmiotem": 8867,
      "wązki": 8868,
      "bujnie": 8869,
      "bujnym": 8870,
      "wymówek": 8871,
      "gardłowy": 8872,
      "uciekali": 8873,
      "trwożliwy": 8874,
      "napotkali": 8875,
      "próbował": 8876,
      "zręczny": 8877,
      "odzyskałeś": 8878,
      "zasadzki": 8879,
      "zasadzce": 8880,
      "Rozpoczę": 8881,
      "obszerną": 8882,
      "Europejczycy": 8883,
      "Liczył": 8884,
      "Szyder": 8885,
      "ochotę": 8886,
      "otwarcie": 8887,
      "plątane": 8888,
      "uzbrojenie": 8889,
      "uchwycił": 8890,
      "uchwyciwszy": 8891,
      "zgonu": 8892,
      "zmuszony": 8893,
      "zmuszeni": 8894,
      "zmniejszać": 8895,
      "nieznany": 8896,
      "nieznaną": 8897,
      "nasycić": 8898,
      "nasycenia": 8899,
      "szaleństwem": 8900,
      "chrześcijani": 8901,
      "posuwali": 8902,
      "pozyskawszy": 8903,
      "posłuszeństwo": 8904,
      "posiłki": 8905,
      "pomieszanie": 8906,
      "pomieszania": 8907,
      "zaryczał": 8908,
      "zarysowało": 8909,
      "zabiegów": 8910,
      "zabierał": 8911,
      "zapadła": 8912,
      "zapadała": 8913,
      "rabuś": 8914,
      "wydały": 8915,
      "wydany": 8916,
      "wysłałem": 8917,
      "wyrywa": 8918,
      "wykrzywiła": 8919,
      "wyniosły": 8920,
      "wietrzyk": 8921,
      "przemocy": 8922,
      "jakichże": 8923,
      "odsiecz": 8924,
      "przygotować": 8925,
      "przygotowania": 8926,
      "przypuszczali": 8927,
      "przykrępowany": 8928,
      "rozlewem": 8929,
      "podsunąć": 8930,
      "szarpnął": 8931,
      "turbanie": 8932,
      "lufy": 8933,
      "lufę": 8934,
      "zewnątrz": 8935,
      "skaliste": 8936,
      "skalistem": 8937,
      "skalistymi": 8938,
      "mniemali": 8939,
      "mniemania": 8940,
      "mniemaniu": 8941,
      "przedsięwziąć": 8942,
      "strażników": 8943,
      "trupów": 8944,
      "pochyliwszy": 8945,
      "pochyłości": 8946,
      "nurty": 8947,
      "nurtach": 8948,
      "wstydu": 8949,
      "odpowiedziały": 8950,
      "Jakieś": 8951,
      "Jakież": 8952,
      "skórzaną": 8953,
      "godzinnej": 8954,
      "zwierzynę": 8955,
      "dziewczynkę": 8956,
      "dostaniesz": 8957,
      "chłopcze": 8958,
      "chłopcy": 8959,
      "przeszkadzać": 8960,
      "przeklinają": 8961,
      "krępujące": 8962,
      "żądasz": 8963,
      "żądaniu": 8964,
      "rozpoczęte": 8965,
      "zamieszanie": 8966,
      "zgubionego": 8967,
      "pergaminu": 8968,
      "budowla": 8969,
      "niewypowiedzianą": 8970,
      "zapomniałeś": 8971,
      "wyzwolenia": 8972,
      "żołnierz": 8973,
      "żołnierza": 8974,
      "szlachetny": 8975,
      "szlachetnej": 8976,
      "obrzydliwej": 8977,
      "znękanemu": 8978,
      "pierzchnęła": 8979,
      "pierzchnęli": 8980,
      "Klaryssę": 8981,
      "europejskich": 8982,
      "historya": 8983,
      "historyi": 8984,
      "Dawajcie": 8985,
      "Obawa": 8986,
      "Pantera": 8987,
      "Strzel": 8988,
      "bluzę": 8989,
      "fajki": 8990,
      "fuzyi": 8991,
      "gwizd": 8992,
      "gwinei": 8993,
      "gnięte": 8994,
      "hałasu": 8995,
      "osłabieniem": 8996,
      "ulewa": 8997,
      "unikał": 8998,
      "uniknąć": 8999,
      "ukończeniu": 9000,
      "unosiła": 9001,
      "unikali": 9002,
      "zmienić": 9003,
      "zmierzchu": 9004,
      "zboża": 9005,
      "zwalonych": 9006,
      "znużenia": 9007,
      "łódce": 9008,
      "łódkę": 9009,
      "żalem": 9010,
      "nieoce": 9011,
      "nieopis": 9012,
      "nieładzie": 9013,
      "niełaskę": 9014,
      "niewinna": 9015,
      "niewinnej": 9016,
      "natrafili": 9017,
      "połysku": 9018,
      "polowania": 9019,
      "zawisł": 9020,
      "zamacza": 9021,
      "zamachem": 9022,
      "zaczaił": 9023,
      "zakończyła": 9024,
      "zamieszkał": 9025,
      "zagłębił": 9026,
      "zapewnić": 9027,
      "zapewnił": 9028,
      "gorzką": 9029,
      "gotując": 9030,
      "waryat": 9031,
      "doprowadzę": 9032,
      "domyślił": 9033,
      "kochającym": 9034,
      "kark": 9035,
      "przeznaczone": 9036,
      "przeczuwali": 9037,
      "dziewicy": 9038,
      "oblegających": 9039,
      "kukurydzy": 9040,
      "kukurydzą": 9041,
      "przysłuchu": 9042,
      "przysłuchi": 9043,
      "przyszłość": 9044,
      "rozciągała": 9045,
      "rozciągniętego": 9046,
      "rozsądnie": 9047,
      "bijącem": 9048,
      "najokropniej": 9049,
      "najokropniejsze": 9050,
      "sklepienia": 9051,
      "podskakując": 9052,
      "podstępem": 9053,
      "sierot": 9054,
      "sierotę": 9055,
      "strzeliłem": 9056,
      "słoneczne": 9057,
      "zupełną": 9058,
      "długiej": 9059,
      "gałąź": 9060,
      "Przerażenie": 9061,
      "Przerażona": 9062,
      "omdlał": 9063,
      "omdlała": 9064,
      "ukrywający": 9065,
      "ostrokołem": 9066,
      "gruncie": 9067,
      "gruntu": 9068,
      "uderzając": 9069,
      "księżyca": 9070,
      "przekleństwa": 9071,
      "napełniają": 9072,
      "lekkomyślność": 9073,
      "zgrozy": 9074,
      "jeździec": 9075,
      "grzbiet": 9076,
      "grzbiecie": 9077,
      "okrucieństwo": 9078,
      "okrucieństwem": 9079,
      "Nikt": 9080,
      "poprzedzającym": 9081,
      "skalpów": 9082,
      "nazywasz": 9083,
      "twardym": 9084,
      "Możesz": 9085,
      "pojmanym": 9086,
      "Kilkakrotnie": 9087,
      "nieprzejrzane": 9088,
      "nieprzejrzanych": 9089,
      "brunatną": 9090,
      "Cieszę": 9091,
      "Chata": 9092,
      "Głupstwo": 9093,
      "Prawda": 9094,
      "Szum": 9095,
      "Szukaj": 9096,
      "Straty": 9097,
      "Straszny": 9098,
      "formie": 9099,
      "kółek": 9100,
      "opętał": 9101,
      "ochłonąwszy": 9102,
      "opuszczała": 9103,
      "pchnięcie": 9104,
      "spadła": 9105,
      "upojeni": 9106,
      "ustroniach": 9107,
      "wsadził": 9108,
      "wlok": 9109,
      "wlokąc": 9110,
      "zmieszany": 9111,
      "nagłe": 9112,
      "namyślił": 9113,
      "posnęli": 9114,
      "potajemnie": 9115,
      "powalony": 9116,
      "powalonych": 9117,
      "poważnym": 9118,
      "pomalowane": 9119,
      "poświęcenia": 9120,
      "strwożeni": 9121,
      "zabłysnął": 9122,
      "zamieniły": 9123,
      "zasmucił": 9124,
      "zawdzięczał": 9125,
      "zaufa": 9126,
      "zaufanie": 9127,
      "zajadłych": 9128,
      "gospodar": 9129,
      "donośnym": 9130,
      "jeleni": 9131,
      "letniego": 9132,
      "letnią": 9133,
      "wywołała": 9134,
      "wyciągała": 9135,
      "wynagrodzenia": 9136,
      "łotrom": 9137,
      "łotrostwo": 9138,
      "przepaść": 9139,
      "przedewszystkiem": 9140,
      "przeraziła": 9141,
      "parci": 9142,
      "parska": 9143,
      "obficie": 9144,
      "rozbija": 9145,
      "bitwach": 9146,
      "najdzikszych": 9147,
      "najgłębsze": 9148,
      "gawędził": 9149,
      "czarowni": 9150,
      "skręcił": 9151,
      "spotkało": 9152,
      "więzień": 9153,
      "szablę": 9154,
      "zepsutej": 9155,
      "zepsutą": 9156,
      "Niedźwiedź": 9157,
      "wzgardą": 9158,
      "wąwozy": 9159,
      "chwilowej": 9160,
      "zdołały": 9161,
      "pędzało": 9162,
      "intereso": 9163,
      "kwadrans": 9164,
      "kwadransa": 9165,
[...]
